{
    "version": "1.0",
    "truncation": null,
    "padding": null,
    "added_tokens": [
        {
            "id": 0,
            "special": true,
            "content": "[PAD]",
            "single_word": false,
            "lstrip": false,
            "rstrip": false,
            "normalized": false
        },
        {
            "id": 1,
            "special": true,
            "content": "[UNK]",
            "single_word": false,
            "lstrip": false,
            "rstrip": false,
            "normalized": false
        },
        {
            "id": 2,
            "special": true,
            "content": "[CLS]",
            "single_word": false,
            "lstrip": false,
            "rstrip": false,
            "normalized": false
        },
        {
            "id": 3,
            "special": true,
            "content": "[SEP]",
            "single_word": false,
            "lstrip": false,
            "rstrip": false,
            "normalized": false
        },
        {
            "id": 4,
            "special": true,
            "content": "[MASK]",
            "single_word": false,
            "lstrip": false,
            "rstrip": false,
            "normalized": false
        },
        {
            "id": 5,
            "special": true,
            "content": "[SEPT]",
            "single_word": false,
            "lstrip": false,
            "rstrip": false,
            "normalized": false
        },
        {
            "id": 6,
            "special": true,
            "content": "[NAME]",
            "single_word": false,
            "lstrip": false,
            "rstrip": false,
            "normalized": false
        },
        {
            "id": 7,
            "special": true,
            "content": "[BOS]",
            "single_word": false,
            "lstrip": false,
            "rstrip": false,
            "normalized": false
        },
        {
            "id": 8,
            "special": true,
            "content": "[EOS]",
            "single_word": false,
            "lstrip": false,
            "rstrip": false,
            "normalized": false
        },
        {
            "id": 9,
            "special": true,
            "content": "[UNK0]",
            "single_word": false,
            "lstrip": false,
            "rstrip": false,
            "normalized": false
        },
        {
            "id": 10,
            "special": true,
            "content": "[UNK1]",
            "single_word": false,
            "lstrip": false,
            "rstrip": false,
            "normalized": false
        },
        {
            "id": 11,
            "special": true,
            "content": "[UNK2]",
            "single_word": false,
            "lstrip": false,
            "rstrip": false,
            "normalized": false
        },
        {
            "id": 12,
            "special": true,
            "content": "[UNK3]",
            "single_word": false,
            "lstrip": false,
            "rstrip": false,
            "normalized": false
        },
        {
            "id": 13,
            "special": true,
            "content": "[UNK4]",
            "single_word": false,
            "lstrip": false,
            "rstrip": false,
            "normalized": false
        },
        {
            "id": 14,
            "special": true,
            "content": "[UNK5]",
            "single_word": false,
            "lstrip": false,
            "rstrip": false,
            "normalized": false
        },
        {
            "id": 15,
            "special": true,
            "content": "[UNK6]",
            "single_word": false,
            "lstrip": false,
            "rstrip": false,
            "normalized": false
        },
        {
            "id": 16,
            "special": true,
            "content": "[UNK7]",
            "single_word": false,
            "lstrip": false,
            "rstrip": false,
            "normalized": false
        },
        {
            "id": 17,
            "special": true,
            "content": "[UNK8]",
            "single_word": false,
            "lstrip": false,
            "rstrip": false,
            "normalized": false
        },
        {
            "id": 18,
            "special": true,
            "content": "[UNK9]",
            "single_word": false,
            "lstrip": false,
            "rstrip": false,
            "normalized": false
        },
        {
            "id": 19,
            "special": true,
            "content": "[unused0]",
            "single_word": false,
            "lstrip": false,
            "rstrip": false,
            "normalized": false
        },
        {
            "id": 20,
            "special": true,
            "content": "[unused1]",
            "single_word": false,
            "lstrip": false,
            "rstrip": false,
            "normalized": false
        },
        {
            "id": 21,
            "special": true,
            "content": "[unused2]",
            "single_word": false,
            "lstrip": false,
            "rstrip": false,
            "normalized": false
        },
        {
            "id": 22,
            "special": true,
            "content": "[unused3]",
            "single_word": false,
            "lstrip": false,
            "rstrip": false,
            "normalized": false
        },
        {
            "id": 23,
            "special": true,
            "content": "[unused4]",
            "single_word": false,
            "lstrip": false,
            "rstrip": false,
            "normalized": false
        },
        {
            "id": 24,
            "special": true,
            "content": "[unused5]",
            "single_word": false,
            "lstrip": false,
            "rstrip": false,
            "normalized": false
        },
        {
            "id": 25,
            "special": true,
            "content": "[unused6]",
            "single_word": false,
            "lstrip": false,
            "rstrip": false,
            "normalized": false
        },
        {
            "id": 26,
            "special": true,
            "content": "[unused7]",
            "single_word": false,
            "lstrip": false,
            "rstrip": false,
            "normalized": false
        },
        {
            "id": 27,
            "special": true,
            "content": "[unused8]",
            "single_word": false,
            "lstrip": false,
            "rstrip": false,
            "normalized": false
        },
        {
            "id": 28,
            "special": true,
            "content": "[unused9]",
            "single_word": false,
            "lstrip": false,
            "rstrip": false,
            "normalized": false
        },
        {
            "id": 29,
            "special": true,
            "content": "[unused10]",
            "single_word": false,
            "lstrip": false,
            "rstrip": false,
            "normalized": false
        },
        {
            "id": 30,
            "special": true,
            "content": "[unused11]",
            "single_word": false,
            "lstrip": false,
            "rstrip": false,
            "normalized": false
        },
        {
            "id": 31,
            "special": true,
            "content": "[unused12]",
            "single_word": false,
            "lstrip": false,
            "rstrip": false,
            "normalized": false
        },
        {
            "id": 32,
            "special": true,
            "content": "[unused13]",
            "single_word": false,
            "lstrip": false,
            "rstrip": false,
            "normalized": false
        },
        {
            "id": 33,
            "special": true,
            "content": "[unused14]",
            "single_word": false,
            "lstrip": false,
            "rstrip": false,
            "normalized": false
        },
        {
            "id": 34,
            "special": true,
            "content": "[unused15]",
            "single_word": false,
            "lstrip": false,
            "rstrip": false,
            "normalized": false
        },
        {
            "id": 35,
            "special": true,
            "content": "[unused16]",
            "single_word": false,
            "lstrip": false,
            "rstrip": false,
            "normalized": false
        },
        {
            "id": 36,
            "special": true,
            "content": "[unused17]",
            "single_word": false,
            "lstrip": false,
            "rstrip": false,
            "normalized": false
        },
        {
            "id": 37,
            "special": true,
            "content": "[unused18]",
            "single_word": false,
            "lstrip": false,
            "rstrip": false,
            "normalized": false
        },
        {
            "id": 38,
            "special": true,
            "content": "[unused19]",
            "single_word": false,
            "lstrip": false,
            "rstrip": false,
            "normalized": false
        },
        {
            "id": 39,
            "special": true,
            "content": "[unused20]",
            "single_word": false,
            "lstrip": false,
            "rstrip": false,
            "normalized": false
        },
        {
            "id": 40,
            "special": true,
            "content": "[unused21]",
            "single_word": false,
            "lstrip": false,
            "rstrip": false,
            "normalized": false
        },
        {
            "id": 41,
            "special": true,
            "content": "[unused22]",
            "single_word": false,
            "lstrip": false,
            "rstrip": false,
            "normalized": false
        },
        {
            "id": 42,
            "special": true,
            "content": "[unused23]",
            "single_word": false,
            "lstrip": false,
            "rstrip": false,
            "normalized": false
        },
        {
            "id": 43,
            "special": true,
            "content": "[unused24]",
            "single_word": false,
            "lstrip": false,
            "rstrip": false,
            "normalized": false
        },
        {
            "id": 44,
            "special": true,
            "content": "[unused25]",
            "single_word": false,
            "lstrip": false,
            "rstrip": false,
            "normalized": false
        },
        {
            "id": 45,
            "special": true,
            "content": "[unused26]",
            "single_word": false,
            "lstrip": false,
            "rstrip": false,
            "normalized": false
        },
        {
            "id": 46,
            "special": true,
            "content": "[unused27]",
            "single_word": false,
            "lstrip": false,
            "rstrip": false,
            "normalized": false
        },
        {
            "id": 47,
            "special": true,
            "content": "[unused28]",
            "single_word": false,
            "lstrip": false,
            "rstrip": false,
            "normalized": false
        },
        {
            "id": 48,
            "special": true,
            "content": "[unused29]",
            "single_word": false,
            "lstrip": false,
            "rstrip": false,
            "normalized": false
        },
        {
            "id": 49,
            "special": true,
            "content": "[unused30]",
            "single_word": false,
            "lstrip": false,
            "rstrip": false,
            "normalized": false
        },
        {
            "id": 50,
            "special": true,
            "content": "[unused31]",
            "single_word": false,
            "lstrip": false,
            "rstrip": false,
            "normalized": false
        },
        {
            "id": 51,
            "special": true,
            "content": "[unused32]",
            "single_word": false,
            "lstrip": false,
            "rstrip": false,
            "normalized": false
        },
        {
            "id": 52,
            "special": true,
            "content": "[unused33]",
            "single_word": false,
            "lstrip": false,
            "rstrip": false,
            "normalized": false
        },
        {
            "id": 53,
            "special": true,
            "content": "[unused34]",
            "single_word": false,
            "lstrip": false,
            "rstrip": false,
            "normalized": false
        },
        {
            "id": 54,
            "special": true,
            "content": "[unused35]",
            "single_word": false,
            "lstrip": false,
            "rstrip": false,
            "normalized": false
        },
        {
            "id": 55,
            "special": true,
            "content": "[unused36]",
            "single_word": false,
            "lstrip": false,
            "rstrip": false,
            "normalized": false
        },
        {
            "id": 56,
            "special": true,
            "content": "[unused37]",
            "single_word": false,
            "lstrip": false,
            "rstrip": false,
            "normalized": false
        },
        {
            "id": 57,
            "special": true,
            "content": "[unused38]",
            "single_word": false,
            "lstrip": false,
            "rstrip": false,
            "normalized": false
        },
        {
            "id": 58,
            "special": true,
            "content": "[unused39]",
            "single_word": false,
            "lstrip": false,
            "rstrip": false,
            "normalized": false
        },
        {
            "id": 59,
            "special": true,
            "content": "[unused40]",
            "single_word": false,
            "lstrip": false,
            "rstrip": false,
            "normalized": false
        },
        {
            "id": 60,
            "special": true,
            "content": "[unused41]",
            "single_word": false,
            "lstrip": false,
            "rstrip": false,
            "normalized": false
        },
        {
            "id": 61,
            "special": true,
            "content": "[unused42]",
            "single_word": false,
            "lstrip": false,
            "rstrip": false,
            "normalized": false
        },
        {
            "id": 62,
            "special": true,
            "content": "[unused43]",
            "single_word": false,
            "lstrip": false,
            "rstrip": false,
            "normalized": false
        },
        {
            "id": 63,
            "special": true,
            "content": "[unused44]",
            "single_word": false,
            "lstrip": false,
            "rstrip": false,
            "normalized": false
        },
        {
            "id": 64,
            "special": true,
            "content": "[unused45]",
            "single_word": false,
            "lstrip": false,
            "rstrip": false,
            "normalized": false
        },
        {
            "id": 65,
            "special": true,
            "content": "[unused46]",
            "single_word": false,
            "lstrip": false,
            "rstrip": false,
            "normalized": false
        },
        {
            "id": 66,
            "special": true,
            "content": "[unused47]",
            "single_word": false,
            "lstrip": false,
            "rstrip": false,
            "normalized": false
        },
        {
            "id": 67,
            "special": true,
            "content": "[unused48]",
            "single_word": false,
            "lstrip": false,
            "rstrip": false,
            "normalized": false
        },
        {
            "id": 68,
            "special": true,
            "content": "[unused49]",
            "single_word": false,
            "lstrip": false,
            "rstrip": false,
            "normalized": false
        },
        {
            "id": 69,
            "special": true,
            "content": "[unused50]",
            "single_word": false,
            "lstrip": false,
            "rstrip": false,
            "normalized": false
        },
        {
            "id": 70,
            "special": true,
            "content": "[unused51]",
            "single_word": false,
            "lstrip": false,
            "rstrip": false,
            "normalized": false
        },
        {
            "id": 71,
            "special": true,
            "content": "[unused52]",
            "single_word": false,
            "lstrip": false,
            "rstrip": false,
            "normalized": false
        },
        {
            "id": 72,
            "special": true,
            "content": "[unused53]",
            "single_word": false,
            "lstrip": false,
            "rstrip": false,
            "normalized": false
        },
        {
            "id": 73,
            "special": true,
            "content": "[unused54]",
            "single_word": false,
            "lstrip": false,
            "rstrip": false,
            "normalized": false
        },
        {
            "id": 74,
            "special": true,
            "content": "[unused55]",
            "single_word": false,
            "lstrip": false,
            "rstrip": false,
            "normalized": false
        },
        {
            "id": 75,
            "special": true,
            "content": "[unused56]",
            "single_word": false,
            "lstrip": false,
            "rstrip": false,
            "normalized": false
        },
        {
            "id": 76,
            "special": true,
            "content": "[unused57]",
            "single_word": false,
            "lstrip": false,
            "rstrip": false,
            "normalized": false
        },
        {
            "id": 77,
            "special": true,
            "content": "[unused58]",
            "single_word": false,
            "lstrip": false,
            "rstrip": false,
            "normalized": false
        },
        {
            "id": 78,
            "special": true,
            "content": "[unused59]",
            "single_word": false,
            "lstrip": false,
            "rstrip": false,
            "normalized": false
        },
        {
            "id": 79,
            "special": true,
            "content": "[unused60]",
            "single_word": false,
            "lstrip": false,
            "rstrip": false,
            "normalized": false
        },
        {
            "id": 80,
            "special": true,
            "content": "[unused61]",
            "single_word": false,
            "lstrip": false,
            "rstrip": false,
            "normalized": false
        },
        {
            "id": 81,
            "special": true,
            "content": "[unused62]",
            "single_word": false,
            "lstrip": false,
            "rstrip": false,
            "normalized": false
        },
        {
            "id": 82,
            "special": true,
            "content": "[unused63]",
            "single_word": false,
            "lstrip": false,
            "rstrip": false,
            "normalized": false
        },
        {
            "id": 83,
            "special": true,
            "content": "[unused64]",
            "single_word": false,
            "lstrip": false,
            "rstrip": false,
            "normalized": false
        },
        {
            "id": 84,
            "special": true,
            "content": "[unused65]",
            "single_word": false,
            "lstrip": false,
            "rstrip": false,
            "normalized": false
        },
        {
            "id": 85,
            "special": true,
            "content": "[unused66]",
            "single_word": false,
            "lstrip": false,
            "rstrip": false,
            "normalized": false
        },
        {
            "id": 86,
            "special": true,
            "content": "[unused67]",
            "single_word": false,
            "lstrip": false,
            "rstrip": false,
            "normalized": false
        },
        {
            "id": 87,
            "special": true,
            "content": "[unused68]",
            "single_word": false,
            "lstrip": false,
            "rstrip": false,
            "normalized": false
        },
        {
            "id": 88,
            "special": true,
            "content": "[unused69]",
            "single_word": false,
            "lstrip": false,
            "rstrip": false,
            "normalized": false
        },
        {
            "id": 89,
            "special": true,
            "content": "[unused70]",
            "single_word": false,
            "lstrip": false,
            "rstrip": false,
            "normalized": false
        },
        {
            "id": 90,
            "special": true,
            "content": "[unused71]",
            "single_word": false,
            "lstrip": false,
            "rstrip": false,
            "normalized": false
        },
        {
            "id": 91,
            "special": true,
            "content": "[unused72]",
            "single_word": false,
            "lstrip": false,
            "rstrip": false,
            "normalized": false
        },
        {
            "id": 92,
            "special": true,
            "content": "[unused73]",
            "single_word": false,
            "lstrip": false,
            "rstrip": false,
            "normalized": false
        },
        {
            "id": 93,
            "special": true,
            "content": "[unused74]",
            "single_word": false,
            "lstrip": false,
            "rstrip": false,
            "normalized": false
        },
        {
            "id": 94,
            "special": true,
            "content": "[unused75]",
            "single_word": false,
            "lstrip": false,
            "rstrip": false,
            "normalized": false
        },
        {
            "id": 95,
            "special": true,
            "content": "[unused76]",
            "single_word": false,
            "lstrip": false,
            "rstrip": false,
            "normalized": false
        },
        {
            "id": 96,
            "special": true,
            "content": "[unused77]",
            "single_word": false,
            "lstrip": false,
            "rstrip": false,
            "normalized": false
        },
        {
            "id": 97,
            "special": true,
            "content": "[unused78]",
            "single_word": false,
            "lstrip": false,
            "rstrip": false,
            "normalized": false
        },
        {
            "id": 98,
            "special": true,
            "content": "[unused79]",
            "single_word": false,
            "lstrip": false,
            "rstrip": false,
            "normalized": false
        },
        {
            "id": 99,
            "special": true,
            "content": "[unused80]",
            "single_word": false,
            "lstrip": false,
            "rstrip": false,
            "normalized": false
        },
        {
            "id": 100,
            "special": true,
            "content": "[unused81]",
            "single_word": false,
            "lstrip": false,
            "rstrip": false,
            "normalized": false
        },
        {
            "id": 101,
            "special": true,
            "content": "[unused82]",
            "single_word": false,
            "lstrip": false,
            "rstrip": false,
            "normalized": false
        },
        {
            "id": 102,
            "special": true,
            "content": "[unused83]",
            "single_word": false,
            "lstrip": false,
            "rstrip": false,
            "normalized": false
        },
        {
            "id": 103,
            "special": true,
            "content": "[unused84]",
            "single_word": false,
            "lstrip": false,
            "rstrip": false,
            "normalized": false
        },
        {
            "id": 104,
            "special": true,
            "content": "[unused85]",
            "single_word": false,
            "lstrip": false,
            "rstrip": false,
            "normalized": false
        },
        {
            "id": 105,
            "special": true,
            "content": "[unused86]",
            "single_word": false,
            "lstrip": false,
            "rstrip": false,
            "normalized": false
        },
        {
            "id": 106,
            "special": true,
            "content": "[unused87]",
            "single_word": false,
            "lstrip": false,
            "rstrip": false,
            "normalized": false
        },
        {
            "id": 107,
            "special": true,
            "content": "[unused88]",
            "single_word": false,
            "lstrip": false,
            "rstrip": false,
            "normalized": false
        },
        {
            "id": 108,
            "special": true,
            "content": "[unused89]",
            "single_word": false,
            "lstrip": false,
            "rstrip": false,
            "normalized": false
        },
        {
            "id": 109,
            "special": true,
            "content": "[unused90]",
            "single_word": false,
            "lstrip": false,
            "rstrip": false,
            "normalized": false
        },
        {
            "id": 110,
            "special": true,
            "content": "[unused91]",
            "single_word": false,
            "lstrip": false,
            "rstrip": false,
            "normalized": false
        },
        {
            "id": 111,
            "special": true,
            "content": "[unused92]",
            "single_word": false,
            "lstrip": false,
            "rstrip": false,
            "normalized": false
        },
        {
            "id": 112,
            "special": true,
            "content": "[unused93]",
            "single_word": false,
            "lstrip": false,
            "rstrip": false,
            "normalized": false
        },
        {
            "id": 113,
            "special": true,
            "content": "[unused94]",
            "single_word": false,
            "lstrip": false,
            "rstrip": false,
            "normalized": false
        },
        {
            "id": 114,
            "special": true,
            "content": "[unused95]",
            "single_word": false,
            "lstrip": false,
            "rstrip": false,
            "normalized": false
        },
        {
            "id": 115,
            "special": true,
            "content": "[unused96]",
            "single_word": false,
            "lstrip": false,
            "rstrip": false,
            "normalized": false
        },
        {
            "id": 116,
            "special": true,
            "content": "[unused97]",
            "single_word": false,
            "lstrip": false,
            "rstrip": false,
            "normalized": false
        },
        {
            "id": 117,
            "special": true,
            "content": "[unused98]",
            "single_word": false,
            "lstrip": false,
            "rstrip": false,
            "normalized": false
        },
        {
            "id": 118,
            "special": true,
            "content": "[unused99]",
            "single_word": false,
            "lstrip": false,
            "rstrip": false,
            "normalized": false
        }
    ],
    "normalizer": {
        "type": "BertNormalizer",
        "clean_text": true,
        "handle_chinese_chars": true,
        "strip_accents": false,
        "lowercase": false
    },
    "pre_tokenizer": {
        "type": "BertPreTokenizer"
    },
    "post_processor": null,
    "decoder": {
        "type": "WordPiece",
        "prefix": "##",
        "cleanup": true
    },
    "model": {
        "unk_token": "[UNK]",
        "continuing_subword_prefix": "##",
        "max_input_chars_per_word": 100,
        "vocab": {
            "[PAD]": 0,
            "[UNK]": 1,
            "[CLS]": 2,
            "[SEP]": 3,
            "[MASK]": 4,
            "[SEPT]": 5,
            "[NAME]": 6,
            "[BOS]": 7,
            "[EOS]": 8,
            "[UNK0]": 9,
            "[UNK1]": 10,
            "[UNK2]": 11,
            "[UNK3]": 12,
            "[UNK4]": 13,
            "[UNK5]": 14,
            "[UNK6]": 15,
            "[UNK7]": 16,
            "[UNK8]": 17,
            "[UNK9]": 18,
            "[unused0]": 19,
            "[unused1]": 20,
            "[unused2]": 21,
            "[unused3]": 22,
            "[unused4]": 23,
            "[unused5]": 24,
            "[unused6]": 25,
            "[unused7]": 26,
            "[unused8]": 27,
            "[unused9]": 28,
            "[unused10]": 29,
            "[unused11]": 30,
            "[unused12]": 31,
            "[unused13]": 32,
            "[unused14]": 33,
            "[unused15]": 34,
            "[unused16]": 35,
            "[unused17]": 36,
            "[unused18]": 37,
            "[unused19]": 38,
            "[unused20]": 39,
            "[unused21]": 40,
            "[unused22]": 41,
            "[unused23]": 42,
            "[unused24]": 43,
            "[unused25]": 44,
            "[unused26]": 45,
            "[unused27]": 46,
            "[unused28]": 47,
            "[unused29]": 48,
            "[unused30]": 49,
            "[unused31]": 50,
            "[unused32]": 51,
            "[unused33]": 52,
            "[unused34]": 53,
            "[unused35]": 54,
            "[unused36]": 55,
            "[unused37]": 56,
            "[unused38]": 57,
            "[unused39]": 58,
            "[unused40]": 59,
            "[unused41]": 60,
            "[unused42]": 61,
            "[unused43]": 62,
            "[unused44]": 63,
            "[unused45]": 64,
            "[unused46]": 65,
            "[unused47]": 66,
            "[unused48]": 67,
            "[unused49]": 68,
            "[unused50]": 69,
            "[unused51]": 70,
            "[unused52]": 71,
            "[unused53]": 72,
            "[unused54]": 73,
            "[unused55]": 74,
            "[unused56]": 75,
            "[unused57]": 76,
            "[unused58]": 77,
            "[unused59]": 78,
            "[unused60]": 79,
            "[unused61]": 80,
            "[unused62]": 81,
            "[unused63]": 82,
            "[unused64]": 83,
            "[unused65]": 84,
            "[unused66]": 85,
            "[unused67]": 86,
            "[unused68]": 87,
            "[unused69]": 88,
            "[unused70]": 89,
            "[unused71]": 90,
            "[unused72]": 91,
            "[unused73]": 92,
            "[unused74]": 93,
            "[unused75]": 94,
            "[unused76]": 95,
            "[unused77]": 96,
            "[unused78]": 97,
            "[unused79]": 98,
            "[unused80]": 99,
            "[unused81]": 100,
            "[unused82]": 101,
            "[unused83]": 102,
            "[unused84]": 103,
            "[unused85]": 104,
            "[unused86]": 105,
            "[unused87]": 106,
            "[unused88]": 107,
            "[unused89]": 108,
            "[unused90]": 109,
            "[unused91]": 110,
            "[unused92]": 111,
            "[unused93]": 112,
            "[unused94]": 113,
            "[unused95]": 114,
            "[unused96]": 115,
            "[unused97]": 116,
            "[unused98]": 117,
            "[unused99]": 118,
            "!": 119,
            "%": 120,
            ",": 121,
            "-": 122,
            ".": 123,
            "0": 124,
            "1": 125,
            "2": 126,
            "3": 127,
            "4": 128,
            "5": 129,
            "6": 130,
            "7": 131,
            "8": 132,
            "9": 133,
            "?": 134,
            "A": 135,
            "E": 136,
            "M": 137,
            "N": 138,
            "[": 139,
            "]": 140,
            "^": 141,
            "_": 142,
            "a": 143,
            "b": 144,
            "c": 145,
            "d": 146,
            "e": 147,
            "f": 148,
            "g": 149,
            "h": 150,
            "i": 151,
            "j": 152,
            "k": 153,
            "l": 154,
            "m": 155,
            "n": 156,
            "o": 157,
            "p": 158,
            "q": 159,
            "r": 160,
            "s": 161,
            "t": 162,
            "u": 163,
            "v": 164,
            "w": 165,
            "x": 166,
            "y": 167,
            "z": 168,
            "~": 169,
            "ㄱ": 170,
            "ㄲ": 171,
            "ㄳ": 172,
            "ㄴ": 173,
            "ㄵ": 174,
            "ㄶ": 175,
            "ㄷ": 176,
            "ㄸ": 177,
            "ㄹ": 178,
            "ㄺ": 179,
            "ㄻ": 180,
            "ㄼ": 181,
            "ㄽ": 182,
            "ㄾ": 183,
            "ㄿ": 184,
            "ㅀ": 185,
            "ㅁ": 186,
            "ㅂ": 187,
            "ㅃ": 188,
            "ㅄ": 189,
            "ㅅ": 190,
            "ㅆ": 191,
            "ㅇ": 192,
            "ㅈ": 193,
            "ㅉ": 194,
            "ㅊ": 195,
            "ㅋ": 196,
            "ㅌ": 197,
            "ㅍ": 198,
            "ㅎ": 199,
            "ㅏ": 200,
            "ㅐ": 201,
            "ㅑ": 202,
            "ㅒ": 203,
            "ㅓ": 204,
            "ㅔ": 205,
            "ㅕ": 206,
            "ㅖ": 207,
            "ㅗ": 208,
            "ㅘ": 209,
            "ㅙ": 210,
            "ㅚ": 211,
            "ㅛ": 212,
            "ㅜ": 213,
            "ㅝ": 214,
            "ㅞ": 215,
            "ㅟ": 216,
            "ㅠ": 217,
            "ㅡ": 218,
            "ㅢ": 219,
            "ㅣ": 220,
            "가": 221,
            "각": 222,
            "갂": 223,
            "간": 224,
            "갅": 225,
            "갇": 226,
            "갈": 227,
            "갉": 228,
            "감": 229,
            "갑": 230,
            "값": 231,
            "갓": 232,
            "갔": 233,
            "강": 234,
            "갖": 235,
            "갗": 236,
            "갘": 237,
            "같": 238,
            "갚": 239,
            "갛": 240,
            "개": 241,
            "객": 242,
            "갠": 243,
            "갤": 244,
            "갥": 245,
            "갬": 246,
            "갭": 247,
            "갮": 248,
            "갯": 249,
            "갰": 250,
            "갱": 251,
            "갵": 252,
            "갷": 253,
            "갸": 254,
            "갹": 255,
            "갼": 256,
            "갿": 257,
            "걀": 258,
            "걌": 259,
            "걍": 260,
            "걔": 261,
            "걘": 262,
            "걜": 263,
            "걨": 264,
            "거": 265,
            "걱": 266,
            "걳": 267,
            "건": 268,
            "걵": 269,
            "걷": 270,
            "걸": 271,
            "걹": 272,
            "검": 273,
            "겁": 274,
            "것": 275,
            "겄": 276,
            "겅": 277,
            "겆": 278,
            "겇": 279,
            "겈": 280,
            "겉": 281,
            "겊": 282,
            "겋": 283,
            "게": 284,
            "겍": 285,
            "겎": 286,
            "겐": 287,
            "겓": 288,
            "겔": 289,
            "겜": 290,
            "겟": 291,
            "겠": 292,
            "겡": 293,
            "겢": 294,
            "겤": 295,
            "겧": 296,
            "겨": 297,
            "격": 298,
            "겪": 299,
            "견": 300,
            "겯": 301,
            "결": 302,
            "겸": 303,
            "겹": 304,
            "겻": 305,
            "겼": 306,
            "경": 307,
            "겾": 308,
            "겿": 309,
            "곁": 310,
            "곃": 311,
            "계": 312,
            "곈": 313,
            "곕": 314,
            "곗": 315,
            "곘": 316,
            "고": 317,
            "곡": 318,
            "곤": 319,
            "곦": 320,
            "곧": 321,
            "골": 322,
            "곰": 323,
            "곱": 324,
            "곳": 325,
            "공": 326,
            "곶": 327,
            "곷": 328,
            "곸": 329,
            "곺": 330,
            "곻": 331,
            "과": 332,
            "곽": 333,
            "관": 334,
            "괄": 335,
            "광": 336,
            "괘": 337,
            "괜": 338,
            "괨": 339,
            "괴": 340,
            "괵": 341,
            "괼": 342,
            "굄": 343,
            "굇": 344,
            "굉": 345,
            "굊": 346,
            "교": 347,
            "굑": 348,
            "굔": 349,
            "굘": 350,
            "굠": 351,
            "굤": 352,
            "굥": 353,
            "굨": 354,
            "구": 355,
            "국": 356,
            "굮": 357,
            "군": 358,
            "굳": 359,
            "굴": 360,
            "굵": 361,
            "굶": 362,
            "굼": 363,
            "굽": 364,
            "굿": 365,
            "궁": 366,
            "궂": 367,
            "궈": 368,
            "권": 369,
            "궐": 370,
            "궜": 371,
            "궝": 372,
            "궞": 373,
            "궤": 374,
            "궷": 375,
            "궸": 376,
            "귀": 377,
            "귄": 378,
            "귈": 379,
            "귓": 380,
            "귕": 381,
            "귗": 382,
            "규": 383,
            "균": 384,
            "귤": 385,
            "귬": 386,
            "귱": 387,
            "그": 388,
            "극": 389,
            "귺": 390,
            "근": 391,
            "귿": 392,
            "글": 393,
            "긁": 394,
            "긇": 395,
            "금": 396,
            "급": 397,
            "긋": 398,
            "긌": 399,
            "긍": 400,
            "긏": 401,
            "긑": 402,
            "긒": 403,
            "긓": 404,
            "긔": 405,
            "긘": 406,
            "긝": 407,
            "기": 408,
            "긱": 409,
            "긴": 410,
            "길": 411,
            "긿": 412,
            "김": 413,
            "깁": 414,
            "깃": 415,
            "깄": 416,
            "깅": 417,
            "깇": 418,
            "깈": 419,
            "깉": 420,
            "깊": 421,
            "깋": 422,
            "까": 423,
            "깍": 424,
            "깎": 425,
            "깐": 426,
            "깔": 427,
            "깜": 428,
            "깝": 429,
            "깟": 430,
            "깠": 431,
            "깡": 432,
            "깢": 433,
            "깥": 434,
            "깧": 435,
            "깨": 436,
            "깩": 437,
            "깬": 438,
            "깰": 439,
            "깸": 440,
            "깻": 441,
            "깼": 442,
            "깽": 443,
            "꺄": 444,
            "꺅": 445,
            "꺈": 446,
            "꺌": 447,
            "꺍": 448,
            "꺔": 449,
            "꺘": 450,
            "꺙": 451,
            "꺟": 452,
            "꺠": 453,
            "꺳": 454,
            "꺴": 455,
            "꺼": 456,
            "꺽": 457,
            "꺾": 458,
            "껀": 459,
            "껄": 460,
            "껌": 461,
            "껍": 462,
            "껏": 463,
            "껐": 464,
            "껑": 465,
            "께": 466,
            "껨": 467,
            "껫": 468,
            "껭": 469,
            "껴": 470,
            "꼇": 471,
            "꼈": 472,
            "꼐": 473,
            "꼥": 474,
            "꼬": 475,
            "꼭": 476,
            "꼮": 477,
            "꼰": 478,
            "꼴": 479,
            "꼼": 480,
            "꼽": 481,
            "꽁": 482,
            "꽂": 483,
            "꽃": 484,
            "꽈": 485,
            "꽉": 486,
            "꽊": 487,
            "꽓": 488,
            "꽝": 489,
            "꽤": 490,
            "꽥": 491,
            "꽹": 492,
            "꾸": 493,
            "꾹": 494,
            "꾺": 495,
            "꾼": 496,
            "꿀": 497,
            "꿇": 498,
            "꿈": 499,
            "꿉": 500,
            "꿍": 501,
            "꿑": 502,
            "꿔": 503,
            "꿧": 504,
            "꿨": 505,
            "꿰": 506,
            "뀌": 507,
            "뀐": 508,
            "뀔": 509,
            "뀜": 510,
            "뀝": 511,
            "뀡": 512,
            "뀨": 513,
            "뀰": 514,
            "뀽": 515,
            "끄": 516,
            "끅": 517,
            "끆": 518,
            "끈": 519,
            "끊": 520,
            "끌": 521,
            "끓": 522,
            "끔": 523,
            "끕": 524,
            "끗": 525,
            "끛": 526,
            "끜": 527,
            "끝": 528,
            "끠": 529,
            "끵": 530,
            "끼": 531,
            "끽": 532,
            "낀": 533,
            "낄": 534,
            "낌": 535,
            "낑": 536,
            "낗": 537,
            "나": 538,
            "낙": 539,
            "낚": 540,
            "난": 541,
            "낞": 542,
            "낟": 543,
            "날": 544,
            "낡": 545,
            "남": 546,
            "납": 547,
            "낫": 548,
            "났": 549,
            "낭": 550,
            "낮": 551,
            "낯": 552,
            "낰": 553,
            "낱": 554,
            "낲": 555,
            "낳": 556,
            "내": 557,
            "낵": 558,
            "낸": 559,
            "낼": 560,
            "냄": 561,
            "냅": 562,
            "냇": 563,
            "냈": 564,
            "냉": 565,
            "냊": 566,
            "냎": 567,
            "냏": 568,
            "냐": 569,
            "냑": 570,
            "냔": 571,
            "냘": 572,
            "냠": 573,
            "냡": 574,
            "냣": 575,
            "냤": 576,
            "냥": 577,
            "냦": 578,
            "냨": 579,
            "냪": 580,
            "냫": 581,
            "냬": 582,
            "너": 583,
            "넉": 584,
            "넋": 585,
            "넌": 586,
            "넏": 587,
            "널": 588,
            "넒": 589,
            "넓": 590,
            "넘": 591,
            "넙": 592,
            "넚": 593,
            "넛": 594,
            "넜": 595,
            "넝": 596,
            "넞": 597,
            "넟": 598,
            "넡": 599,
            "넢": 600,
            "넣": 601,
            "네": 602,
            "넥": 603,
            "넨": 604,
            "넫": 605,
            "넬": 606,
            "넴": 607,
            "넵": 608,
            "넷": 609,
            "넹": 610,
            "넺": 611,
            "넼": 612,
            "넿": 613,
            "녀": 614,
            "녁": 615,
            "년": 616,
            "녅": 617,
            "념": 618,
            "녓": 619,
            "녔": 620,
            "녕": 621,
            "녖": 622,
            "녘": 623,
            "녛": 624,
            "녜": 625,
            "녬": 626,
            "녱": 627,
            "노": 628,
            "녹": 629,
            "논": 630,
            "놀": 631,
            "놁": 632,
            "놈": 633,
            "놉": 634,
            "놋": 635,
            "농": 636,
            "놏": 637,
            "놐": 638,
            "놑": 639,
            "높": 640,
            "놓": 641,
            "놔": 642,
            "놘": 643,
            "놜": 644,
            "놤": 645,
            "놧": 646,
            "놨": 647,
            "놰": 648,
            "뇌": 649,
            "뇨": 650,
            "뇬": 651,
            "뇸": 652,
            "뇹": 653,
            "뇼": 654,
            "뇽": 655,
            "누": 656,
            "눅": 657,
            "눈": 658,
            "눋": 659,
            "눌": 660,
            "눔": 661,
            "눕": 662,
            "눙": 663,
            "눚": 664,
            "눜": 665,
            "눞": 666,
            "눟": 667,
            "눠": 668,
            "눤": 669,
            "눨": 670,
            "눴": 671,
            "눼": 672,
            "뉇": 673,
            "뉑": 674,
            "뉘": 675,
            "뉜": 676,
            "뉠": 677,
            "뉨": 678,
            "뉩": 679,
            "뉭": 680,
            "뉴": 681,
            "뉵": 682,
            "뉸": 683,
            "뉻": 684,
            "뉼": 685,
            "늄": 686,
            "늉": 687,
            "늊": 688,
            "늌": 689,
            "느": 690,
            "늑": 691,
            "늒": 692,
            "는": 693,
            "늕": 694,
            "늗": 695,
            "늘": 696,
            "늙": 697,
            "늚": 698,
            "늠": 699,
            "능": 700,
            "늦": 701,
            "늨": 702,
            "늪": 703,
            "늫": 704,
            "늬": 705,
            "늰": 706,
            "늴": 707,
            "늶": 708,
            "늼": 709,
            "닁": 710,
            "니": 711,
            "닉": 712,
            "닊": 713,
            "닌": 714,
            "닏": 715,
            "닐": 716,
            "님": 717,
            "닙": 718,
            "닛": 719,
            "닜": 720,
            "닝": 721,
            "닞": 722,
            "닠": 723,
            "닡": 724,
            "닢": 725,
            "닣": 726,
            "다": 727,
            "닥": 728,
            "닦": 729,
            "단": 730,
            "닪": 731,
            "닫": 732,
            "달": 733,
            "닭": 734,
            "닮": 735,
            "닳": 736,
            "담": 737,
            "답": 738,
            "닷": 739,
            "닸": 740,
            "당": 741,
            "닻": 742,
            "닼": 743,
            "닽": 744,
            "닾": 745,
            "닿": 746,
            "대": 747,
            "댁": 748,
            "댂": 749,
            "댄": 750,
            "댇": 751,
            "댈": 752,
            "댐": 753,
            "댑": 754,
            "댓": 755,
            "댔": 756,
            "댕": 757,
            "댛": 758,
            "댜": 759,
            "댝": 760,
            "댣": 761,
            "댤": 762,
            "댬": 763,
            "댯": 764,
            "댱": 765,
            "댲": 766,
            "댸": 767,
            "더": 768,
            "덕": 769,
            "던": 770,
            "덙": 771,
            "덛": 772,
            "덜": 773,
            "덟": 774,
            "덢": 775,
            "덤": 776,
            "덥": 777,
            "덧": 778,
            "덩": 779,
            "덭": 780,
            "덮": 781,
            "덯": 782,
            "데": 783,
            "덱": 784,
            "덴": 785,
            "덷": 786,
            "델": 787,
            "뎀": 788,
            "뎁": 789,
            "뎃": 790,
            "뎄": 791,
            "뎅": 792,
            "뎉": 793,
            "뎋": 794,
            "뎌": 795,
            "뎠": 796,
            "뎡": 797,
            "뎦": 798,
            "뎨": 799,
            "뎸": 800,
            "도": 801,
            "독": 802,
            "돈": 803,
            "돋": 804,
            "돌": 805,
            "돔": 806,
            "돕": 807,
            "돗": 808,
            "동": 809,
            "돟": 810,
            "돠": 811,
            "돨": 812,
            "돰": 813,
            "돵": 814,
            "돼": 815,
            "됀": 816,
            "됃": 817,
            "됌": 818,
            "됐": 819,
            "됑": 820,
            "됔": 821,
            "되": 822,
            "됛": 823,
            "된": 824,
            "될": 825,
            "됨": 826,
            "됩": 827,
            "됫": 828,
            "됬": 829,
            "됭": 830,
            "됮": 831,
            "됰": 832,
            "됳": 833,
            "됴": 834,
            "둉": 835,
            "두": 836,
            "둑": 837,
            "둔": 838,
            "둗": 839,
            "둘": 840,
            "둠": 841,
            "둡": 842,
            "둣": 843,
            "둥": 844,
            "둦": 845,
            "둪": 846,
            "둫": 847,
            "둬": 848,
            "둴": 849,
            "둿": 850,
            "뒀": 851,
            "뒁": 852,
            "뒈": 853,
            "뒓": 854,
            "뒙": 855,
            "뒤": 856,
            "뒨": 857,
            "뒷": 858,
            "뒹": 859,
            "듀": 860,
            "듁": 861,
            "듄": 862,
            "듈": 863,
            "듕": 864,
            "드": 865,
            "득": 866,
            "든": 867,
            "듢": 868,
            "듣": 869,
            "들": 870,
            "듦": 871,
            "듫": 872,
            "듬": 873,
            "듭": 874,
            "듯": 875,
            "등": 876,
            "듶": 877,
            "듷": 878,
            "듸": 879,
            "딈": 880,
            "디": 881,
            "딕": 882,
            "딖": 883,
            "딘": 884,
            "딛": 885,
            "딜": 886,
            "딤": 887,
            "딥": 888,
            "딧": 889,
            "딨": 890,
            "딩": 891,
            "딪": 892,
            "딬": 893,
            "딮": 894,
            "딯": 895,
            "따": 896,
            "딱": 897,
            "딲": 898,
            "딴": 899,
            "딸": 900,
            "땀": 901,
            "땁": 902,
            "땃": 903,
            "땄": 904,
            "땅": 905,
            "땋": 906,
            "때": 907,
            "땐": 908,
            "땔": 909,
            "땜": 910,
            "땟": 911,
            "땠": 912,
            "땡": 913,
            "땨": 914,
            "땬": 915,
            "떄": 916,
            "떈": 917,
            "떔": 918,
            "떘": 919,
            "떙": 920,
            "떠": 921,
            "떡": 922,
            "떢": 923,
            "떤": 924,
            "떨": 925,
            "떫": 926,
            "떰": 927,
            "떱": 928,
            "떳": 929,
            "떴": 930,
            "떵": 931,
            "떻": 932,
            "떼": 933,
            "뗀": 934,
            "뗄": 935,
            "뗏": 936,
            "뗐": 937,
            "뗘": 938,
            "뗜": 939,
            "뗴": 940,
            "또": 941,
            "똑": 942,
            "똒": 943,
            "똔": 944,
            "똘": 945,
            "똥": 946,
            "똪": 947,
            "똫": 948,
            "똬": 949,
            "똭": 950,
            "뙇": 951,
            "뙈": 952,
            "뚐": 953,
            "뚕": 954,
            "뚜": 955,
            "뚝": 956,
            "뚞": 957,
            "뚠": 958,
            "뚣": 959,
            "뚤": 960,
            "뚫": 961,
            "뚬": 962,
            "뚭": 963,
            "뚯": 964,
            "뚱": 965,
            "뚸": 966,
            "뛔": 967,
            "뛟": 968,
            "뛰": 969,
            "뛴": 970,
            "뛸": 971,
            "뜀": 972,
            "뜨": 973,
            "뜩": 974,
            "뜬": 975,
            "뜯": 976,
            "뜰": 977,
            "뜸": 978,
            "뜹": 979,
            "뜻": 980,
            "뜽": 981,
            "띃": 982,
            "띄": 983,
            "띠": 984,
            "띡": 985,
            "띤": 986,
            "띨": 987,
            "띵": 988,
            "라": 989,
            "락": 990,
            "띾": 991,
            "란": 992,
            "랂": 993,
            "랃": 994,
            "랄": 995,
            "랅": 996,
            "랉": 997,
            "람": 998,
            "랍": 999,
            "랏": 1000,
            "랐": 1001,
            "랑": 1002,
            "랔": 1003,
            "랕": 1004,
            "랖": 1005,
            "랗": 1006,
            "래": 1007,
            "랙": 1008,
            "랜": 1009,
            "랠": 1010,
            "램": 1011,
            "랩": 1012,
            "랫": 1013,
            "랬": 1014,
            "랭": 1015,
            "랮": 1016,
            "랰": 1017,
            "랱": 1018,
            "랳": 1019,
            "랴": 1020,
            "략": 1021,
            "랸": 1022,
            "랻": 1023,
            "랼": 1024,
            "럄": 1025,
            "럅": 1026,
            "럇": 1027,
            "럈": 1028,
            "량": 1029,
            "럊": 1030,
            "럎": 1031,
            "럐": 1032,
            "럣": 1033,
            "러": 1034,
            "럭": 1035,
            "럯": 1036,
            "런": 1037,
            "럳": 1038,
            "럴": 1039,
            "럵": 1040,
            "럻": 1041,
            "럼": 1042,
            "럽": 1043,
            "럾": 1044,
            "럿": 1045,
            "렀": 1046,
            "렁": 1047,
            "렂": 1048,
            "렄": 1049,
            "렆": 1050,
            "렇": 1051,
            "레": 1052,
            "렉": 1053,
            "렌": 1054,
            "렏": 1055,
            "렐": 1056,
            "렑": 1057,
            "렓": 1058,
            "렘": 1059,
            "렙": 1060,
            "렛": 1061,
            "렜": 1062,
            "렝": 1063,
            "렠": 1064,
            "렣": 1065,
            "려": 1066,
            "력": 1067,
            "렦": 1068,
            "련": 1069,
            "렫": 1070,
            "렬": 1071,
            "렴": 1072,
            "렵": 1073,
            "렷": 1074,
            "렸": 1075,
            "령": 1076,
            "렺": 1077,
            "렼": 1078,
            "렾": 1079,
            "렿": 1080,
            "례": 1081,
            "롄": 1082,
            "로": 1083,
            "록": 1084,
            "론": 1085,
            "롣": 1086,
            "롤": 1087,
            "롥": 1088,
            "롬": 1089,
            "롭": 1090,
            "롯": 1091,
            "롱": 1092,
            "롲": 1093,
            "롷": 1094,
            "롸": 1095,
            "롹": 1096,
            "롼": 1097,
            "뢀": 1098,
            "뢔": 1099,
            "뢰": 1100,
            "뢴": 1101,
            "료": 1102,
            "룐": 1103,
            "룔": 1104,
            "룜": 1105,
            "룝": 1106,
            "룠": 1107,
            "룡": 1108,
            "루": 1109,
            "룩": 1110,
            "룫": 1111,
            "룬": 1112,
            "룯": 1113,
            "룰": 1114,
            "룸": 1115,
            "룹": 1116,
            "룻": 1117,
            "룽": 1118,
            "룾": 1119,
            "뤃": 1120,
            "뤄": 1121,
            "뤈": 1122,
            "뤕": 1123,
            "뤘": 1124,
            "뤙": 1125,
            "뤠": 1126,
            "뤫": 1127,
            "뤱": 1128,
            "뤵": 1129,
            "뤼": 1130,
            "륀": 1131,
            "륌": 1132,
            "륏": 1133,
            "륑": 1134,
            "류": 1135,
            "륙": 1136,
            "륜": 1137,
            "륟": 1138,
            "률": 1139,
            "륨": 1140,
            "륭": 1141,
            "르": 1142,
            "륵": 1143,
            "른": 1144,
            "륹": 1145,
            "륻": 1146,
            "를": 1147,
            "륽": 1148,
            "름": 1149,
            "릅": 1150,
            "릇": 1151,
            "릉": 1152,
            "릍": 1153,
            "릎": 1154,
            "릏": 1155,
            "릐": 1156,
            "릠": 1157,
            "리": 1158,
            "릭": 1159,
            "릯": 1160,
            "린": 1161,
            "릳": 1162,
            "릴": 1163,
            "림": 1164,
            "립": 1165,
            "릿": 1166,
            "맀": 1167,
            "링": 1168,
            "맂": 1169,
            "맇": 1170,
            "마": 1171,
            "막": 1172,
            "만": 1173,
            "많": 1174,
            "맏": 1175,
            "말": 1176,
            "맑": 1177,
            "맘": 1178,
            "맙": 1179,
            "맛": 1180,
            "맜": 1181,
            "망": 1182,
            "맞": 1183,
            "맟": 1184,
            "맠": 1185,
            "맡": 1186,
            "맢": 1187,
            "맣": 1188,
            "매": 1189,
            "맥": 1190,
            "맨": 1191,
            "맫": 1192,
            "맬": 1193,
            "맴": 1194,
            "맵": 1195,
            "맷": 1196,
            "맸": 1197,
            "맹": 1198,
            "맺": 1199,
            "맿": 1200,
            "먀": 1201,
            "먄": 1202,
            "먆": 1203,
            "먐": 1204,
            "먕": 1205,
            "먗": 1206,
            "머": 1207,
            "먹": 1208,
            "먼": 1209,
            "먾": 1210,
            "먿": 1211,
            "멀": 1212,
            "멂": 1213,
            "멇": 1214,
            "멈": 1215,
            "멉": 1216,
            "멋": 1217,
            "멍": 1218,
            "멎": 1219,
            "멏": 1220,
            "멒": 1221,
            "멓": 1222,
            "메": 1223,
            "멕": 1224,
            "멘": 1225,
            "멜": 1226,
            "멤": 1227,
            "멥": 1228,
            "멧": 1229,
            "멩": 1230,
            "멫": 1231,
            "며": 1232,
            "멱": 1233,
            "면": 1234,
            "멸": 1235,
            "몀": 1236,
            "명": 1237,
            "몇": 1238,
            "몌": 1239,
            "모": 1240,
            "목": 1241,
            "몫": 1242,
            "몬": 1243,
            "몯": 1244,
            "몰": 1245,
            "몸": 1246,
            "몹": 1247,
            "못": 1248,
            "몼": 1249,
            "몽": 1250,
            "뫀": 1251,
            "뫃": 1252,
            "뫄": 1253,
            "묘": 1254,
            "묜": 1255,
            "묠": 1256,
            "묨": 1257,
            "묭": 1258,
            "묯": 1259,
            "무": 1260,
            "묵": 1261,
            "묶": 1262,
            "문": 1263,
            "묹": 1264,
            "묻": 1265,
            "물": 1266,
            "묽": 1267,
            "뭄": 1268,
            "뭇": 1269,
            "뭉": 1270,
            "뭊": 1271,
            "뭋": 1272,
            "뭍": 1273,
            "뭎": 1274,
            "뭏": 1275,
            "뭐": 1276,
            "뭔": 1277,
            "뭘": 1278,
            "뭡": 1279,
            "뭣": 1280,
            "뭥": 1281,
            "뭦": 1282,
            "뭬": 1283,
            "뮁": 1284,
            "뮤": 1285,
            "뮨": 1286,
            "뮫": 1287,
            "뮬": 1288,
            "뮷": 1289,
            "뮹": 1290,
            "뮽": 1291,
            "뮾": 1292,
            "므": 1293,
            "믁": 1294,
            "믄": 1295,
            "믇": 1296,
            "믈": 1297,
            "믐": 1298,
            "믓": 1299,
            "믕": 1300,
            "믛": 1301,
            "믜": 1302,
            "믤": 1303,
            "미": 1304,
            "믹": 1305,
            "민": 1306,
            "믾": 1307,
            "믿": 1308,
            "밀": 1309,
            "밈": 1310,
            "밉": 1311,
            "밋": 1312,
            "밌": 1313,
            "밍": 1314,
            "밎": 1315,
            "및": 1316,
            "밑": 1317,
            "밒": 1318,
            "밓": 1319,
            "바": 1320,
            "박": 1321,
            "밖": 1322,
            "반": 1323,
            "밙": 1324,
            "받": 1325,
            "발": 1326,
            "밝": 1327,
            "밞": 1328,
            "밟": 1329,
            "밠": 1330,
            "밤": 1331,
            "밥": 1332,
            "밧": 1333,
            "밨": 1334,
            "방": 1335,
            "밬": 1336,
            "밭": 1337,
            "밯": 1338,
            "배": 1339,
            "백": 1340,
            "밴": 1341,
            "밸": 1342,
            "뱀": 1343,
            "뱁": 1344,
            "뱃": 1345,
            "뱅": 1346,
            "뱆": 1347,
            "뱉": 1348,
            "뱌": 1349,
            "뱍": 1350,
            "뱔": 1351,
            "뱧": 1352,
            "버": 1353,
            "벅": 1354,
            "번": 1355,
            "벋": 1356,
            "벌": 1357,
            "벏": 1358,
            "범": 1359,
            "법": 1360,
            "벗": 1361,
            "벙": 1362,
            "벚": 1363,
            "벟": 1364,
            "베": 1365,
            "벡": 1366,
            "벤": 1367,
            "벨": 1368,
            "벫": 1369,
            "벱": 1370,
            "벳": 1371,
            "벵": 1372,
            "벼": 1373,
            "벽": 1374,
            "변": 1375,
            "별": 1376,
            "볍": 1377,
            "볐": 1378,
            "병": 1379,
            "볕": 1380,
            "보": 1381,
            "복": 1382,
            "볶": 1383,
            "본": 1384,
            "볼": 1385,
            "볽": 1386,
            "봄": 1387,
            "봅": 1388,
            "봇": 1389,
            "봉": 1390,
            "봏": 1391,
            "봐": 1392,
            "봘": 1393,
            "봙": 1394,
            "봣": 1395,
            "봤": 1396,
            "봥": 1397,
            "봬": 1398,
            "뵀": 1399,
            "뵈": 1400,
            "뵌": 1401,
            "뵐": 1402,
            "뵘": 1403,
            "뵙": 1404,
            "뵜": 1405,
            "뵤": 1406,
            "뵷": 1407,
            "부": 1408,
            "북": 1409,
            "분": 1410,
            "붇": 1411,
            "불": 1412,
            "붉": 1413,
            "붋": 1414,
            "붐": 1415,
            "붑": 1416,
            "붓": 1417,
            "붕": 1418,
            "붖": 1419,
            "붗": 1420,
            "붘": 1421,
            "붙": 1422,
            "붛": 1423,
            "붜": 1424,
            "붤": 1425,
            "붸": 1426,
            "뷉": 1427,
            "뷔": 1428,
            "뷰": 1429,
            "뷱": 1430,
            "뷴": 1431,
            "뷸": 1432,
            "븃": 1433,
            "븅": 1434,
            "븋": 1435,
            "브": 1436,
            "븍": 1437,
            "븐": 1438,
            "블": 1439,
            "븗": 1440,
            "븘": 1441,
            "븜": 1442,
            "븡": 1443,
            "븰": 1444,
            "븱": 1445,
            "븸": 1446,
            "비": 1447,
            "빅": 1448,
            "빆": 1449,
            "빈": 1450,
            "빋": 1451,
            "빌": 1452,
            "빔": 1453,
            "빕": 1454,
            "빗": 1455,
            "빙": 1456,
            "빚": 1457,
            "빛": 1458,
            "빠": 1459,
            "빡": 1460,
            "빢": 1461,
            "빤": 1462,
            "빧": 1463,
            "빨": 1464,
            "빰": 1465,
            "빱": 1466,
            "빳": 1467,
            "빴": 1468,
            "빵": 1469,
            "빻": 1470,
            "빼": 1471,
            "빽": 1472,
            "뺀": 1473,
            "뺄": 1474,
            "뺌": 1475,
            "뺏": 1476,
            "뺐": 1477,
            "뺑": 1478,
            "뺘": 1479,
            "뺠": 1480,
            "뺨": 1481,
            "뺴": 1482,
            "뺸": 1483,
            "뻄": 1484,
            "뻇": 1485,
            "뻐": 1486,
            "뻑": 1487,
            "뻔": 1488,
            "뻗": 1489,
            "뻘": 1490,
            "뻠": 1491,
            "뻡": 1492,
            "뻣": 1493,
            "뻤": 1494,
            "뻥": 1495,
            "뻨": 1496,
            "뻬": 1497,
            "뼈": 1498,
            "뼛": 1499,
            "뼜": 1500,
            "뼝": 1501,
            "뽀": 1502,
            "뽄": 1503,
            "뽈": 1504,
            "뽐": 1505,
            "뽑": 1506,
            "뽕": 1507,
            "뽜": 1508,
            "뽝": 1509,
            "뽷": 1510,
            "뾰": 1511,
            "뿅": 1512,
            "뿌": 1513,
            "뿍": 1514,
            "뿐": 1515,
            "뿔": 1516,
            "뿜": 1517,
            "뿡": 1518,
            "뿨": 1519,
            "뿽": 1520,
            "쀠": 1521,
            "쀼": 1522,
            "쁀": 1523,
            "쁘": 1524,
            "쁜": 1525,
            "쁠": 1526,
            "쁨": 1527,
            "쁩": 1528,
            "삉": 1529,
            "삐": 1530,
            "삑": 1531,
            "삔": 1532,
            "삘": 1533,
            "삥": 1534,
            "사": 1535,
            "삭": 1536,
            "산": 1537,
            "살": 1538,
            "삵": 1539,
            "삶": 1540,
            "삼": 1541,
            "삽": 1542,
            "삿": 1543,
            "샀": 1544,
            "상": 1545,
            "샂": 1546,
            "샃": 1547,
            "샅": 1548,
            "샆": 1549,
            "샇": 1550,
            "새": 1551,
            "색": 1552,
            "샊": 1553,
            "샌": 1554,
            "샐": 1555,
            "샘": 1556,
            "샛": 1557,
            "샜": 1558,
            "생": 1559,
            "샢": 1560,
            "샣": 1561,
            "샤": 1562,
            "샥": 1563,
            "샨": 1564,
            "샬": 1565,
            "샴": 1566,
            "샵": 1567,
            "샷": 1568,
            "샸": 1569,
            "샹": 1570,
            "섀": 1571,
            "섑": 1572,
            "섕": 1573,
            "서": 1574,
            "석": 1575,
            "섞": 1576,
            "선": 1577,
            "섣": 1578,
            "설": 1579,
            "섥": 1580,
            "섬": 1581,
            "섭": 1582,
            "섯": 1583,
            "성": 1584,
            "섲": 1585,
            "섴": 1586,
            "섵": 1587,
            "세": 1588,
            "섹": 1589,
            "센": 1590,
            "셀": 1591,
            "셈": 1592,
            "셉": 1593,
            "셋": 1594,
            "셌": 1595,
            "셍": 1596,
            "셔": 1597,
            "션": 1598,
            "셜": 1599,
            "셤": 1600,
            "셧": 1601,
            "셨": 1602,
            "셩": 1603,
            "셬": 1604,
            "셭": 1605,
            "셰": 1606,
            "소": 1607,
            "속": 1608,
            "손": 1609,
            "솓": 1610,
            "솔": 1611,
            "솜": 1612,
            "솝": 1613,
            "솟": 1614,
            "송": 1615,
            "솣": 1616,
            "솥": 1617,
            "솦": 1618,
            "솨": 1619,
            "솩": 1620,
            "쇄": 1621,
            "쇠": 1622,
            "쇳": 1623,
            "쇼": 1624,
            "쇽": 1625,
            "숀": 1626,
            "숄": 1627,
            "숍": 1628,
            "숏": 1629,
            "숑": 1630,
            "숔": 1631,
            "수": 1632,
            "숙": 1633,
            "순": 1634,
            "숟": 1635,
            "술": 1636,
            "숨": 1637,
            "숩": 1638,
            "숫": 1639,
            "숭": 1640,
            "숮": 1641,
            "숯": 1642,
            "숱": 1643,
            "숲": 1644,
            "숳": 1645,
            "숴": 1646,
            "숵": 1647,
            "숼": 1648,
            "쉉": 1649,
            "쉐": 1650,
            "쉑": 1651,
            "쉘": 1652,
            "쉣": 1653,
            "쉥": 1654,
            "쉨": 1655,
            "쉩": 1656,
            "쉬": 1657,
            "쉭": 1658,
            "쉰": 1659,
            "쉴": 1660,
            "쉼": 1661,
            "쉽": 1662,
            "쉿": 1663,
            "슁": 1664,
            "슂": 1665,
            "슈": 1666,
            "슉": 1667,
            "슌": 1668,
            "슐": 1669,
            "슘": 1670,
            "슙": 1671,
            "슝": 1672,
            "슢": 1673,
            "스": 1674,
            "슥": 1675,
            "슧": 1676,
            "슨": 1677,
            "슬": 1678,
            "슴": 1679,
            "습": 1680,
            "슷": 1681,
            "승": 1682,
            "슺": 1683,
            "슼": 1684,
            "슽": 1685,
            "슿": 1686,
            "싀": 1687,
            "싁": 1688,
            "싄": 1689,
            "싈": 1690,
            "싐": 1691,
            "싑": 1692,
            "싕": 1693,
            "싙": 1694,
            "싚": 1695,
            "시": 1696,
            "식": 1697,
            "신": 1698,
            "싡": 1699,
            "싣": 1700,
            "실": 1701,
            "싥": 1702,
            "싪": 1703,
            "싫": 1704,
            "심": 1705,
            "십": 1706,
            "싮": 1707,
            "싯": 1708,
            "싰": 1709,
            "싱": 1710,
            "싲": 1711,
            "싳": 1712,
            "싴": 1713,
            "싵": 1714,
            "싶": 1715,
            "싷": 1716,
            "싸": 1717,
            "싹": 1718,
            "싺": 1719,
            "싼": 1720,
            "싿": 1721,
            "쌀": 1722,
            "쌈": 1723,
            "쌉": 1724,
            "쌋": 1725,
            "쌌": 1726,
            "쌍": 1727,
            "쌓": 1728,
            "쌔": 1729,
            "쌤": 1730,
            "쌩": 1731,
            "쌰": 1732,
            "썅": 1733,
            "썌": 1734,
            "썜": 1735,
            "써": 1736,
            "썩": 1737,
            "썪": 1738,
            "썬": 1739,
            "썯": 1740,
            "썰": 1741,
            "썸": 1742,
            "썹": 1743,
            "썻": 1744,
            "썼": 1745,
            "썽": 1746,
            "썾": 1747,
            "쎄": 1748,
            "쎈": 1749,
            "쎌": 1750,
            "쎔": 1751,
            "쎙": 1752,
            "쎵": 1753,
            "쎼": 1754,
            "쏀": 1755,
            "쏘": 1756,
            "쏙": 1757,
            "쏟": 1758,
            "쏠": 1759,
            "쏨": 1760,
            "쏩": 1761,
            "쏭": 1762,
            "쏴": 1763,
            "쐬": 1764,
            "쐴": 1765,
            "쑈": 1766,
            "쑐": 1767,
            "쑤": 1768,
            "쑥": 1769,
            "쑦": 1770,
            "쑬": 1771,
            "쑴": 1772,
            "쒀": 1773,
            "쒄": 1774,
            "쒈": 1775,
            "쒕": 1776,
            "쒠": 1777,
            "쒬": 1778,
            "쒯": 1779,
            "쒸": 1780,
            "쓔": 1781,
            "쓰": 1782,
            "쓱": 1783,
            "쓲": 1784,
            "쓴": 1785,
            "쓸": 1786,
            "씀": 1787,
            "씁": 1788,
            "씄": 1789,
            "씅": 1790,
            "씌": 1791,
            "씐": 1792,
            "씨": 1793,
            "씩": 1794,
            "씪": 1795,
            "씬": 1796,
            "씹": 1797,
            "씻": 1798,
            "씼": 1799,
            "씽": 1800,
            "씾": 1801,
            "앀": 1802,
            "아": 1803,
            "악": 1804,
            "앆": 1805,
            "안": 1806,
            "앉": 1807,
            "않": 1808,
            "앋": 1809,
            "알": 1810,
            "앍": 1811,
            "앎": 1812,
            "앓": 1813,
            "암": 1814,
            "압": 1815,
            "앖": 1816,
            "앗": 1817,
            "았": 1818,
            "앙": 1819,
            "앚": 1820,
            "앛": 1821,
            "앜": 1822,
            "앝": 1823,
            "앞": 1824,
            "앟": 1825,
            "애": 1826,
            "액": 1827,
            "앤": 1828,
            "앧": 1829,
            "앨": 1830,
            "앪": 1831,
            "앰": 1832,
            "앱": 1833,
            "앳": 1834,
            "앴": 1835,
            "앵": 1836,
            "앶": 1837,
            "앷": 1838,
            "앹": 1839,
            "앺": 1840,
            "앻": 1841,
            "야": 1842,
            "약": 1843,
            "앿": 1844,
            "얀": 1845,
            "얂": 1846,
            "얃": 1847,
            "얄": 1848,
            "얅": 1849,
            "얇": 1850,
            "얌": 1851,
            "얍": 1852,
            "얏": 1853,
            "얐": 1854,
            "양": 1855,
            "얒": 1856,
            "얔": 1857,
            "얕": 1858,
            "얖": 1859,
            "얗": 1860,
            "얘": 1861,
            "얜": 1862,
            "어": 1863,
            "억": 1864,
            "얶": 1865,
            "언": 1866,
            "얹": 1867,
            "얻": 1868,
            "얼": 1869,
            "얽": 1870,
            "얾": 1871,
            "엄": 1872,
            "업": 1873,
            "없": 1874,
            "엇": 1875,
            "었": 1876,
            "엉": 1877,
            "엊": 1878,
            "엋": 1879,
            "엌": 1880,
            "엍": 1881,
            "엎": 1882,
            "엏": 1883,
            "에": 1884,
            "엑": 1885,
            "엔": 1886,
            "엗": 1887,
            "엘": 1888,
            "엙": 1889,
            "엠": 1890,
            "엡": 1891,
            "엣": 1892,
            "엤": 1893,
            "엥": 1894,
            "엨": 1895,
            "엩": 1896,
            "엪": 1897,
            "엫": 1898,
            "여": 1899,
            "역": 1900,
            "엮": 1901,
            "연": 1902,
            "엱": 1903,
            "엲": 1904,
            "엳": 1905,
            "열": 1906,
            "엶": 1907,
            "염": 1908,
            "엽": 1909,
            "엿": 1910,
            "였": 1911,
            "영": 1912,
            "옂": 1913,
            "옃": 1914,
            "옄": 1915,
            "옆": 1916,
            "옇": 1917,
            "예": 1918,
            "옌": 1919,
            "옘": 1920,
            "옙": 1921,
            "옛": 1922,
            "옝": 1923,
            "오": 1924,
            "옥": 1925,
            "온": 1926,
            "옫": 1927,
            "올": 1928,
            "옭": 1929,
            "옮": 1930,
            "옳": 1931,
            "옴": 1932,
            "옵": 1933,
            "옶": 1934,
            "옷": 1935,
            "옸": 1936,
            "옹": 1937,
            "옺": 1938,
            "옻": 1939,
            "옼": 1940,
            "옾": 1941,
            "옿": 1942,
            "와": 1943,
            "왁": 1944,
            "왂": 1945,
            "완": 1946,
            "왈": 1947,
            "왉": 1948,
            "왐": 1949,
            "왑": 1950,
            "왓": 1951,
            "왔": 1952,
            "왕": 1953,
            "왘": 1954,
            "왛": 1955,
            "왜": 1956,
            "왠": 1957,
            "왤": 1958,
            "왯": 1959,
            "왱": 1960,
            "왴": 1961,
            "왷": 1962,
            "외": 1963,
            "왼": 1964,
            "욀": 1965,
            "욌": 1966,
            "욎": 1967,
            "욐": 1968,
            "요": 1969,
            "욕": 1970,
            "욘": 1971,
            "욜": 1972,
            "욤": 1973,
            "욥": 1974,
            "욧": 1975,
            "욨": 1976,
            "용": 1977,
            "욪": 1978,
            "욬": 1979,
            "욮": 1980,
            "욯": 1981,
            "우": 1982,
            "욱": 1983,
            "욲": 1984,
            "욳": 1985,
            "운": 1986,
            "욷": 1987,
            "울": 1988,
            "욹": 1989,
            "욺": 1990,
            "욾": 1991,
            "움": 1992,
            "웁": 1993,
            "웂": 1994,
            "웃": 1995,
            "웄": 1996,
            "웅": 1997,
            "웆": 1998,
            "웇": 1999,
            "웈": 2000,
            "웉": 2001,
            "웊": 2002,
            "웋": 2003,
            "워": 2004,
            "웎": 2005,
            "원": 2006,
            "웒": 2007,
            "월": 2008,
            "웕": 2009,
            "웜": 2010,
            "웞": 2011,
            "웠": 2012,
            "웡": 2013,
            "웢": 2014,
            "웤": 2015,
            "웥": 2016,
            "웧": 2017,
            "웨": 2018,
            "웩": 2019,
            "웬": 2020,
            "웰": 2021,
            "웱": 2022,
            "웹": 2023,
            "웽": 2024,
            "윀": 2025,
            "위": 2026,
            "윅": 2027,
            "윈": 2028,
            "윌": 2029,
            "윔": 2030,
            "윕": 2031,
            "윗": 2032,
            "윙": 2033,
            "윜": 2034,
            "유": 2035,
            "육": 2036,
            "윤": 2037,
            "율": 2038,
            "윰": 2039,
            "윳": 2040,
            "융": 2041,
            "윷": 2042,
            "으": 2043,
            "윽": 2044,
            "윾": 2045,
            "은": 2046,
            "읂": 2047,
            "읃": 2048,
            "을": 2049,
            "읅": 2050,
            "읆": 2051,
            "읈": 2052,
            "읋": 2053,
            "음": 2054,
            "읍": 2055,
            "읎": 2056,
            "읏": 2057,
            "읐": 2058,
            "응": 2059,
            "읒": 2060,
            "읓": 2061,
            "읔": 2062,
            "읕": 2063,
            "읗": 2064,
            "의": 2065,
            "읜": 2066,
            "읫": 2067,
            "읭": 2068,
            "읰": 2069,
            "읳": 2070,
            "이": 2071,
            "익": 2072,
            "읶": 2073,
            "인": 2074,
            "읻": 2075,
            "일": 2076,
            "읽": 2077,
            "읾": 2078,
            "잃": 2079,
            "임": 2080,
            "입": 2081,
            "잇": 2082,
            "있": 2083,
            "잉": 2084,
            "잊": 2085,
            "잌": 2086,
            "잍": 2087,
            "잎": 2088,
            "잏": 2089,
            "자": 2090,
            "작": 2091,
            "잒": 2092,
            "잔": 2093,
            "잖": 2094,
            "잗": 2095,
            "잘": 2096,
            "잚": 2097,
            "잠": 2098,
            "잡": 2099,
            "잣": 2100,
            "잤": 2101,
            "장": 2102,
            "잦": 2103,
            "잧": 2104,
            "잨": 2105,
            "잫": 2106,
            "재": 2107,
            "잭": 2108,
            "잰": 2109,
            "잴": 2110,
            "잼": 2111,
            "잽": 2112,
            "잿": 2113,
            "쟀": 2114,
            "쟁": 2115,
            "쟂": 2116,
            "쟈": 2117,
            "쟉": 2118,
            "쟌": 2119,
            "쟏": 2120,
            "쟐": 2121,
            "쟘": 2122,
            "쟜": 2123,
            "쟞": 2124,
            "쟡": 2125,
            "쟤": 2126,
            "쟨": 2127,
            "저": 2128,
            "적": 2129,
            "전": 2130,
            "젆": 2131,
            "젇": 2132,
            "절": 2133,
            "젊": 2134,
            "젏": 2135,
            "점": 2136,
            "접": 2137,
            "젓": 2138,
            "젔": 2139,
            "정": 2140,
            "젖": 2141,
            "젙": 2142,
            "젛": 2143,
            "제": 2144,
            "젝": 2145,
            "젠": 2146,
            "젣": 2147,
            "젤": 2148,
            "젨": 2149,
            "젬": 2150,
            "젭": 2151,
            "젯": 2152,
            "젱": 2153,
            "젶": 2154,
            "져": 2155,
            "젹": 2156,
            "젼": 2157,
            "젿": 2158,
            "졀": 2159,
            "졈": 2160,
            "졋": 2161,
            "졌": 2162,
            "졍": 2163,
            "졎": 2164,
            "졒": 2165,
            "졓": 2166,
            "졔": 2167,
            "졘": 2168,
            "조": 2169,
            "족": 2170,
            "존": 2171,
            "졷": 2172,
            "졸": 2173,
            "좀": 2174,
            "좁": 2175,
            "좃": 2176,
            "종": 2177,
            "좆": 2178,
            "좉": 2179,
            "좊": 2180,
            "좋": 2181,
            "좌": 2182,
            "좍": 2183,
            "좔": 2184,
            "죄": 2185,
            "죔": 2186,
            "죠": 2187,
            "죡": 2188,
            "죤": 2189,
            "죨": 2190,
            "죰": 2191,
            "죴": 2192,
            "죵": 2193,
            "주": 2194,
            "죽": 2195,
            "준": 2196,
            "줃": 2197,
            "줄": 2198,
            "줅": 2199,
            "줉": 2200,
            "줌": 2201,
            "줍": 2202,
            "줏": 2203,
            "줐": 2204,
            "중": 2205,
            "줒": 2206,
            "줔": 2207,
            "줖": 2208,
            "줗": 2209,
            "줘": 2210,
            "줙": 2211,
            "줚": 2212,
            "줜": 2213,
            "줬": 2214,
            "줭": 2215,
            "줲": 2216,
            "줴": 2217,
            "줼": 2218,
            "쥄": 2219,
            "쥐": 2220,
            "쥑": 2221,
            "쥔": 2222,
            "쥠": 2223,
            "쥥": 2224,
            "쥦": 2225,
            "쥬": 2226,
            "쥭": 2227,
            "쥰": 2228,
            "쥴": 2229,
            "쥼": 2230,
            "쥽": 2231,
            "쥿": 2232,
            "즁": 2233,
            "즇": 2234,
            "즈": 2235,
            "즉": 2236,
            "즌": 2237,
            "즐": 2238,
            "즑": 2239,
            "즘": 2240,
            "즙": 2241,
            "즛": 2242,
            "증": 2243,
            "즣": 2244,
            "즨": 2245,
            "즹": 2246,
            "지": 2247,
            "직": 2248,
            "진": 2249,
            "짆": 2250,
            "짇": 2251,
            "질": 2252,
            "짉": 2253,
            "짊": 2254,
            "짌": 2255,
            "짏": 2256,
            "짐": 2257,
            "집": 2258,
            "짓": 2259,
            "짔": 2260,
            "징": 2261,
            "짖": 2262,
            "짗": 2263,
            "짘": 2264,
            "짙": 2265,
            "짚": 2266,
            "짛": 2267,
            "짜": 2268,
            "짝": 2269,
            "짠": 2270,
            "짢": 2271,
            "짤": 2272,
            "짧": 2273,
            "짬": 2274,
            "짭": 2275,
            "짯": 2276,
            "짰": 2277,
            "짱": 2278,
            "짲": 2279,
            "째": 2280,
            "짹": 2281,
            "짼": 2282,
            "쨈": 2283,
            "쨋": 2284,
            "쨌": 2285,
            "쨍": 2286,
            "쨔": 2287,
            "쨕": 2288,
            "쨖": 2289,
            "쨜": 2290,
            "쨩": 2291,
            "쨰": 2292,
            "쩄": 2293,
            "쩊": 2294,
            "쩌": 2295,
            "쩍": 2296,
            "쩐": 2297,
            "쩔": 2298,
            "쩜": 2299,
            "쩡": 2300,
            "쩨": 2301,
            "쩰": 2302,
            "쪄": 2303,
            "쪔": 2304,
            "쪗": 2305,
            "쪘": 2306,
            "쪙": 2307,
            "쪼": 2308,
            "쪽": 2309,
            "쫀": 2310,
            "쫃": 2311,
            "쫄": 2312,
            "쫌": 2313,
            "쫏": 2314,
            "쫑": 2315,
            "쫒": 2316,
            "쫓": 2317,
            "쫘": 2318,
            "쫙": 2319,
            "쫨": 2320,
            "쬐": 2321,
            "쬬": 2322,
            "쬼": 2323,
            "쭈": 2324,
            "쭉": 2325,
            "쭘": 2326,
            "쭤": 2327,
            "쭬": 2328,
            "쮜": 2329,
            "쮸": 2330,
            "쯈": 2331,
            "쯉": 2332,
            "쯔": 2333,
            "쯜": 2334,
            "쯤": 2335,
            "쯩": 2336,
            "쯰": 2337,
            "찌": 2338,
            "찍": 2339,
            "찎": 2340,
            "찐": 2341,
            "찓": 2342,
            "찔": 2343,
            "찜": 2344,
            "찝": 2345,
            "찟": 2346,
            "찡": 2347,
            "찢": 2348,
            "차": 2349,
            "착": 2350,
            "찬": 2351,
            "찮": 2352,
            "찯": 2353,
            "찰": 2354,
            "찱": 2355,
            "참": 2356,
            "찹": 2357,
            "찻": 2358,
            "찼": 2359,
            "창": 2360,
            "찾": 2361,
            "찿": 2362,
            "챃": 2363,
            "채": 2364,
            "책": 2365,
            "챈": 2366,
            "챌": 2367,
            "챔": 2368,
            "챕": 2369,
            "챗": 2370,
            "챘": 2371,
            "챙": 2372,
            "챠": 2373,
            "챡": 2374,
            "챤": 2375,
            "챦": 2376,
            "챱": 2377,
            "챴": 2378,
            "챵": 2379,
            "챷": 2380,
            "처": 2381,
            "척": 2382,
            "천": 2383,
            "첝": 2384,
            "첞": 2385,
            "철": 2386,
            "첢": 2387,
            "첨": 2388,
            "첩": 2389,
            "첫": 2390,
            "첬": 2391,
            "청": 2392,
            "첯": 2393,
            "체": 2394,
            "첵": 2395,
            "첸": 2396,
            "첼": 2397,
            "쳇": 2398,
            "쳐": 2399,
            "쳒": 2400,
            "쳘": 2401,
            "쳠": 2402,
            "쳡": 2403,
            "쳣": 2404,
            "쳤": 2405,
            "쳥": 2406,
            "쳨": 2407,
            "초": 2408,
            "촉": 2409,
            "촌": 2410,
            "촐": 2411,
            "촛": 2412,
            "총": 2413,
            "촠": 2414,
            "촤": 2415,
            "촥": 2416,
            "촨": 2417,
            "촬": 2418,
            "촵": 2419,
            "최": 2420,
            "쵝": 2421,
            "쵸": 2422,
            "쵹": 2423,
            "춉": 2424,
            "춋": 2425,
            "춌": 2426,
            "추": 2427,
            "축": 2428,
            "춘": 2429,
            "출": 2430,
            "춤": 2431,
            "춥": 2432,
            "춧": 2433,
            "충": 2434,
            "춰": 2435,
            "춱": 2436,
            "췃": 2437,
            "췄": 2438,
            "췌": 2439,
            "췤": 2440,
            "취": 2441,
            "췸": 2442,
            "췹": 2443,
            "츄": 2444,
            "츅": 2445,
            "츕": 2446,
            "츠": 2447,
            "측": 2448,
            "츤": 2449,
            "츦": 2450,
            "츨": 2451,
            "층": 2452,
            "츷": 2453,
            "츼": 2454,
            "칍": 2455,
            "치": 2456,
            "칙": 2457,
            "칛": 2458,
            "친": 2459,
            "칠": 2460,
            "침": 2461,
            "칩": 2462,
            "칫": 2463,
            "칭": 2464,
            "칮": 2465,
            "칯": 2466,
            "칰": 2467,
            "칱": 2468,
            "카": 2469,
            "칵": 2470,
            "칸": 2471,
            "칼": 2472,
            "캄": 2473,
            "캅": 2474,
            "캉": 2475,
            "캌": 2476,
            "캍": 2477,
            "캐": 2478,
            "캔": 2479,
            "캗": 2480,
            "캘": 2481,
            "캠": 2482,
            "캡": 2483,
            "캣": 2484,
            "캤": 2485,
            "캥": 2486,
            "캬": 2487,
            "컀": 2488,
            "컄": 2489,
            "커": 2490,
            "컨": 2491,
            "컫": 2492,
            "컬": 2493,
            "컴": 2494,
            "컵": 2495,
            "컷": 2496,
            "컸": 2497,
            "컹": 2498,
            "컼": 2499,
            "케": 2500,
            "켁": 2501,
            "켄": 2502,
            "켈": 2503,
            "켑": 2504,
            "켓": 2505,
            "켕": 2506,
            "켘": 2507,
            "켜": 2508,
            "켠": 2509,
            "켤": 2510,
            "켬": 2511,
            "켭": 2512,
            "켯": 2513,
            "켰": 2514,
            "코": 2515,
            "콕": 2516,
            "콘": 2517,
            "콜": 2518,
            "콤": 2519,
            "콧": 2520,
            "콩": 2521,
            "콬": 2522,
            "콰": 2523,
            "콱": 2524,
            "콸": 2525,
            "쾅": 2526,
            "쾌": 2527,
            "쿄": 2528,
            "쿗": 2529,
            "쿜": 2530,
            "쿠": 2531,
            "쿡": 2532,
            "쿤": 2533,
            "쿨": 2534,
            "쿰": 2535,
            "쿵": 2536,
            "쿸": 2537,
            "쿼": 2538,
            "퀀": 2539,
            "퀄": 2540,
            "퀘": 2541,
            "퀴": 2542,
            "퀵": 2543,
            "퀸": 2544,
            "큐": 2545,
            "큘": 2546,
            "큥": 2547,
            "큨": 2548,
            "큩": 2549,
            "크": 2550,
            "큰": 2551,
            "클": 2552,
            "큼": 2553,
            "큽": 2554,
            "킁": 2555,
            "킂": 2556,
            "킄": 2557,
            "킅": 2558,
            "킇": 2559,
            "킈": 2560,
            "킠": 2561,
            "키": 2562,
            "킥": 2563,
            "킨": 2564,
            "킬": 2565,
            "킴": 2566,
            "킵": 2567,
            "킷": 2568,
            "킹": 2569,
            "킼": 2570,
            "타": 2571,
            "탁": 2572,
            "탄": 2573,
            "탆": 2574,
            "탈": 2575,
            "탉": 2576,
            "탍": 2577,
            "탐": 2578,
            "탑": 2579,
            "탓": 2580,
            "탔": 2581,
            "탕": 2582,
            "탗": 2583,
            "탘": 2584,
            "탙": 2585,
            "탛": 2586,
            "태": 2587,
            "택": 2588,
            "탠": 2589,
            "탤": 2590,
            "탬": 2591,
            "탭": 2592,
            "탯": 2593,
            "탱": 2594,
            "탸": 2595,
            "턍": 2596,
            "터": 2597,
            "턱": 2598,
            "턴": 2599,
            "턷": 2600,
            "털": 2601,
            "텀": 2602,
            "텁": 2603,
            "텂": 2604,
            "텃": 2605,
            "텄": 2606,
            "텅": 2607,
            "테": 2608,
            "텍": 2609,
            "텐": 2610,
            "텔": 2611,
            "템": 2612,
            "텝": 2613,
            "텥": 2614,
            "텨": 2615,
            "텻": 2616,
            "텼": 2617,
            "토": 2618,
            "톡": 2619,
            "톤": 2620,
            "톨": 2621,
            "톰": 2622,
            "톱": 2623,
            "통": 2624,
            "톷": 2625,
            "톹": 2626,
            "톼": 2627,
            "퇴": 2628,
            "툐": 2629,
            "툤": 2630,
            "투": 2631,
            "툭": 2632,
            "툰": 2633,
            "툴": 2634,
            "툼": 2635,
            "툽": 2636,
            "툿": 2637,
            "퉁": 2638,
            "퉅": 2639,
            "퉆": 2640,
            "퉈": 2641,
            "퉛": 2642,
            "퉤": 2643,
            "퉵": 2644,
            "퉷": 2645,
            "튀": 2646,
            "튄": 2647,
            "튈": 2648,
            "튐": 2649,
            "튕": 2650,
            "튜": 2651,
            "튠": 2652,
            "튤": 2653,
            "튭": 2654,
            "트": 2655,
            "특": 2656,
            "튼": 2657,
            "튿": 2658,
            "틀": 2659,
            "틈": 2660,
            "틍": 2661,
            "틐": 2662,
            "틑": 2663,
            "틓": 2664,
            "틔": 2665,
            "티": 2666,
            "틱": 2667,
            "틴": 2668,
            "틸": 2669,
            "팀": 2670,
            "팁": 2671,
            "팄": 2672,
            "팅": 2673,
            "파": 2674,
            "팍": 2675,
            "팎": 2676,
            "판": 2677,
            "팓": 2678,
            "팔": 2679,
            "팜": 2680,
            "팝": 2681,
            "팟": 2682,
            "팠": 2683,
            "팡": 2684,
            "팢": 2685,
            "팤": 2686,
            "팥": 2687,
            "팦": 2688,
            "팧": 2689,
            "패": 2690,
            "팩": 2691,
            "팬": 2692,
            "팰": 2693,
            "팸": 2694,
            "팹": 2695,
            "팽": 2696,
            "퍃": 2697,
            "퍄": 2698,
            "퍈": 2699,
            "퍌": 2700,
            "퍙": 2701,
            "퍚": 2702,
            "퍠": 2703,
            "퍼": 2704,
            "퍽": 2705,
            "펀": 2706,
            "펃": 2707,
            "펄": 2708,
            "펌": 2709,
            "펏": 2710,
            "펐": 2711,
            "펑": 2712,
            "펗": 2713,
            "페": 2714,
            "펙": 2715,
            "펜": 2716,
            "펠": 2717,
            "펩": 2718,
            "펫": 2719,
            "펭": 2720,
            "펴": 2721,
            "편": 2722,
            "펼": 2723,
            "폄": 2724,
            "폈": 2725,
            "평": 2726,
            "폐": 2727,
            "포": 2728,
            "폭": 2729,
            "폰": 2730,
            "폴": 2731,
            "폼": 2732,
            "퐁": 2733,
            "퐃": 2734,
            "퐈": 2735,
            "퐉": 2736,
            "퐤": 2737,
            "표": 2738,
            "푝": 2739,
            "푠": 2740,
            "푤": 2741,
            "푱": 2742,
            "푶": 2743,
            "푸": 2744,
            "푹": 2745,
            "푼": 2746,
            "풀": 2747,
            "품": 2748,
            "풉": 2749,
            "풋": 2750,
            "풍": 2751,
            "풒": 2752,
            "풓": 2753,
            "풔": 2754,
            "풩": 2755,
            "퓌": 2756,
            "퓔": 2757,
            "퓨": 2758,
            "퓬": 2759,
            "퓯": 2760,
            "퓰": 2761,
            "퓽": 2762,
            "픂": 2763,
            "픃": 2764,
            "프": 2765,
            "픅": 2766,
            "픈": 2767,
            "플": 2768,
            "픔": 2769,
            "픕": 2770,
            "픗": 2771,
            "픙": 2772,
            "픞": 2773,
            "픠": 2774,
            "픨": 2775,
            "픵": 2776,
            "피": 2777,
            "픽": 2778,
            "핀": 2779,
            "필": 2780,
            "핋": 2781,
            "핌": 2782,
            "핍": 2783,
            "핏": 2784,
            "핑": 2785,
            "핖": 2786,
            "핗": 2787,
            "하": 2788,
            "학": 2789,
            "핚": 2790,
            "한": 2791,
            "핟": 2792,
            "할": 2793,
            "핡": 2794,
            "핢": 2795,
            "핥": 2796,
            "함": 2797,
            "합": 2798,
            "핫": 2799,
            "핬": 2800,
            "항": 2801,
            "핮": 2802,
            "핱": 2803,
            "핳": 2804,
            "해": 2805,
            "핵": 2806,
            "핶": 2807,
            "핸": 2808,
            "핻": 2809,
            "핼": 2810,
            "햃": 2811,
            "햄": 2812,
            "햅": 2813,
            "햇": 2814,
            "했": 2815,
            "행": 2816,
            "햋": 2817,
            "햌": 2818,
            "햎": 2819,
            "햏": 2820,
            "햐": 2821,
            "햔": 2822,
            "햘": 2823,
            "햣": 2824,
            "햤": 2825,
            "향": 2826,
            "햫": 2827,
            "햿": 2828,
            "헀": 2829,
            "허": 2830,
            "헉": 2831,
            "헌": 2832,
            "헐": 2833,
            "헑": 2834,
            "헗": 2835,
            "험": 2836,
            "헙": 2837,
            "헛": 2838,
            "헜": 2839,
            "헝": 2840,
            "헠": 2841,
            "헣": 2842,
            "헤": 2843,
            "헥": 2844,
            "헨": 2845,
            "헬": 2846,
            "헷": 2847,
            "헸": 2848,
            "헹": 2849,
            "헽": 2850,
            "헿": 2851,
            "혀": 2852,
            "혁": 2853,
            "현": 2854,
            "혆": 2855,
            "혈": 2856,
            "혐": 2857,
            "협": 2858,
            "혓": 2859,
            "혔": 2860,
            "형": 2861,
            "혜": 2862,
            "호": 2863,
            "혹": 2864,
            "혼": 2865,
            "혿": 2866,
            "홀": 2867,
            "홈": 2868,
            "홉": 2869,
            "홋": 2870,
            "홍": 2871,
            "홓": 2872,
            "화": 2873,
            "확": 2874,
            "홗": 2875,
            "환": 2876,
            "활": 2877,
            "홤": 2878,
            "홧": 2879,
            "황": 2880,
            "홰": 2881,
            "횃": 2882,
            "회": 2883,
            "획": 2884,
            "횟": 2885,
            "횡": 2886,
            "효": 2887,
            "횻": 2888,
            "횽": 2889,
            "훃": 2890,
            "후": 2891,
            "훅": 2892,
            "훈": 2893,
            "훋": 2894,
            "훌": 2895,
            "훑": 2896,
            "훓": 2897,
            "훔": 2898,
            "훗": 2899,
            "훙": 2900,
            "훟": 2901,
            "훠": 2902,
            "훤": 2903,
            "훨": 2904,
            "훼": 2905,
            "휄": 2906,
            "휏": 2907,
            "휑": 2908,
            "휘": 2909,
            "휠": 2910,
            "휩": 2911,
            "휳": 2912,
            "휴": 2913,
            "흉": 2914,
            "흏": 2915,
            "흐": 2916,
            "흑": 2917,
            "흒": 2918,
            "흓": 2919,
            "흔": 2920,
            "흗": 2921,
            "흘": 2922,
            "흙": 2923,
            "흟": 2924,
            "흠": 2925,
            "흡": 2926,
            "흥": 2927,
            "흩": 2928,
            "흫": 2929,
            "희": 2930,
            "흭": 2931,
            "흰": 2932,
            "흼": 2933,
            "힁": 2934,
            "힇": 2935,
            "히": 2936,
            "힉": 2937,
            "힌": 2938,
            "힏": 2939,
            "힐": 2940,
            "힘": 2941,
            "힙": 2942,
            "힛": 2943,
            "힝": 2944,
            "힣": 2945,
            "##껴": 2946,
            "##둬": 2947,
            "##스": 2948,
            "##프": 2949,
            "##레": 2950,
            "##소": 2951,
            "##터": 2952,
            "##마": 2953,
            "##이": 2954,
            "##징": 2955,
            "##명": 2956,
            "##여": 2957,
            "##흐": 2958,
            "##ㅎ": 2959,
            "##쳤": 2960,
            "##네": 2961,
            "##짰": 2962,
            "##나": 2963,
            "##재": 2964,
            "##는": 2965,
            "##듯": 2966,
            "##천": 2967,
            "##오": 2968,
            "##백": 2969,
            "##고": 2970,
            "##있": 2971,
            "##지": 2972,
            "##만": 2973,
            "##니": 2974,
            "##생": 2975,
            "##각": 2976,
            "##남": 2977,
            "##자": 2978,
            "##샐": 2979,
            "##러": 2980,
            "##드": 2981,
            "##처": 2982,
            "##럼": 2983,
            "##시": 2984,
            "##에": 2985,
            "##두": 2986,
            "##좋": 2987,
            "##아": 2988,
            "##해": 2989,
            "##잖": 2990,
            "##루": 2991,
            "##미": 2992,
            "##못": 2993,
            "##골": 2994,
            "##랐": 2995,
            "##어": 2996,
            "##ㅜ": 2997,
            "##역": 2998,
            "##특": 2999,
            "##례": 3000,
            "##세": 3001,
            "##8": 3002,
            "##은": 3003,
            "##하": 3004,
            "##전": 3005,
            "##쓰": 3006,
            "##상": 3007,
            "##주": 3008,
            "##요": 3009,
            "##놓": 3010,
            "##라": 3011,
            "##ㅓ": 3012,
            "##ㅁ": 3013,
            "##ㄷ": 3014,
            "##ㄴ": 3015,
            "##ㅇ": 3016,
            "##노": 3017,
            "##란": 3018,
            "##체": 3019,
            "##토": 3020,
            "##닝": 3021,
            "##비": 3022,
            "##물": 3023,
            "##인": 3024,
            "##게": 3025,
            "##경": 3026,
            "##안": 3027,
            "##씀": 3028,
            "##했": 3029,
            "##었": 3030,
            "##데": 3031,
            "##랙": 3032,
            "##밀": 3033,
            "##크": 3034,
            "##티": 3035,
            "##랑": 3036,
            "##음": 3037,
            "##목": 3038,
            "##의": 3039,
            "##0": 3040,
            "##캣": 3041,
            "##희": 3042,
            "##넉": 3043,
            "##졌": 3044,
            "##와": 3045,
            "##려": 3046,
            "##야": 3047,
            "##약": 3048,
            "##같": 3049,
            "##국": 3050,
            "##산": 3051,
            "##다": 3052,
            "##냐": 3053,
            "##으": 3054,
            "##키": 3055,
            "##가": 3056,
            "##째": 3057,
            "##을": 3058,
            "##멋": 3059,
            "##더": 3060,
            "##척": 3061,
            "##뒤": 3062,
            "##들": 3063,
            "##ㅠ": 3064,
            "##ㅍ": 3065,
            "##부": 3066,
            "##되": 3067,
            "##팅": 3068,
            "##치": 3069,
            "##거": 3070,
            "##봐": 3071,
            "##죠": 3072,
            "##청": 3073,
            "##합": 3074,
            "##ㅋ": 3075,
            "##절": 3076,
            "##침": 3077,
            "##왜": 3078,
            "##중": 3079,
            "##사": 3080,
            "##탕": 3081,
            "##런": 3082,
            "##것": 3083,
            "##개": 3084,
            "##읏": 3085,
            "##기": 3086,
            "##b": 3087,
            "##c": 3088,
            "##든": 3089,
            "##였": 3090,
            "##겼": 3091,
            "##누": 3092,
            "##걸": 3093,
            "##림": 3094,
            "##p": 3095,
            "##t": 3096,
            "##면": 3097,
            "##본": 3098,
            "##쪽": 3099,
            "##리": 3100,
            "##일": 3101,
            "##금": 3102,
            "##신": 3103,
            "##로": 3104,
            "##식": 3105,
            "##임": 3106,
            "##놈": 3107,
            "##학": 3108,
            "##년": 3109,
            "##환": 3110,
            "##장": 3111,
            "##ㄼ": 3112,
            "##래": 3113,
            "##ㅑ": 3114,
            "##너": 3115,
            "##싶": 3116,
            "##잘": 3117,
            "##짤": 3118,
            "##버": 3119,
            "##렸": 3120,
            "##ㅌ": 3121,
            "##까": 3122,
            "##혈": 3123,
            "##써": 3124,
            "##색": 3125,
            "##도": 3126,
            "##벌": 3127,
            "##잡": 3128,
            "##케": 3129,
            "##복": 3130,
            "##뷰": 3131,
            "##보": 3132,
            "##문": 3133,
            "##e": 3134,
            "##떻": 3135,
            "##할": 3136,
            "##원": 3137,
            "##구": 3138,
            "##서": 3139,
            "##i": 3140,
            "##l": 3141,
            "##n": 3142,
            "##g": 3143,
            "##델": 3144,
            "##번": 3145,
            "##ㅛ": 3146,
            "##넹": 3147,
            "##괜": 3148,
            "##찮": 3149,
            "##a": 3150,
            "##d": 3151,
            "##r": 3152,
            "##2": 3153,
            "##실": 3154,
            "##즈": 3155,
            "##등": 3156,
            "##셋": 3157,
            "##댐": 3158,
            "##십": 3159,
            "##셔": 3160,
            "##건": 3161,
            "##호": 3162,
            "##준": 3163,
            "##블": 3164,
            "##링": 3165,
            "##막": 3166,
            "##차": 3167,
            "##짬": 3168,
            "##뽕": 3169,
            "##예": 3170,
            "##추": 3171,
            "##점": 3172,
            "##맞": 3173,
            "##옥": 3174,
            "##간": 3175,
            "##씩": 3176,
            "##월": 3177,
            "##달": 3178,
            "##과": 3179,
            "##던": 3180,
            "##응": 3181,
            "##ㄹ": 3182,
            "##따": 3183,
            "##올": 3184,
            "##질": 3185,
            "##동": 3186,
            "##람": 3187,
            "##성": 3188,
            "##냈": 3189,
            "##급": 3190,
            "##를": 3191,
            "##선": 3192,
            "##한": 3193,
            "##님": 3194,
            "##분": 3195,
            "##텐": 3196,
            "##락": 3197,
            "##콜": 3198,
            "##쯤": 3199,
            "##ㅈ": 3200,
            "##무": 3201,
            "##ㅝ": 3202,
            "##잇": 3203,
            "##움": 3204,
            "##조": 3205,
            "##끕": 3206,
            "##않": 3207,
            "##놨": 3208,
            "##향": 3209,
            "##히": 3210,
            "##ㅣ": 3211,
            "##힣": 3212,
            "##믈": 3213,
            "##렛": 3214,
            "##ㅂ": 3215,
            "##ㅏ": 3216,
            "##린": 3217,
            "##럴": 3218,
            "##때": 3219,
            "##ㄱ": 3220,
            "##맬": 3221,
            "##애": 3222,
            "##궞": 3223,
            "##긒": 3224,
            "##9": 3225,
            "##ㅔ": 3226,
            "##굤": 3227,
            "##결": 3228,
            "##제": 3229,
            "##정": 3230,
            "##류": 3231,
            "##뜨": 3232,
            "##쳐": 3233,
            "##진": 3234,
            "##답": 3235,
            "##퀘": 3236,
            "##난": 3237,
            "##갔": 3238,
            "##튜": 3239,
            "##브": 3240,
            "##틀": 3241,
            "##표": 3242,
            "##최": 3243,
            "##용": 3244,
            "##품": 3245,
            "##팔": 3246,
            "##릴": 3247,
            "##갑": 3248,
            "##당": 3249,
            "##6": 3250,
            "##옹": 3251,
            "##회": 3252,
            "##르": 3253,
            "##돌": 3254,
            "##옴": 3255,
            "##았": 3256,
            "##잠": 3257,
            "##몸": 3258,
            "##꼈": 3259,
            "##입": 3260,
            "##증": 3261,
            "##허": 3262,
            "##갈": 3263,
            "##없": 3264,
            "##먹": 3265,
            "##짜": 3266,
            "##젹": 3267,
            "##씨": 3268,
            "##곳": 3269,
            "##유": 3270,
            "##늌": 3271,
            "##큨": 3272,
            "##계": 3273,
            "##5": 3274,
            "##뭉": 3275,
            "##카": 3276,
            "##악": 3277,
            "##수": 3278,
            "##깉": 3279,
            "##뽑": 3280,
            "##ㄶ": 3281,
            "##족": 3282,
            "##통": 3283,
            "##내": 3284,
            "##7": 3285,
            "##랭": 3286,
            "##겠": 3287,
            "##착": 3288,
            "##종": 3289,
            "##대": 3290,
            "##매": 3291,
            "##뿜": 3292,
            "##타": 3293,
            "##떄": 3294,
            "##메": 3295,
            "##됬": 3296,
            "##관": 3297,
            "##끼": 3298,
            "##연": 3299,
            "##슈": 3300,
            "##커": 3301,
            "##피": 3302,
            "##츠": 3303,
            "##투": 3304,
            "##잍": 3305,
            "##험": 3306,
            "##귤": 3307,
            "##행": 3308,
            "##우": 3309,
            "##4": 3310,
            "##그": 3311,
            "##셈": 3312,
            "##찌": 3313,
            "##왔": 3314,
            "##엉": 3315,
            "##저": 3316,
            "##져": 3317,
            "##돼": 3318,
            "##길": 3319,
            "##숙": 3320,
            "##바": 3321,
            "##짝": 3322,
            "##벼": 3323,
            "##운": 3324,
            "##3": 3325,
            "##잼": 3326,
            "##놔": 3327,
            "##적": 3328,
            "##긋": 3329,
            "##딩": 3330,
            "##혀": 3331,
            "##녀": 3332,
            "##친": 3333,
            "##셨": 3334,
            "##료": 3335,
            "##랴": 3336,
            "##ㅐ": 3337,
            "##많": 3338,
            "##살": 3339,
            "##쌤": 3340,
            "##력": 3341,
            "##떡": 3342,
            "##울": 3343,
            "##권": 3344,
            "##죽": 3345,
            "##웨": 3346,
            "##속": 3347,
            "##배": 3348,
            "##심": 3349,
            "##푸": 3350,
            "##방": 3351,
            "##발": 3352,
            "##줘": 3353,
            "##립": 3354,
            "##공": 3355,
            "##워": 3356,
            "##육": 3357,
            "##렵": 3358,
            "##필": 3359,
            "##억": 3360,
            "##렁": 3361,
            "##컬": 3362,
            "##플": 3363,
            "##먼": 3364,
            "##웅": 3365,
            "##능": 3366,
            "##법": 3367,
            "##군": 3368,
            "##춰": 3369,
            "##겹": 3370,
            "##뉘": 3371,
            "##모": 3372,
            "##잔": 3373,
            "##항": 3374,
            "##론": 3375,
            "##널": 3376,
            "##양": 3377,
            "##취": 3378,
            "##강": 3379,
            "##폰": 3380,
            "##줄": 3381,
            "##쏘": 3382,
            "##롬": 3383,
            "##말": 3384,
            "##페": 3385,
            "##테": 3386,
            "##병": 3387,
            "##화": 3388,
            "##뛰": 3389,
            "##꺼": 3390,
            "##짐": 3391,
            "##영": 3392,
            "##꿔": 3393,
            "##킨": 3394,
            "##머": 3395,
            "##센": 3396,
            "##풀": 3397,
            "##s": 3398,
            "##몇": 3399,
            "##극": 3400,
            "##뤼": 3401,
            "##땐": 3402,
            "##코": 3403,
            "##겁": 3404,
            "##쌈": 3405,
            "##큼": 3406,
            "##굴": 3407,
            "##슉": 3408,
            "##맨": 3409,
            "##촉": 3410,
            "##언": 3411,
            "##함": 3412,
            "##교": 3413,
            "##겟": 3414,
            "##캐": 3415,
            "##칸": 3416,
            "##퍼": 3417,
            "##열": 3418,
            "##눈": 3419,
            "##찡": 3420,
            "##반": 3421,
            "##뭐": 3422,
            "##쌌": 3423,
            "##느": 3424,
            "##첼": 3425,
            "##후": 3426,
            "##옷": 3427,
            "##랄": 3428,
            "##햌": 3429,
            "##ㅅ": 3430,
            "##됐": 3431,
            "##삼": 3432,
            "##렇": 3433,
            "##습": 3434,
            "##앵": 3435,
            "##ㅗ": 3436,
            "##망": 3437,
            "##디": 3438,
            "##찐": 3439,
            "##봣": 3440,
            "##평": 3441,
            "##박": 3442,
            "##쌀": 3443,
            "##단": 3444,
            "##톡": 3445,
            "##눌": 3446,
            "##끄": 3447,
            "##션": 3448,
            "##긴": 3449,
            "##채": 3450,
            "##온": 3451,
            "##얌": 3452,
            "##슬": 3453,
            "##쩍": 3454,
            "##민": 3455,
            "##x": 3456,
            "##뒈": 3457,
            "##며": 3458,
            "##털": 3459,
            "##설": 3460,
            "##초": 3461,
            "##격": 3462,
            "##령": 3463,
            "##감": 3464,
            "##작": 3465,
            "##넫": 3466,
            "##독": 3467,
            "##촌": 3468,
            "##얼": 3469,
            "##탑": 3470,
            "##닭": 3471,
            "##탁": 3472,
            "##롤": 3473,
            "##녖": 3474,
            "##쟈": 3475,
            "##좌": 3476,
            "##록": 3477,
            "##철": 3478,
            "##밍": 3479,
            "##굳": 3480,
            "##형": 3481,
            "##눔": 3482,
            "##킄": 3483,
            "##럣": 3484,
            "##탆": 3485,
            "##탭": 3486,
            "##챗": 3487,
            "##뽈": 3488,
            "##힛": 3489,
            "##몽": 3490,
            "##q": 3491,
            "##u": 3492,
            "##얀": 3493,
            "##y": 3494,
            "##롸": 3495,
            "##ㅘ": 3496,
            "##땟": 3497,
            "##햇": 3498,
            "##렐": 3499,
            "##근": 3500,
            "##툰": 3501,
            "##냉": 3502,
            "##뤄": 3503,
            "##업": 3504,
            "##짓": 3505,
            "##콘": 3506,
            "##글": 3507,
            "##뎅": 3508,
            "##즣": 3509,
            "##파": 3510,
            "##책": 3511,
            "##젝": 3512,
            "##트": 3513,
            "##날": 3514,
            "##불": 3515,
            "##곡": 3516,
            "##새": 3517,
            "##둥": 3518,
            "##밥": 3519,
            "##받": 3520,
            "##됨": 3521,
            "##겨": 3522,
            "##봇": 3523,
            "##1": 3524,
            "##땡": 3525,
            "##찍": 3526,
            "##듈": 3527,
            "##볼": 3528,
            "##흑": 3529,
            "##름": 3530,
            "##튭": 3531,
            "##깝": 3532,
            "##롱": 3533,
            "##f": 3534,
            "##순": 3535,
            "##랜": 3536,
            "##패": 3537,
            "##엎": 3538,
            "##봤": 3539,
            "##앙": 3540,
            "##껏": 3541,
            "##뒀": 3542,
            "##뻣": 3543,
            "##z": 3544,
            "##팩": 3545,
            "##혼": 3546,
            "##폐": 3547,
            "##된": 3548,
            "##듣": 3549,
            "##겆": 3550,
            "##김": 3551,
            "##슙": 3552,
            "##둠": 3553,
            "##활": 3554,
            "##참": 3555,
            "##판": 3556,
            "##편": 3557,
            "##큐": 3558,
            "##웃": 3559,
            "##얽": 3560,
            "##앞": 3561,
            "##솜": 3562,
            "##섯": 3563,
            "##빠": 3564,
            "##븃": 3565,
            "##봅": 3566,
            "##떤": 3567,
            "##엽": 3568,
            "##멍": 3569,
            "##접": 3570,
            "##클": 3571,
            "##닉": 3572,
            "##껭": 3573,
            "##쥐": 3574,
            "##쿠": 3575,
            "##석": 3576,
            "##송": 3577,
            "##꾼": 3578,
            "##k": 3579,
            "##끌": 3580,
            "##렀": 3581,
            "##포": 3582,
            "##쁘": 3583,
            "##칠": 3584,
            "##긿": 3585,
            "##변": 3586,
            "##즌": 3587,
            "##집": 3588,
            "##돈": 3589,
            "##베": 3590,
            "##량": 3591,
            "##냥": 3592,
            "##둔": 3593,
            "##옼": 3594,
            "##킹": 3595,
            "##별": 3596,
            "##효": 3597,
            "##넘": 3598,
            "##맛": 3599,
            "##춥": 3600,
            "##럽": 3601,
            "##o": 3602,
            "##힘": 3603,
            "##켜": 3604,
            "##슥": 3605,
            "##m": 3606,
            "##났": 3607,
            "##른": 3608,
            "##풩": 3609,
            "##템": 3610,
            "##쁜": 3611,
            "##잤": 3612,
            "##견": 3613,
            "##깐": 3614,
            "##될": 3615,
            "##출": 3616,
            "##몬": 3617,
            "##듬": 3618,
            "##땜": 3619,
            "##황": 3620,
            "##엍": 3621,
            "##죄": 3622,
            "##께": 3623,
            "##첩": 3624,
            "##렌": 3625,
            "##칯": 3626,
            "##닥": 3627,
            "##쉬": 3628,
            "##퇴": 3629,
            "##끗": 3630,
            "##엔": 3631,
            "##엄": 3632,
            "##욱": 3633,
            "##좀": 3634,
            "##찾": 3635,
            "##닁": 3636,
            "##헤": 3637,
            "##벏": 3638,
            "##덜": 3639,
            "##쥥": 3640,
            "##삿": 3641,
            "##늘": 3642,
            "##챙": 3643,
            "##렂": 3644,
            "##h": 3645,
            "##맥": 3646,
            "##틴": 3647,
            "##ㅀ": 3648,
            "##솨": 3649,
            "##랏": 3650,
            "##완": 3651,
            "##짱": 3652,
            "##깨": 3653,
            "##탐": 3654,
            "##샹": 3655,
            "##담": 3656,
            "##벨": 3657,
            "##뉴": 3658,
            "##똥": 3659,
            "##충": 3660,
            "##꿨": 3661,
            "##떠": 3662,
            "##썼": 3663,
            "##닷": 3664,
            "##힌": 3665,
            "##텔": 3666,
            "##둣": 3667,
            "##규": 3668,
            "##위": 3669,
            "##겄": 3670,
            "##쑴": 3671,
            "##ㅡ": 3672,
            "##엇": 3673,
            "##궁": 3674,
            "##쓸": 3675,
            "##j": 3676,
            "##곈": 3677,
            "##범": 3678,
            "##북": 3679,
            "##갯": 3680,
            "##늠": 3681,
            "##렴": 3682,
            "##앗": 3683,
            "##샇": 3684,
            "##슷": 3685,
            "##직": 3686,
            "##측": 3687,
            "##값": 3688,
            "##훟": 3689,
            "##묘": 3690,
            "##묭": 3691,
            "##낭": 3692,
            "##념": 3693,
            "##낌": 3694,
            "##왓": 3695,
            "##낸": 3696,
            "##깡": 3697,
            "##둘": 3698,
            "##숴": 3699,
            "##뚜": 3700,
            "##젓": 3701,
            "##슐": 3702,
            "##밌": 3703,
            "##끈": 3704,
            "##랬": 3705,
            "##즘": 3706,
            "##볍": 3707,
            "##축": 3708,
            "##ㄲ": 3709,
            "##익": 3710,
            "##퍽": 3711,
            "##앋": 3712,
            "##알": 3713,
            "##곤": 3714,
            "##댁": 3715,
            "##듶": 3716,
            "##붜": 3717,
            "##넣": 3718,
            "##쒀": 3719,
            "##졸": 3720,
            "##멜": 3721,
            "##챴": 3722,
            "##팡": 3723,
            "##힙": 3724,
            "##뮁": 3725,
            "##멸": 3726,
            "##릿": 3727,
            "##ㅆ": 3728,
            "##빵": 3729,
            "##넷": 3730,
            "##턷": 3731,
            "##핑": 3732,
            "##엌": 3733,
            "##닌": 3734,
            "##탱": 3735,
            "##땠": 3736,
            "##끝": 3737,
            "##벅": 3738,
            "##씹": 3739,
            "##웠": 3740,
            "##뀐": 3741,
            "##밖": 3742,
            "##퉤": 3743,
            "##킬": 3744,
            "##룰": 3745,
            "##낙": 3746,
            "##손": 3747,
            "##딴": 3748,
            "##쿡": 3749,
            "##혔": 3750,
            "##빗": 3751,
            "##뻔": 3752,
            "##쪼": 3753,
            "##넝": 3754,
            "##댜": 3755,
            "##챠": 3756,
            "##핳": 3757,
            "##덮": 3758,
            "##샷": 3759,
            "##찝": 3760,
            "##탈": 3761,
            "##멀": 3762,
            "##득": 3763,
            "##붘": 3764,
            "##존": 3765,
            "##떨": 3766,
            "##싫": 3767,
            "##탄": 3768,
            "##녁": 3769,
            "##넌": 3770,
            "##태": 3771,
            "##덩": 3772,
            "##쟀": 3773,
            "##꼬": 3774,
            "##뚝": 3775,
            "##읎": 3776,
            "##겡": 3777,
            "##럭": 3778,
            "##귀": 3779,
            "##겤": 3780,
            "##핀": 3781,
            "##샌": 3782,
            "##쥬": 3783,
            "##쓴": 3784,
            "##잣": 3785,
            "##쩔": 3786,
            "##좃": 3787,
            "##잉": 3788,
            "##깸": 3789,
            "##슨": 3790,
            "##낟": 3791,
            "##랫": 3792,
            "##폼": 3793,
            "##층": 3794,
            "##뿔": 3795,
            "##쟁": 3796,
            "##눙": 3797,
            "##뜻": 3798,
            "##옸": 3799,
            "##낳": 3800,
            "##뎁": 3801,
            "##릎": 3802,
            "##볶": 3803,
            "##v": 3804,
            "##왘": 3805,
            "##곰": 3806,
            "##몰": 3807,
            "##쇼": 3808,
            "##겿": 3809,
            "##앳": 3810,
            "##맴": 3811,
            "##쫌": 3812,
            "##닐": 3813,
            "##떼": 3814,
            "##쭈": 3815,
            "##갓": 3816,
            "##랮": 3817,
            "##팢": 3818,
            "##픞": 3819,
            "##얖": 3820,
            "##닳": 3821,
            "##봄": 3822,
            "##칙": 3823,
            "##쵸": 3824,
            "##협": 3825,
            "##냏": 3826,
            "##엠": 3827,
            "##ㅊ": 3828,
            "##폭": 3829,
            "##퓨": 3830,
            "##됫": 3831,
            "##ㄻ": 3832,
            "##쩌": 3833,
            "##꼼": 3834,
            "##덕": 3835,
            "##찬": 3836,
            "##멘": 3837,
            "##푼": 3838,
            "##톱": 3839,
            "##확": 3840,
            "##펐": 3841,
            "##팝": 3842,
            "##햐": 3843,
            "##썬": 3844,
            "##헿": 3845,
            "##싸": 3846,
            "##삭": 3847,
            "##쿼": 3848,
            "##율": 3849,
            "##깅": 3850,
            "##엿": 3851,
            "##겅": 3852,
            "##쎄": 3853,
            "##륵": 3854,
            "##붕": 3855,
            "##폴": 3856,
            "##찰": 3857,
            "##죵": 3858,
            "##객": 3859,
            "##빡": 3860,
            "##튼": 3861,
            "##맘": 3862,
            "##뜬": 3863,
            "##핟": 3864,
            "##딪": 3865,
            "##창": 3866,
            "##또": 3867,
            "##빔": 3868,
            "##광": 3869,
            "##륙": 3870,
            "##댕": 3871,
            "##믿": 3872,
            "##웋": 3873,
            "##ㅉ": 3874,
            "##듕": 3875,
            "##냄": 3876,
            "##놀": 3877,
            "##녓": 3878,
            "##낼": 3879,
            "##현": 3880,
            "##귄": 3881,
            "##낀": 3882,
            "##묻": 3883,
            "##뿐": 3884,
            "##썸": 3885,
            "##멧": 3886,
            "##샸": 3887,
            "##굿": 3888,
            "##샵": 3889,
            "##딱": 3890,
            "##즐": 3891,
            "##흉": 3892,
            "##퍄": 3893,
            "##빌": 3894,
            "##줌": 3895,
            "##햣": 3896,
            "##꾸": 3897,
            "##택": 3898,
            "##액": 3899,
            "##줬": 3900,
            "##욤": 3901,
            "##뎌": 3902,
            "##굔": 3903,
            "##궈": 3904,
            "##겢": 3905,
            "##암": 3906,
            "##엥": 3907,
            "##콩": 3908,
            "##높": 3909,
            "##슺": 3910,
            "##썻": 3911,
            "##봉": 3912,
            "##논": 3913,
            "##획": 3914,
            "##맹": 3915,
            "##냠": 3916,
            "##쳨": 3917,
            "##펜": 3918,
            "##칼": 3919,
            "##쿄": 3920,
            "##쪄": 3921,
            "##샤": 3922,
            "##춋": 3923,
            "##룹": 3924,
            "##술": 3925,
            "##튀": 3926,
            "##뷔": 3927,
            "##앉": 3928,
            "##뚱": 3929,
            "##녔": 3930,
            "##덧": 3931,
            "##쎔": 3932,
            "##숍": 3933,
            "##렬": 3934,
            "##밟": 3935,
            "##왂": 3936,
            "##싱": 3937,
            "##납": 3938,
            "##탔": 3939,
            "##눠": 3940,
            "##눞": 3941,
            "##슢": 3942,
            "##빛": 3943,
            "##꺽": 3944,
            "##묵": 3945,
            "##뤘": 3946,
            "##밤": 3947,
            "##몀": 3948,
            "##닦": 3949,
            "##렙": 3950,
            "##솥": 3951,
            "##큩": 3952,
            "##뎄": 3953,
            "##욕": 3954,
            "##탠": 3955,
            "##검": 3956,
            "##탬": 3957,
            "##빈": 3958,
            "##솔": 3959,
            "##깃": 3960,
            "##졋": 3961,
            "##탛": 3962,
            "##앛": 3963,
            "##뇌": 3964,
            "##졍": 3965,
            "##갸": 3966,
            "##련": 3967,
            "##줔": 3968,
            "##낫": 3969,
            "##겪": 3970,
            "##셀": 3971,
            "##햘": 3972,
            "##믄": 3973,
            "##혜": 3974,
            "##왕": 3975,
            "##껄": 3976,
            "##ㄸ": 3977,
            "##숭": 3978,
            "##찢": 3979,
            "##맵": 3980,
            "##늦": 3981,
            "##텍": 3982,
            "##ㄺ": 3983,
            "##짛": 3984,
            "##븐": 3985,
            "##캔": 3986,
            "##킵": 3987,
            "##풍": 3988,
            "##빨": 3989,
            "##혁": 3990,
            "##눜": 3991,
            "##펙": 3992,
            "##찜": 3993,
            "##잊": 3994,
            "##갠": 3995,
            "##딜": 3996,
            "##맷": 3997,
            "##뵀": 3998,
            "##먀": 3999,
            "##릭": 4000,
            "##쉐": 4001,
            "##턴": 4002,
            "##칭": 4003,
            "##얍": 4004,
            "##엑": 4005,
            "##엘": 4006,
            "##먄": 4007,
            "##끊": 4008,
            "##램": 4009,
            "##괨": 4010,
            "##듄": 4011,
            "##빅": 4012,
            "##읽": 4013,
            "##엋": 4014,
            "##총": 4015,
            "##겔": 4016,
            "##떵": 4017,
            "##롭": 4018,
            "##룸": 4019,
            "##외": 4020,
            "##릉": 4021,
            "##균": 4022,
            "##뚫": 4023,
            "##팁": 4024,
            "##잏": 4025,
            "##렉": 4026,
            "##땨": 4027,
            "##깠": 4028,
            "##싯": 4029,
            "##뫄": 4030,
            "##팀": 4031,
            "##컵": 4032,
            "##쎙": 4033,
            "##쑥": 4034,
            "##듀": 4035,
            "##듫": 4036,
            "##싳": 4037,
            "##휴": 4038,
            "##렷": 4039,
            "##옾": 4040,
            "##봏": 4041,
            "##뒙": 4042,
            "##덴": 4043,
            "##톤": 4044,
            "##뮤": 4045,
            "##궤": 4046,
            "##딘": 4047,
            "##괄": 4048,
            "##썹": 4049,
            "##꿈": 4050,
            "##땀": 4051,
            "##흘": 4052,
            "##뽀": 4053,
            "##덤": 4054,
            "##픽": 4055,
            "##꿀": 4056,
            "##닿": 4057,
            "##략": 4058,
            "##겍": 4059,
            "##뻤": 4060,
            "##섭": 4061,
            "##깔": 4062,
            "##얒": 4063,
            "##떙": 4064,
            "##압": 4065,
            "##섬": 4066,
            "##퀄": 4067,
            "##흡": 4068,
            "##힝": 4069,
            "##헉": 4070,
            "##끆": 4071,
            "##걀": 4072,
            "##낱": 4073,
            "##염": 4074,
            "##펴": 4075,
            "##뜰": 4076,
            "##썩": 4077,
            "##팟": 4078,
            "##싷": 4079,
            "##닫": 4080,
            "##넨": 4081,
            "##뇨": 4082,
            "##썽": 4083,
            "##묜": 4084,
            "##갰": 4085,
            "##즉": 4086,
            "##읆": 4087,
            "##벽": 4088,
            "##룡": 4089,
            "##덛": 4090,
            "##씬": 4091,
            "##삐": 4092,
            "##얐": 4093,
            "##넛": 4094,
            "##웡": 4095,
            "##쫄": 4096,
            "##빼": 4097,
            "##욜": 4098,
            "##픈": 4099,
            "##w": 4100,
            "##랩": 4101,
            "##솦": 4102,
            "##릯": 4103,
            "##잒": 4104,
            "##빋": 4105,
            "##랍": 4106,
            "##뺠": 4107,
            "##슂": 4108,
            "##쟏": 4109,
            "##랠": 4110,
            "##헐": 4111,
            "##쮸": 4112,
            "##뼈": 4113,
            "##뜸": 4114,
            "##켈": 4115,
            "##렠": 4116,
            "##냊": 4117,
            "##킈": 4118,
            "##얄": 4119,
            "##켓": 4120,
            "##싼": 4121,
            "##왛": 4122,
            "##윰": 4123,
            "##앖": 4124,
            "##홉": 4125,
            "##헨": 4126,
            "##붙": 4127,
            "##벤": 4128,
            "##싴": 4129,
            "##숲": 4130,
            "##걱": 4131,
            "##젠": 4132,
            "##뀝": 4133,
            "##쓱": 4134,
            "##뵤": 4135,
            "##콧": 4136,
            "##삉": 4137,
            "##쓔": 4138,
            "##쑦": 4139,
            "##윤": 4140,
            "##줭": 4141,
            "##딸": 4142,
            "##승": 4143,
            "##늗": 4144,
            "##틸": 4145,
            "##둑": 4146,
            "##퓬": 4147,
            "##앟": 4148,
            "##엪": 4149,
            "##므": 4150,
            "##뺏": 4151,
            "##쒄": 4152,
            "##벗": 4153,
            "##틱": 4154,
            "##숑": 4155,
            "##뾰": 4156,
            "##ㅄ": 4157,
            "##죔": 4158,
            "##젔": 4159,
            "##쇄": 4160,
            "##슴": 4161,
            "##룩": 4162,
            "##훠": 4163,
            "##ㅢ": 4164,
            "##킠": 4165,
            "##앜": 4166,
            "##짖": 4167,
            "##쌍": 4168,
            "##땅": 4169,
            "##룜": 4170,
            "##댔": 4171,
            "##숼": 4172,
            "##좔": 4173,
            "##귈": 4174,
            "##앍": 4175,
            "##녕": 4176,
            "##쇠": 4177,
            "##똑": 4178,
            "##밸": 4179,
            "##뫀": 4180,
            "##굽": 4181,
            "##홓": 4182,
            "##둗": 4183,
            "##픔": 4184,
            "##퉁": 4185,
            "##쿜": 4186,
            "##픂": 4187,
            "##쭤": 4188,
            "##ㄳ": 4189,
            "##ㅃ": 4190,
            "##댓": 4191,
            "##캬": 4192,
            "##넴": 4193,
            "##ㅕ": 4194,
            "##랗": 4195,
            "##빙": 4196,
            "##쉨": 4197,
            "##뻬": 4198,
            "##춘": 4199,
            "##웹": 4200,
            "##늬": 4201,
            "##뎃": 4202,
            "##ㄿ": 4203,
            "##뻐": 4204,
            "##눚": 4205,
            "##줍": 4206,
            "##탙": 4207,
            "##둪": 4208,
            "##퓰": 4209,
            "##녹": 4210,
            "##덟": 4211,
            "##핗": 4212,
            "##겻": 4213,
            "##딧": 4214,
            "##밧": 4215,
            "##뀨": 4216,
            "##닽": 4217,
            "##앱": 4218,
            "##딯": 4219,
            "##뱉": 4220,
            "##뱅": 4221,
            "##뎦": 4222,
            "##앰": 4223,
            "##뱌": 4224,
            "##앧": 4225,
            "##홍": 4226,
            "##ㅖ": 4227,
            "##걷": 4228,
            "##맙": 4229,
            "##낰": 4230,
            "##륻": 4231,
            "##싿": 4232,
            "##힐": 4233,
            "##헸": 4234,
            "##췄": 4235,
            "##혐": 4236,
            "##젬": 4237,
            "##뜩": 4238,
            "##꽃": 4239,
            "##뎀": 4240,
            "##뵷": 4241,
            "##싡": 4242,
            "##숫": 4243,
            "##깟": 4244,
            "##툼": 4245,
            "##갤": 4246,
            "##팠": 4247,
            "##홀": 4248,
            "##팎": 4249,
            "##맀": 4250,
            "##얻": 4251,
            "##흥": 4252,
            "##쫘": 4253,
            "##쉭": 4254,
            "##뤠": 4255,
            "##훈": 4256,
            "##햄": 4257,
            "##룻": 4258,
            "##왈": 4259,
            "##켄": 4260,
            "##닛": 4261,
            "##겜": 4262,
            "##릇": 4263,
            "##ㅟ": 4264,
            "##틈": 4265,
            "##렝": 4266,
            "##캠": 4267,
            "##뇽": 4268,
            "##읅": 4269,
            "##퉆": 4270,
            "##뉸": 4271,
            "##괴": 4272,
            "##헣": 4273,
            "##햅": 4274,
            "##됩": 4275,
            "##농": 4276,
            "##겐": 4277,
            "##밭": 4278,
            "##곃": 4279,
            "##힁": 4280,
            "##딨": 4281,
            "##탘": 4282,
            "##콰": 4283,
            "##밑": 4284,
            "##쿗": 4285,
            "##갛": 4286,
            "##쟡": 4287,
            "##빱": 4288,
            "##굼": 4289,
            "##젆": 4290,
            "##듦": 4291,
            "##갵": 4292,
            "##쉽": 4293,
            "##얘": 4294,
            "##릏": 4295,
            "##벳": 4296,
            "##봥": 4297,
            "##짠": 4298,
            "##팬": 4299,
            "##뀔": 4300,
            "##뮬": 4301,
            "##샨": 4302,
            "##펀": 4303,
            "##젤": 4304,
            "##돋": 4305,
            "##쫀": 4306,
            "##뭔": 4307,
            "##턱": 4308,
            "##뻠": 4309,
            "##셰": 4310,
            "##칩": 4311,
            "##똪": 4312,
            "##앤": 4313,
            "##쳣": 4314,
            "##잌": 4315,
            "##렺": 4316,
            "##좆": 4317,
            "##컴": 4318,
            "##첵": 4319,
            "##픕": 4320,
            "##쪙": 4321,
            "##낄": 4322,
            "##넢": 4323,
            "##즹": 4324,
            "##욐": 4325,
            "##댄": 4326,
            "##쥰": 4327,
            "##싕": 4328,
            "##듸": 4329,
            "##옆": 4330,
            "##톨": 4331,
            "##헝": 4332,
            "##쨩": 4333,
            "##윗": 4334,
            "##칫": 4335,
            "##읶": 4336,
            "##냔": 4337,
            "##곺": 4338,
            "##읍": 4339,
            "##숟": 4340,
            "##얔": 4341,
            "##륨": 4342,
            "##눅": 4343,
            "##쑤": 4344,
            "##륭": 4345,
            "##껀": 4346,
            "##뺄": 4347,
            "##깥": 4348,
            "##왱": 4349,
            "##팥": 4350,
            "##랖": 4351,
            "##핫": 4352,
            "##빰": 4353,
            "##녜": 4354,
            "##냤": 4355,
            "##펌": 4356,
            "##큘": 4357,
            "##볕": 4358,
            "##즁": 4359,
            "##럊": 4360,
            "##뭘": 4361,
            "##릅": 4362,
            "##놧": 4363,
            "##팽": 4364,
            "##듷": 4365,
            "##컀": 4366,
            "##멩": 4367,
            "##겧": 4368,
            "##쿨": 4369,
            "##춤": 4370,
            "##갬": 4371,
            "##쉴": 4372,
            "##싹": 4373,
            "##풒": 4374,
            "##켰": 4375,
            "##냑": 4376,
            "##헽": 4377,
            "##쨋": 4378,
            "##툭": 4379,
            "##뵘": 4380,
            "##딕": 4381,
            "##핏": 4382,
            "##팸": 4383,
            "##쟘": 4384,
            "##탓": 4385,
            "##씻": 4386,
            "##률": 4387,
            "##콤": 4388,
            "##밒": 4389,
            "##깼": 4390,
            "##룯": 4391,
            "##륌": 4392,
            "##혹": 4393,
            "##끔": 4394,
            "##럄": 4395,
            "##빻": 4396,
            "##ㄾ": 4397,
            "##껐": 4398,
            "##탸": 4399,
            "##뛸": 4400,
            "##숨": 4401,
            "##핮": 4402,
            "##ㅞ": 4403,
            "##욧": 4404,
            "##쿤": 4405,
            "##궜": 4406,
            "##횃": 4407,
            "##뢰": 4408,
            "##칵": 4409,
            "##앻": 4410,
            "##꽈": 4411,
            "##밠": 4412,
            "##쾌": 4413,
            "##웞": 4414,
            "##좁": 4415,
            "##픵": 4416,
            "##넚": 4417,
            "##샘": 4418,
            "##꼽": 4419,
            "##됑": 4420,
            "##뉭": 4421,
            "##떢": 4422,
            "##띠": 4423,
            "##읔": 4424,
            "##쾅": 4425,
            "##윽": 4426,
            "##컨": 4427,
            "##늫": 4428,
            "##츄": 4429,
            "##뢀": 4430,
            "##웊": 4431,
            "##젛": 4432,
            "##깜": 4433,
            "##렘": 4434,
            "##됳": 4435,
            "##윈": 4436,
            "##쁠": 4437,
            "##융": 4438,
            "##헌": 4439,
            "##훌": 4440,
            "##춧": 4441,
            "##컷": 4442,
            "##넥": 4443,
            "##닜": 4444,
            "##뻘": 4445,
            "##갇": 4446,
            "##뉜": 4447,
            "##쟂": 4448,
            "##셉": 4449,
            "##퓽": 4450,
            "##밎": 4451,
            "##갖": 4452,
            "##웉": 4453,
            "##긔": 4454,
            "##젯": 4455,
            "##쭉": 4456,
            "##짆": 4457,
            "##랸": 4458,
            "##믤": 4459,
            "##셧": 4460,
            "##닙": 4461,
            "##묶": 4462,
            "##쫏": 4463,
            "##셭": 4464,
            "##뀌": 4465,
            "##깎": 4466,
            "##끜": 4467,
            "##쳠": 4468,
            "##뚐": 4469,
            "##곱": 4470,
            "##힉": 4471,
            "##둴": 4472,
            "##늄": 4473,
            "##컹": 4474,
            "##덭": 4475,
            "##얗": 4476,
            "##넜": 4477,
            "##닣": 4478,
            "##쨜": 4479,
            "##샀": 4480,
            "##핶": 4481,
            "##뿌": 4482,
            "##쿵": 4483,
            "##썜": 4484,
            "##앨": 4485,
            "##덯": 4486,
            "##갹": 4487,
            "##흔": 4488,
            "##멒": 4489,
            "##웆": 4490,
            "##뭇": 4491,
            "##띄": 4492,
            "##엲": 4493,
            "##돗": 4494,
            "##럯": 4495,
            "##쏠": 4496,
            "##눨": 4497,
            "##긇": 4498,
            "##엊": 4499,
            "##늊": 4500,
            "##뱃": 4501,
            "##웇": 4502,
            "##깍": 4503,
            "##잦": 4504,
            "##돟": 4505,
            "##헷": 4506,
            "##뤙": 4507,
            "##틍": 4508,
            "##닮": 4509,
            "##쒕": 4510,
            "##럈": 4511,
            "##쒸": 4512,
            "##껫": 4513,
            "##륀": 4514,
            "##겸": 4515,
            "##툽": 4516,
            "##둡": 4517,
            "##룽": 4518,
            "##갚": 4519,
            "##쥼": 4520,
            "##닊": 4521,
            "##껍": 4522,
            "##및": 4523,
            "##옿": 4524,
            "##둿": 4525,
            "##빕": 4526,
            "##빴": 4527,
            "##읭": 4528,
            "##짢": 4529,
            "##럾": 4530,
            "##늑": 4531,
            "##껑": 4532,
            "##싰": 4533,
            "##듢": 4534,
            "##됮": 4535,
            "##쩡": 4536,
            "##륽": 4537,
            "##겎": 4538,
            "##엏": 4539,
            "##펑": 4540,
            "##삔": 4541,
            "##챘": 4542,
            "##씅": 4543,
            "##쪘": 4544,
            "##첨": 4545,
            "##끠": 4546,
            "##웽": 4547,
            "##쌩": 4548,
            "##싵": 4549,
            "##넬": 4550,
            "##냅": 4551,
            "##쇽": 4552,
            "##풔": 4553,
            "##ㅒ": 4554,
            "##욺": 4555,
            "##옫": 4556,
            "##밈": 4557,
            "##쫑": 4558,
            "##랔": 4559,
            "##맿": 4560,
            "##숀": 4561,
            "##롼": 4562,
            "##몹": 4563,
            "##쉉": 4564,
            "##큰": 4565,
            "##넙": 4566,
            "##킷": 4567,
            "##읜": 4568,
            "##텁": 4569,
            "##씁": 4570,
            "##줗": 4571,
            "##눼": 4572,
            "##폈": 4573,
            "##젏": 4574,
            "##늴": 4575,
            "##캡": 4576,
            "##룬": 4577,
            "##쯜": 4578,
            "##윙": 4579,
            "##팓": 4580,
            "##썰": 4581,
            "##킇": 4582,
            "##읗": 4583,
            "##컸": 4584,
            "##췸": 4585,
            "##땬": 4586,
            "##옄": 4587,
            "##뗀": 4588,
            "##휘": 4589,
            "##뷴": 4590,
            "##샥": 4591,
            "##샬": 4592,
            "##쩜": 4593,
            "##귗": 4594,
            "##늉": 4595,
            "##늪": 4596,
            "##늕": 4597,
            "##샅": 4598,
            "##꺘": 4599,
            "##뜯": 4600,
            "##킼": 4601,
            "##깬": 4602,
            "##궐": 4603,
            "##뮾": 4604,
            "##랃": 4605,
            "##깄": 4606,
            "##쌉": 4607,
            "##셜": 4608,
            "##닼": 4609,
            "##쮜": 4610,
            "##싀": 4611,
            "##윳": 4612,
            "##텥": 4613,
            "##펄": 4614,
            "##럿": 4615,
            "##곧": 4616,
            "##촥": 4617,
            "##삽": 4618,
            "##냇": 4619,
            "##샛": 4620,
            "##댈": 4621,
            "##긍": 4622,
            "##긁": 4623,
            "##밓": 4624,
            "##낵": 4625,
            "##읋": 4626,
            "##삘": 4627,
            "##찹": 4628,
            "##땃": 4629,
            "##듭": 4630,
            "##븸": 4631,
            "##엡": 4632,
            "##붇": 4633,
            "##줃": 4634,
            "##텅": 4635,
            "##샊": 4636,
            "##흫": 4637,
            "##엫": 4638,
            "##뺐": 4639,
            "##홈": 4640,
            "##앚": 4641,
            "##햃": 4642,
            "##쏭": 4643,
            "##밝": 4644,
            "##욥": 4645,
            "##셍": 4646,
            "##빤": 4647,
            "##맣": 4648,
            "##옺": 4649,
            "##껨": 4650,
            "##졈": 4651,
            "##깩": 4652,
            "##끓": 4653,
            "##냘": 4654,
            "##뎋": 4655,
            "##헠": 4656,
            "##잎": 4657,
            "##롹": 4658,
            "##벙": 4659,
            "##궷": 4660,
            "##돠": 4661,
            "##잰": 4662,
            "##풉": 4663,
            "##핚": 4664,
            "##싮": 4665,
            "##웢": 4666,
            "##홰": 4667,
            "##맏": 4668,
            "##겋": 4669,
            "##뉵": 4670,
            "##쌔": 4671,
            "##웩": 4672,
            "##멈": 4673,
            "##젖": 4674,
            "##뵙": 4675,
            "##퀴": 4676,
            "##딥": 4677,
            "##귬": 4678,
            "##꽂": 4679,
            "##갱": 4680,
            "##둫": 4681,
            "##훋": 4682,
            "##훅": 4683,
            "##밋": 4684,
            "##옂": 4685,
            "##뎨": 4686,
            "##줐": 4687,
            "##죡": 4688,
            "##싄": 4689,
            "##찔": 4690,
            "##솓": 4691,
            "##틑": 4692,
            "##뵈": 4693,
            "##뎉": 4694,
            "##텨": 4695,
            "##옛": 4696,
            "##캥": 4697,
            "##엣": 4698,
            "##윌": 4699,
            "##쁨": 4700,
            "##싺": 4701,
            "##헜": 4702,
            "##싣": 4703,
            "##랳": 4704,
            "##싑": 4705,
            "##괘": 4706,
            "##엳": 4707,
            "##쭘": 4708,
            "##됰": 4709,
            "##뻗": 4710,
            "##챱": 4711,
            "##딈": 4712,
            "##슘": 4713,
            "##쟌": 4714,
            "##딖": 4715,
            "##왁": 4716,
            "##텂": 4717,
            "##딤": 4718,
            "##ㅙ": 4719,
            "##덱": 4720,
            "##뭥": 4721,
            "##앝": 4722,
            "##됴": 4723,
            "##헥": 4724,
            "##갘": 4725,
            "##졎": 4726,
            "##먿": 4727,
            "##킴": 4728,
            "##흏": 4729,
            "##띤": 4730,
            "##젼": 4731,
            "##짼": 4732,
            "##욬": 4733,
            "##놰": 4734,
            "##븜": 4735,
            "##맸": 4736,
            "##푠": 4737,
            "##믹": 4738,
            "##횡": 4739,
            "##잃": 4740,
            "##햤": 4741,
            "##곁": 4742,
            "##옮": 4743,
            "##밴": 4744,
            "##텀": 4745,
            "##꼐": 4746,
            "##훃": 4747,
            "##넒": 4748,
            "##숵": 4749,
            "##랰": 4750,
            "##잽": 4751,
            "##줉": 4752,
            "##윔": 4753,
            "##댱": 4754,
            "##엱": 4755,
            "##웈": 4756,
            "##엨": 4757,
            "##윀": 4758,
            "##윜": 4759,
            "##웤": 4760,
            "##줏": 4761,
            "##뻑": 4762,
            "##읃": 4763,
            "##왉": 4764,
            "##횻": 4765,
            "##훼": 4766,
            "##갗": 4767,
            "##걌": 4768,
            "##냬": 4769,
            "##떳": 4770,
            "##캉": 4771,
            "##룐": 4772,
            "##꾹": 4773,
            "##슽": 4774,
            "##돔": 4775,
            "##짚": 4776,
            "##헀": 4777,
            "##븰": 4778,
            "##멤": 4779,
            "##꺠": 4780,
            "##퍈": 4781,
            "##냨": 4782,
            "##뱍": 4783,
            "##삶": 4784,
            "##샂": 4785,
            "##얃": 4786,
            "##텼": 4787,
            "##짇": 4788,
            "##긱": 4789,
            "##곦": 4790,
            "##핢": 4791,
            "##늶": 4792,
            "##맇": 4793,
            "##릳": 4794,
            "##얏": 4795,
            "##렆": 4796,
            "##웎": 4797,
            "##똘": 4798,
            "##뉨": 4799,
            "##섕": 4800,
            "##뻥": 4801,
            "##퐁": 4802,
            "##벱": 4803,
            "##쨰": 4804,
            "##녛": 4805,
            "##쁀": 4806,
            "##텻": 4807,
            "##맢": 4808,
            "##앷": 4809,
            "##흓": 4810,
            "##긓": 4811,
            "##넿": 4812,
            "##푝": 4813,
            "##쵹": 4814,
            "##펠": 4815,
            "##뵐": 4816,
            "##뵜": 4817,
            "##뗐": 4818,
            "##듁": 4819,
            "##얾": 4820,
            "##솟": 4821,
            "##훙": 4822,
            "##샣": 4823,
            "##ㅚ": 4824,
            "##웬": 4825,
            "##킥": 4826,
            "##옶": 4827,
            "##핱": 4828,
            "##갂": 4829,
            "##맺": 4830,
            "##됌": 4831,
            "##쌓": 4832,
            "##팍": 4833,
            "##웁": 4834,
            "##밯": 4835,
            "##걍": 4836,
            "##씌": 4837,
            "##굑": 4838,
            "##A": 4839,
            "##M": 4840,
            "##E": 4841,
            "##칱": 4842,
            "##칰": 4843,
            "##겈": 4844,
            "##쯔": 4845,
            "##퉅": 4846,
            "##셬": 4847,
            "##럻": 4848,
            "##욳": 4849,
            "##츦": 4850,
            "##앆": 4851,
            "##뱁": 4852,
            "##욨": 4853,
            "##젿": 4854,
            "##붓": 4855,
            "##꽉": 4856,
            "##벵": 4857,
            "##쀠": 4858,
            "##쨕": 4859,
            "##뚣": 4860,
            "##롷": 4861,
            "##엙": 4862,
            "##읻": 4863,
            "##릐": 4864,
            "##늚": 4865,
            "##찯": 4866,
            "##쥄": 4867,
            "##볐": 4868,
            "##먐": 4869,
            "##뇬": 4870,
            "##닞": 4871,
            "##붗": 4872,
            "##깊": 4873,
            "##죰": 4874,
            "##뀜": 4875,
            "##춌": 4876,
            "##펫": 4877,
            "##떴": 4878,
            "##땁": 4879,
            "##갷": 4880,
            "##맑": 4881,
            "##룠": 4882,
            "##룔": 4883,
            "##쿸": 4884,
            "##낲": 4885,
            "##갥": 4886,
            "##띵": 4887,
            "##궂": 4888,
            "##떈": 4889,
            "##섲": 4890,
            "##핡": 4891,
            "##냎": 4892,
            "##뮫": 4893,
            "##뉻": 4894,
            "##쉥": 4895,
            "##귺": 4896,
            "##댂": 4897,
            "##붛": 4898,
            "##빽": 4899,
            "##굉": 4900,
            "##빚": 4901,
            "##욘": 4902,
            "##긑": 4903,
            "##롥": 4904,
            "##옵": 4905,
            "##핵": 4906,
            "##쒯": 4907,
            "##흰": 4908,
            "##뛔": 4909,
            "##푹": 4910,
            "##쎈": 4911,
            "##뽜": 4912,
            "##웱": 4913,
            "##릠": 4914,
            "##츼": 4915,
            "##캄": 4916,
            "##밨": 4917,
            "##뚯": 4918,
            "##쪔": 4919,
            "##쯰": 4920,
            "##랂": 4921,
            "##닠": 4922,
            "##쟉": 4923,
            "##줅": 4924,
            "##닪": 4925,
            "##숱": 4926,
            "##푱": 4927,
            "##쿰": 4928,
            "##흠": 4929,
            "##믛": 4930,
            "##붑": 4931,
            "##맂": 4932,
            "##젶": 4933,
            "##욮": 4934,
            "##뇼": 4935,
            "##뺌": 4936,
            "##톼": 4937,
            "##셩": 4938,
            "##눴": 4939,
            "##옭": 4940,
            "##즨": 4941,
            "##맫": 4942,
            "##곽": 4943,
            "##븍": 4944,
            "##팧": 4945,
            "##꼭": 4946,
            "##넓": 4947,
            "##묹": 4948,
            "##쫙": 4949,
            "##찼": 4950,
            "##잿": 4951,
            "##깻": 4952,
            "##늰": 4953,
            "##뺑": 4954,
            "##퀀": 4955,
            "##긌": 4956,
            "##엮": 4957,
            "##툿": 4958,
            "##핬": 4959,
            "##쬬": 4960,
            "##뭎": 4961,
            "##뿍": 4962,
            "##툴": 4963,
            "##밞": 4964,
            "##냪": 4965,
            "##옝": 4966,
            "##엶": 4967,
            "##꿧": 4968,
            "##꼴": 4969,
            "##뒹": 4970,
            "##떔": 4971,
            "##렑": 4972,
            "##뉠": 4973,
            "##엤": 4974,
            "##싁": 4975,
            "##맡": 4976,
            "##켕": 4977,
            "##겯": 4978,
            "##쟜": 4979,
            "##횟": 4980,
            "##섴": 4981,
            "##틐": 4982,
            "##뿡": 4983,
            "##즙": 4984,
            "##뺀": 4985,
            "##깰": 4986,
            "##쉑": 4987,
            "##솣": 4988,
            "##탗": 4989,
            "##뉑": 4990,
            "##섵": 4991,
            "##즛": 4992,
            "##늙": 4993,
            "##뺴": 4994,
            "##렿": 4995,
            "##첞": 4996,
            "##챦": 4997,
            "##묨": 4998,
            "##뜀": 4999,
            "##힇": 5000,
            "##핥": 5001,
            "##뎡": 5002,
            "##룝": 5003,
            "##밬": 5004,
            "##탯": 5005,
            "##헹": 5006,
            "##꺄": 5007,
            "##뉩": 5008,
            "##첝": 5009,
            "##탉": 5010,
            "##샆": 5011,
            "##뮨": 5012,
            "##첫": 5013,
            "##헬": 5014,
            "##췌": 5015,
            "##욾": 5016,
            "##돨": 5017,
            "##쉼": 5018,
            "##썾": 5019,
            "##줜": 5020,
            "##럳": 5021,
            "##랻": 5022,
            "##욷": 5023,
            "##썅": 5024,
            "##롣": 5025,
            "##잧": 5026,
            "##겉": 5027,
            "##훔": 5028,
            "##픙": 5029,
            "##븡": 5030,
            "##튿": 5031,
            "##깢": 5032,
            "##쉿": 5033,
            "##셤": 5034,
            "##쩄": 5035,
            "##톰": 5036,
            "##뎸": 5037,
            "##풋": 5038,
            "##짗": 5039,
            "##렏": 5040,
            "##펏": 5041,
            "##쥭": 5042,
            "##뭄": 5043,
            "##턍": 5044,
            "##샜": 5045,
            "##젙": 5046,
            "##잫": 5047,
            "##딬": 5048,
            "##켘": 5049,
            "##놘": 5050,
            "##켯": 5051,
            "##땄": 5052,
            "##됛": 5053,
            "##붤": 5054,
            "##릍": 5055,
            "##칍": 5056,
            "##샴": 5057,
            "##낯": 5058,
            "##곗": 5059,
            "##럎": 5060,
            "##굥": 5061,
            "##ㄽ": 5062,
            "##ㄵ": 5063,
            "##졒": 5064,
            "##쳥": 5065,
            "##쨍": 5066,
            "##낞": 5067,
            "##녘": 5068,
            "##욲": 5069,
            "##얶": 5070,
            "##덥": 5071,
            "##킁": 5072,
            "##챡": 5073,
            "##븗": 5074,
            "##댤": 5075,
            "##앶": 5076,
            "##햫": 5077,
            "##웰": 5078,
            "##꼰": 5079,
            "##댇": 5080,
            "##퉛": 5081,
            "##쒈": 5082,
            "##랅": 5083,
            "##쬼": 5084,
            "##빆": 5085,
            "##싐": 5086,
            "##걳": 5087,
            "##똔": 5088,
            "##끽": 5089,
            "##엩": 5090,
            "##벚": 5091,
            "##쥑": 5092,
            "##곘": 5093,
            "##콬": 5094,
            "##뗜": 5095,
            "##핸": 5096,
            "##앺": 5097,
            "##떘": 5098,
            "##뎠": 5099,
            "##졀": 5100,
            "##뤈": 5101,
            "##둉": 5102,
            "##픃": 5103,
            "##룾": 5104,
            "##읾": 5105,
            "##댯": 5106,
            "##앎": 5107,
            "##팤": 5108,
            "##꿉": 5109,
            "##텝": 5110,
            "##잭": 5111,
            "##냡": 5112,
            "##슿": 5113,
            "##뿽": 5114,
            "##얂": 5115,
            "##굶": 5116,
            "##꿍": 5117,
            "##컼": 5118,
            "##봬": 5119,
            "##쩐": 5120,
            "##홧": 5121,
            "##꺾": 5122,
            "##깁": 5123,
            "##쎼": 5124,
            "##쳒": 5125,
            "##겓": 5126,
            "##싪": 5127,
            "##읓": 5128,
            "##콸": 5129,
            "##륹": 5130,
            "##챤": 5131,
            "##쨔": 5132,
            "##샃": 5133,
            "##꽊": 5134,
            "##굮": 5135,
            "##꾺": 5136,
            "##빳": 5137,
            "##덷": 5138,
            "##뤵": 5139,
            "##땔": 5140,
            "##넡": 5141,
            "##왑": 5142,
            "##숩": 5143,
            "##륏": 5144,
            "##겊": 5145,
            "##낚": 5146,
            "##쏙": 5147,
            "##놤": 5148,
            "##깋": 5149,
            "##핻": 5150,
            "##럅": 5151,
            "##먕": 5152,
            "##븋": 5153,
            "##햏": 5154,
            "##닏": 5155,
            "##솩": 5156,
            "##겾": 5157,
            "##끅": 5158,
            "##슼": 5159,
            "##낮": 5160,
            "##띨": 5161,
            "##쟤": 5162,
            "##컄": 5163,
            "##찟": 5164,
            "##슁": 5165,
            "##헑": 5166,
            "##쑐": 5167,
            "##굘": 5168,
            "##롲": 5169,
            "##졷": 5170,
            "##궸": 5171,
            "##쫓": 5172,
            "##삥": 5173,
            "##앿": 5174,
            "##앴": 5175,
            "##걵": 5176,
            "##갿": 5177,
            "##댑": 5178,
            "##씄": 5179,
            "##깇": 5180,
            "##곸": 5181,
            "##킅": 5182,
            "##뚤": 5183,
            "##틔": 5184,
            "##갉": 5185,
            "##흗": 5186,
            "##멎": 5187,
            "##짹": 5188,
            "##묽": 5189,
            "##츷": 5190,
            "##뗴": 5191,
            "##죤": 5192,
            "##챷": 5193,
            "##넞": 5194,
            "##핼": 5195,
            "##눋": 5196,
            "##뤃": 5197,
            "##퍌": 5198,
            "##렦": 5199,
            "##닡": 5200,
            "##냫": 5201,
            "##끵": 5202,
            "##핌": 5203,
            "##눟": 5204,
            "##뱔": 5205,
            "##츨": 5206,
            "##띾": 5207,
            "##퐉": 5208,
            "##챃": 5209,
            "##맠": 5210,
            "##캅": 5211,
            "##뗄": 5212,
            "##롯": 5213,
            "##웧": 5214,
            "##닸": 5215,
            "##낑": 5216,
            "##귱": 5217,
            "##픗": 5218,
            "##웜": 5219,
            "##짙": 5220,
            "##뷉": 5221,
            "##쯩": 5222,
            "##퓯": 5223,
            "##짧": 5224,
            "##잴": 5225,
            "##뮹": 5226,
            "##읕": 5227,
            "##괵": 5228,
            "##읐": 5229,
            "##돵": 5230,
            "##왐": 5231,
            "##숯": 5232,
            "##촵": 5233,
            "##귿": 5234,
            "##붐": 5235,
            "##똫": 5236,
            "##걨": 5237,
            "##섑": 5238,
            "##댸": 5239,
            "##붸": 5240,
            "##켁": 5241,
            "##큽": 5242,
            "##흙": 5243,
            "##뤫": 5244,
            "##캤": 5245,
            "##뱆": 5246,
            "##쉣": 5247,
            "##잗": 5248,
            "##띃": 5249,
            "##꿑": 5250,
            "##럐": 5251,
            "##퐈": 5252,
            "##챵": 5253,
            "##냣": 5254,
            "##넵": 5255,
            "##씾": 5256,
            "##욹": 5257,
            "##졓": 5258,
            "##굄": 5259,
            "##뷱": 5260,
            "##헗": 5261,
            "##꼇": 5262,
            "##믁": 5263,
            "##깧": 5264,
            "##븱": 5265,
            "##힏": 5266,
            "##셌": 5267,
            "##랕": 5268,
            "##탍": 5269,
            "##햋": 5270,
            "##풓": 5271,
            "##늨": 5272,
            "##옌": 5273,
            "##뙈": 5274,
            "##톷": 5275,
            "##욌": 5276,
            "##믓": 5277,
            "##쥴": 5278,
            "##뿨": 5279,
            "##둦": 5280,
            "##댝": 5281,
            "##눕": 5282,
            "##믐": 5283,
            "##튠": 5284,
            "##뚸": 5285,
            "##뤱": 5286,
            "##찓": 5287,
            "##켬": 5288,
            "##촐": 5289,
            "##뚭": 5290,
            "##랱": 5291,
            "##젇": 5292,
            "##읒": 5293,
            "##뚬": 5294,
            "##랉": 5295,
            "##섣": 5296,
            "##앀": 5297,
            "##쉰": 5298,
            "##굨": 5299,
            "##겇": 5300,
            "##뻡": 5301,
            "##렾": 5302,
            "##횽": 5303,
            "##똒": 5304,
            "##쓲": 5305,
            "##웄": 5306,
            "##믕": 5307,
            "##뭍": 5308,
            "##혓": 5309,
            "##츕": 5310,
            "##넏": 5311,
            "##륜": 5312,
            "##벫": 5313,
            "##뜽": 5314,
            "##뢴": 5315,
            "##늼": 5316,
            "##쨈": 5317,
            "##닾": 5318,
            "##찿": 5319,
            "##댬": 5320,
            "##낗": 5321,
            "##앓": 5322,
            "##랼": 5323,
            "##헙": 5324,
            "##튤": 5325,
            "##럇": 5326,
            "##뭋": 5327,
            "##렜": 5328,
            "##놐": 5329,
            "##쯈": 5330,
            "##붋": 5331,
            "##뗘": 5332,
            "##쩊": 5333,
            "##퍠": 5334,
            "##냦": 5335,
            "##놏": 5336,
            "##쟞": 5337,
            "##떰": 5338,
            "##쟐": 5339,
            "##괼": 5340,
            "##섹": 5341,
            "##윅": 5342,
            "##볽": 5343,
            "##퐃": 5344,
            "##퉵": 5345,
            "##첯": 5346,
            "##첬": 5347,
            "##퉈": 5348,
            "##긏": 5349,
            "##벟": 5350,
            "##믇": 5351,
            "##낡": 5352,
            "##멇": 5353,
            "##돰": 5354,
            "##댲": 5355,
            "##얕": 5356,
            "##롄": 5357,
            "##싚": 5358,
            "##딲": 5359,
            "##쳘": 5360,
            "##츤": 5361,
            "##퍚": 5362,
            "##꺌": 5363,
            "##혆": 5364,
            "##젣": 5365,
            "##휏": 5366,
            "##맜": 5367,
            "##솝": 5368,
            "##륟": 5369,
            "##섀": 5370,
            "##췃": 5371,
            "##삑": 5372,
            "##뽄": 5373,
            "##썌": 5374,
            "##뒁": 5375,
            "##튕": 5376,
            "##뻨": 5377,
            "##잚": 5378,
            "##렼": 5379,
            "##닢": 5380,
            "##촨": 5381,
            "##훗": 5382,
            "##쨌": 5383,
            "##룫": 5384,
            "##콕": 5385,
            "##륑": 5386,
            "##됔": 5387,
            "##댣": 5388,
            "##찱": 5389,
            "##쳡": 5390,
            "##갅": 5391,
            "##엗": 5392,
            "##컫": 5393,
            "##짉": 5394,
            "##픠": 5395,
            "##뤕": 5396,
            "##줖": 5397,
            "##쌋": 5398,
            "##툤": 5399,
            "##눤": 5400,
            "##덢": 5401,
            "##샢": 5402,
            "##멓": 5403,
            "##햔": 5404,
            "##곶": 5405,
            "##곷": 5406,
            "##핖": 5407,
            "##얇": 5408,
            "##썯": 5409,
            "##죴": 5410,
            "##꼥": 5411,
            "##뫃": 5412,
            "##챈": 5413,
            "##곻": 5414,
            "##쎵": 5415,
            "##틓": 5416,
            "##줲": 5417,
            "##톹": 5418,
            "##쥠": 5419,
            "##넟": 5420,
            "##쑈": 5421,
            "##푤": 5422,
            "##쥽": 5423,
            "##웕": 5424,
            "##좉": 5425,
            "##벋": 5426,
            "##읈": 5427,
            "##맟": 5428,
            "##갼": 5429,
            "##숔": 5430,
            "##럵": 5431,
            "##곕": 5432,
            "##놑": 5433,
            "##렓": 5434,
            "##짯": 5435,
            "##웥": 5436,
            "##뛴": 5437,
            "##됃": 5438,
            "##렣": 5439,
            "##꺳": 5440,
            "##쁩": 5441,
            "##댛": 5442,
            "##돕": 5443,
            "##욪": 5444,
            "##왼": 5445,
            "##줴": 5446,
            "##펃": 5447,
            "##숳": 5448,
            "##꺈": 5449,
            "##휑": 5450,
            "##긝": 5451,
            "##옃": 5452,
            "##쨖": 5453,
            "##짏": 5454,
            "##칛": 5455,
            "##붖": 5456,
            "##텃": 5457,
            "##렫": 5458,
            "##줼": 5459,
            "##뀡": 5460,
            "##캗": 5461,
            "##뭏": 5462,
            "##됀": 5463,
            "##궝": 5464,
            "##줚": 5465,
            "##꺔": 5466,
            "##휄": 5467,
            "##몫": 5468,
            "##웒": 5469,
            "##퐤": 5470,
            "##깈": 5471,
            "##읫": 5472,
            "##옙": 5473,
            "##걹": 5474,
            "##밙": 5475,
            "##쉘": 5476,
            "##팦": 5477,
            "##툐": 5478,
            "##슧": 5479,
            "##앹": 5480,
            "##쯉": 5481,
            "##뚠": 5482,
            "##칮": 5483,
            "##싈": 5484,
            "##씪": 5485,
            "##짌": 5486,
            "##뷸": 5487,
            "##렄": 5488,
            "##쐬": 5489,
            "##넼": 5490,
            "##쎌": 5491,
            "##캌": 5492,
            "##딮": 5493,
            "##줙": 5494,
            "##춱": 5495,
            "##ㅋㅋ": 5496,
            "##니다": 5497,
            "##세요": 5498,
            "##는데": 5499,
            "##어요": 5500,
            "##나요": 5501,
            "##에요": 5502,
            "##ㅋㅋㅋ": 5503,
            "##가요": 5504,
            "##으로": 5505,
            "##습니다": 5506,
            "아니": 5507,
            "##00": 5508,
            "얼마": 5509,
            "있어요": 5510,
            "가능": 5511,
            "##이에요": 5512,
            "##하고": 5513,
            "ㅋㅋㅋ": 5514,
            "##는거": 5515,
            "##예요": 5516,
            "진짜": 5517,
            "##입니다": 5518,
            "##에서": 5519,
            "NA": 5520,
            "##ME": 5521,
            "NAME": 5522,
            "있나요": 5523,
            "여기": 5524,
            "지금": 5525,
            "##시면": 5526,
            "어떻": 5527,
            "주세요": 5528,
            "너무": 5529,
            "##게요": 5530,
            "##까지": 5531,
            "어떻게": 5532,
            "이거": 5533,
            "##까요": 5534,
            "그럼": 5535,
            "오늘": 5536,
            "##니까": 5537,
            "그냥": 5538,
            "내가": 5539,
            "들어": 5540,
            "##아요": 5541,
            "##주세요": 5542,
            "하나": 5543,
            "##으면": 5544,
            "##렇게": 5545,
            "##인데": 5546,
            "나도": 5547,
            "그래": 5548,
            "그런": 5549,
            "근데": 5550,
            "##야지": 5551,
            "많이": 5552,
            "돼요": 5553,
            "##하면": 5554,
            "그러": 5555,
            "이제": 5556,
            "##합니다": 5557,
            "##이라": 5558,
            "##인가요": 5559,
            "##어서": 5560,
            "시간": 5561,
            "어떤": 5562,
            "하고": 5563,
            "정도": 5564,
            "##릴게요": 5565,
            "##부터": 5566,
            "##하는": 5567,
            "##해서": 5568,
            "있습니다": 5569,
            "##시간": 5570,
            "##이즈": 5571,
            "그거": 5572,
            "어디": 5573,
            "##다고": 5574,
            "가격": 5575,
            "##이야": 5576,
            "##해요": 5577,
            "##은데": 5578,
            "되나요": 5579,
            "##이랑": 5580,
            "##고싶": 5581,
            "제품": 5582,
            "할인": 5583,
            "##겠습니다": 5584,
            "결제": 5585,
            "우리": 5586,
            "이런": 5587,
            "##000": 5588,
            "예약": 5589,
            "##려고": 5590,
            "하면": 5591,
            "다른": 5592,
            "카드": 5593,
            "해요": 5594,
            "##ㅎㅎ": 5595,
            "##거야": 5596,
            "괜찮": 5597,
            "10": 5598,
            "##다가": 5599,
            "있는": 5600,
            "주문": 5601,
            "##릴까요": 5602,
            "##라고": 5603,
            "##000원": 5604,
            "아이": 5605,
            "운동": 5606,
            "생각": 5607,
            "##한가요": 5608,
            "사이즈": 5609,
            "없어요": 5610,
            "##하지": 5611,
            "이것": 5612,
            "##네요": 5613,
            "내일": 5614,
            "언제": 5615,
            "##이요": 5616,
            "##겠다": 5617,
            "학교": 5618,
            "##요일": 5619,
            "##리고": 5620,
            "##아아": 5621,
            "##들어": 5622,
            "혹시": 5623,
            "##하게": 5624,
            "가능한가요": 5625,
            "거예요": 5626,
            "##시는": 5627,
            "아무": 5628,
            "따로": 5629,
            "조금": 5630,
            "##이크": 5631,
            "##거같": 5632,
            "##구나": 5633,
            "이게": 5634,
            "같이": 5635,
            "사람": 5636,
            "원이에요": 5637,
            "모르": 5638,
            "배달": 5639,
            "##에는": 5640,
            "##하세요": 5641,
            "##한테": 5642,
            "저희": 5643,
            "해야": 5644,
            "##지고": 5645,
            "됩니다": 5646,
            "추가": 5647,
            "##ㄱㅋ": 5648,
            "##아서": 5649,
            "##려요": 5650,
            "##이나": 5651,
            "##드릴게요": 5652,
            "포장": 5653,
            "하는": 5654,
            "그래서": 5655,
            "아직": 5656,
            "수업": 5657,
            "##시고": 5658,
            "머리": 5659,
            "가능합니다": 5660,
            "얼마에요": 5661,
            "미친": 5662,
            "##ㅠㅠ": 5663,
            "나가": 5664,
            "##이지": 5665,
            "그러면": 5666,
            "맛있": 5667,
            "현금": 5668,
            "##해야": 5669,
            "이렇게": 5670,
            "##지는": 5671,
            "##00원": 5672,
            "##것도": 5673,
            "그건": 5674,
            "좋아": 5675,
            "##만원": 5676,
            "그렇게": 5677,
            "바로": 5678,
            "얼마나": 5679,
            "##지만": 5680,
            "얼마예요": 5681,
            "같은": 5682,
            "##정도": 5683,
            "들어가": 5684,
            "##이고": 5685,
            "##으세요": 5686,
            "필요": 5687,
            "나오": 5688,
            "존나": 5689,
            "이거는": 5690,
            "친구": 5691,
            "이용": 5692,
            "##겠어요": 5693,
            "##리는": 5694,
            "한번": 5695,
            "하는데": 5696,
            "이것은": 5697,
            "제일": 5698,
            "요즘": 5699,
            "전화": 5700,
            "##거든": 5701,
            "##시나요": 5702,
            "뭐야": 5703,
            "다시": 5704,
            "가방": 5705,
            "기다": 5706,
            "##하시면": 5707,
            "드릴까요": 5708,
            "드릴게요": 5709,
            "##는거야": 5710,
            "애들": 5711,
            "##인가": 5712,
            "##시에": 5713,
            "그럴": 5714,
            "종류": 5715,
            "##수증": 5716,
            "그게": 5717,
            "##하는데": 5718,
            "##고있": 5719,
            "가져": 5720,
            "##리겠습니다": 5721,
            "##자기": 5722,
            "뭐가": 5723,
            "##보다": 5724,
            "무슨": 5725,
            "##해주세요": 5726,
            "##는게": 5727,
            "ㄹㅇ": 5728,
            "안되": 5729,
            "ㅋㅋㅋㅋㅋ": 5730,
            "아침": 5731,
            "##시겠어요": 5732,
            "있을": 5733,
            "얼른": 5734,
            "##셔야": 5735,
            "##잖아": 5736,
            "##기는": 5737,
            "사용": 5738,
            "갑자기": 5739,
            "이미": 5740,
            "##0분": 5741,
            "다음": 5742,
            "원래": 5743,
            "아니요": 5744,
            "##리카": 5745,
            "있는데": 5746,
            "얼마인가요": 5747,
            "저거": 5748,
            "나는": 5749,
            "이상": 5750,
            "##메리카": 5751,
            "왜이": 5752,
            "어제": 5753,
            "##메리카노": 5754,
            "그런거": 5755,
            "그렇": 5756,
            "##신가요": 5757,
            "아메리카노": 5758,
            "##어야": 5759,
            "##었는데": 5760,
            "너가": 5761,
            "##이는": 5762,
            "안돼": 5763,
            "원입니다": 5764,
            "##었어": 5765,
            "하루": 5766,
            "준비": 5767,
            "하나요": 5768,
            "##크림": 5769,
            "가격이": 5770,
            "공부": 5771,
            "빨리": 5772,
            "좋은": 5773,
            "##어어": 5774,
            "##기가": 5775,
            "나와": 5776,
            "12": 5777,
            "자리": 5778,
            "##더라": 5779,
            "거는": 5780,
            "##아ㅏ": 5781,
            "저녁": 5782,
            "그리고": 5783,
            "##대로": 5784,
            "너도": 5785,
            "##해주": 5786,
            "##ㅅㅋ": 5787,
            "이번": 5788,
            "커피": 5789,
            "말고": 5790,
            "제가": 5791,
            "따뜻": 5792,
            "##이면": 5793,
            "##수있": 5794,
            "세트": 5795,
            "있고": 5796,
            "사실": 5797,
            "##는중": 5798,
            "##시까지": 5799,
            "음료": 5800,
            "##한다": 5801,
            "사진": 5802,
            "##천원": 5803,
            "메뉴": 5804,
            "시까지": 5805,
            "아이스": 5806,
            "몰라": 5807,
            "##이다": 5808,
            "계산": 5809,
            "수선": 5810,
            "##들이": 5811,
            "주차": 5812,
            "##는건": 5813,
            "##했는데": 5814,
            "미쳤": 5815,
            "##심히": 5816,
            "영수증": 5817,
            "세일": 5818,
            "##고싶다": 5819,
            "##하다": 5820,
            "ㅋㅋ": 5821,
            "해주세요": 5822,
            "##장님": 5823,
            "하지": 5824,
            "##학교": 5825,
            "##한거": 5826,
            "##을까": 5827,
            "##밖에": 5828,
            "케이크": 5829,
            "일단": 5830,
            "오늘은": 5831,
            "신발": 5832,
            "화장": 5833,
            "보내": 5834,
            "계속": 5835,
            "##라이": 5836,
            "##고기": 5837,
            "##했어": 5838,
            "보여": 5839,
            "염색": 5840,
            "영업": 5841,
            "보고": 5842,
            "##드릴까요": 5843,
            "만들": 5844,
            "적립": 5845,
            "힘들": 5846,
            "ㅅㅂ": 5847,
            "문제": 5848,
            "정신": 5849,
            "해주": 5850,
            "##드리겠습니다": 5851,
            "알겠습니다": 5852,
            "어느": 5853,
            "나가요": 5854,
            "재밌": 5855,
            "##겠지": 5856,
            "혼자": 5857,
            "##들은": 5858,
            "##면서": 5859,
            "먹을": 5860,
            "##구만": 5861,
            "가격은": 5862,
            "그래도": 5863,
            "해서": 5864,
            "##어보": 5865,
            "하기": 5866,
            "아니야": 5867,
            "ㅎㅎ": 5868,
            "##되어": 5869,
            "선물": 5870,
            "추천": 5871,
            "가능해요": 5872,
            "##이가": 5873,
            "열심히": 5874,
            "있어": 5875,
            "##쪽에": 5876,
            "##그래": 5877,
            "넣어": 5878,
            "##해도": 5879,
            "##같은": 5880,
            "기분": 5881,
            "하자": 5882,
            "##것으로": 5883,
            "먹고": 5884,
            "게임": 5885,
            "아니면": 5886,
            "없나요": 5887,
            "##한데": 5888,
            "거기": 5889,
            "색상": 5890,
            "##소리": 5891,
            "##던데": 5892,
            "지금은": 5893,
            "건가요": 5894,
            "가능하세요": 5895,
            "도와": 5896,
            "따라": 5897,
            "아닌": 5898,
            "제품은": 5899,
            "체크": 5900,
            "##시지": 5901,
            "##려면": 5902,
            "처음": 5903,
            "것으로": 5904,
            "고기": 5905,
            "시발": 5906,
            "먹어": 5907,
            "프로": 5908,
            "귀찮": 5909,
            "없어": 5910,
            "##길래": 5911,
            "##어나": 5912,
            "##문에": 5913,
            "20": 5914,
            "엄청": 5915,
            "응원": 5916,
            "에바": 5917,
            "피곤": 5918,
            "11": 5919,
            "##실은": 5920,
            "##라는": 5921,
            "여기서": 5922,
            "##지게": 5923,
            "말씀": 5924,
            "치즈": 5925,
            "##000원입니다": 5926,
            "##해보": 5927,
            "일요일": 5928,
            "전에": 5929,
            "기다려": 5930,
            "알려": 5931,
            "치킨": 5932,
            "##하신": 5933,
            "##스트": 5934,
            "진정": 5935,
            "##리가": 5936,
            "대충": 5937,
            "##는데요": 5938,
            "15": 5939,
            "올라": 5940,
            "##겠어": 5941,
            "##ㄱㅋㄱ": 5942,
            "삭제": 5943,
            "##중에": 5944,
            "부탁": 5945,
            "##이터": 5946,
            "##하네": 5947,
            "##수도": 5948,
            "##립니다": 5949,
            "가지": 5950,
            "##되나요": 5951,
            "##드려요": 5952,
            "만들어": 5953,
            "방금": 5954,
            "소설": 5955,
            "직접": 5956,
            "##이네": 5957,
            "카카": 5958,
            "##사람": 5959,
            "일찍": 5960,
            "시작": 5961,
            "엄마": 5962,
            "연락": 5963,
            "##학생": 5964,
            "##할게요": 5965,
            "##셔도": 5966,
            "##적으로": 5967,
            "합니다": 5968,
            "작은": 5969,
            "##가지": 5970,
            "밥먹": 5971,
            "##가는": 5972,
            "##학년": 5973,
            "카드로": 5974,
            "##거든요": 5975,
            "기본": 5976,
            "남자": 5977,
            "##됩니다": 5978,
            "보통": 5979,
            "잠시": 5980,
            "있을까요": 5981,
            "확인": 5982,
            "##마다": 5983,
            "오천": 5984,
            "먼저": 5985,
            "옷은": 5986,
            "하시면": 5987,
            "##인지": 5988,
            "##으니까": 5989,
            "메시지": 5990,
            "오래": 5991,
            "카페": 5992,
            "왜이렇게": 5993,
            "따뜻한": 5994,
            "별로": 5995,
            "했는데": 5996,
            "##하는거": 5997,
            "##거같아": 5998,
            "이름": 5999
        }
    }
}