{"version":"1.0","truncation":null,"padding":null,"added_tokens":[{"id":0,"special":true,"content":"[PAD]","single_word":false,"lstrip":false,"rstrip":false,"normalized":false},{"id":1,"special":true,"content":"[UNK]","single_word":false,"lstrip":false,"rstrip":false,"normalized":false},{"id":2,"special":true,"content":"[CLS]","single_word":false,"lstrip":false,"rstrip":false,"normalized":false},{"id":3,"special":true,"content":"[SEP]","single_word":false,"lstrip":false,"rstrip":false,"normalized":false},{"id":4,"special":true,"content":"[MASK]","single_word":false,"lstrip":false,"rstrip":false,"normalized":false},{"id":5,"special":true,"content":"[SEPT]","single_word":false,"lstrip":false,"rstrip":false,"normalized":false},{"id":6,"special":true,"content":"[NAME]","single_word":false,"lstrip":false,"rstrip":false,"normalized":false},{"id":7,"special":true,"content":"[BOS]","single_word":false,"lstrip":false,"rstrip":false,"normalized":false},{"id":8,"special":true,"content":"[EOS]","single_word":false,"lstrip":false,"rstrip":false,"normalized":false},{"id":9,"special":true,"content":"[UNK0]","single_word":false,"lstrip":false,"rstrip":false,"normalized":false},{"id":10,"special":true,"content":"[UNK1]","single_word":false,"lstrip":false,"rstrip":false,"normalized":false},{"id":11,"special":true,"content":"[UNK2]","single_word":false,"lstrip":false,"rstrip":false,"normalized":false},{"id":12,"special":true,"content":"[UNK3]","single_word":false,"lstrip":false,"rstrip":false,"normalized":false},{"id":13,"special":true,"content":"[UNK4]","single_word":false,"lstrip":false,"rstrip":false,"normalized":false},{"id":14,"special":true,"content":"[UNK5]","single_word":false,"lstrip":false,"rstrip":false,"normalized":false},{"id":15,"special":true,"content":"[UNK6]","single_word":false,"lstrip":false,"rstrip":false,"normalized":false},{"id":16,"special":true,"content":"[UNK7]","single_word":false,"lstrip":false,"rstrip":false,"normalized":false},{"id":17,"special":true,"content":"[UNK8]","single_word":false,"lstrip":false,"rstrip":false,"normalized":false},{"id":18,"special":true,"content":"[UNK9]","single_word":false,"lstrip":false,"rstrip":false,"normalized":false},{"id":19,"special":true,"content":"[unused0]","single_word":false,"lstrip":false,"rstrip":false,"normalized":false},{"id":20,"special":true,"content":"[unused1]","single_word":false,"lstrip":false,"rstrip":false,"normalized":false},{"id":21,"special":true,"content":"[unused2]","single_word":false,"lstrip":false,"rstrip":false,"normalized":false},{"id":22,"special":true,"content":"[unused3]","single_word":false,"lstrip":false,"rstrip":false,"normalized":false},{"id":23,"special":true,"content":"[unused4]","single_word":false,"lstrip":false,"rstrip":false,"normalized":false},{"id":24,"special":true,"content":"[unused5]","single_word":false,"lstrip":false,"rstrip":false,"normalized":false},{"id":25,"special":true,"content":"[unused6]","single_word":false,"lstrip":false,"rstrip":false,"normalized":false},{"id":26,"special":true,"content":"[unused7]","single_word":false,"lstrip":false,"rstrip":false,"normalized":false},{"id":27,"special":true,"content":"[unused8]","single_word":false,"lstrip":false,"rstrip":false,"normalized":false},{"id":28,"special":true,"content":"[unused9]","single_word":false,"lstrip":false,"rstrip":false,"normalized":false},{"id":29,"special":true,"content":"[unused10]","single_word":false,"lstrip":false,"rstrip":false,"normalized":false},{"id":30,"special":true,"content":"[unused11]","single_word":false,"lstrip":false,"rstrip":false,"normalized":false},{"id":31,"special":true,"content":"[unused12]","single_word":false,"lstrip":false,"rstrip":false,"normalized":false},{"id":32,"special":true,"content":"[unused13]","single_word":false,"lstrip":false,"rstrip":false,"normalized":false},{"id":33,"special":true,"content":"[unused14]","single_word":false,"lstrip":false,"rstrip":false,"normalized":false},{"id":34,"special":true,"content":"[unused15]","single_word":false,"lstrip":false,"rstrip":false,"normalized":false},{"id":35,"special":true,"content":"[unused16]","single_word":false,"lstrip":false,"rstrip":false,"normalized":false},{"id":36,"special":true,"content":"[unused17]","single_word":false,"lstrip":false,"rstrip":false,"normalized":false},{"id":37,"special":true,"content":"[unused18]","single_word":false,"lstrip":false,"rstrip":false,"normalized":false},{"id":38,"special":true,"content":"[unused19]","single_word":false,"lstrip":false,"rstrip":false,"normalized":false},{"id":39,"special":true,"content":"[unused20]","single_word":false,"lstrip":false,"rstrip":false,"normalized":false},{"id":40,"special":true,"content":"[unused21]","single_word":false,"lstrip":false,"rstrip":false,"normalized":false},{"id":41,"special":true,"content":"[unused22]","single_word":false,"lstrip":false,"rstrip":false,"normalized":false},{"id":42,"special":true,"content":"[unused23]","single_word":false,"lstrip":false,"rstrip":false,"normalized":false},{"id":43,"special":true,"content":"[unused24]","single_word":false,"lstrip":false,"rstrip":false,"normalized":false},{"id":44,"special":true,"content":"[unused25]","single_word":false,"lstrip":false,"rstrip":false,"normalized":false},{"id":45,"special":true,"content":"[unused26]","single_word":false,"lstrip":false,"rstrip":false,"normalized":false},{"id":46,"special":true,"content":"[unused27]","single_word":false,"lstrip":false,"rstrip":false,"normalized":false},{"id":47,"special":true,"content":"[unused28]","single_word":false,"lstrip":false,"rstrip":false,"normalized":false},{"id":48,"special":true,"content":"[unused29]","single_word":false,"lstrip":false,"rstrip":false,"normalized":false},{"id":49,"special":true,"content":"[unused30]","single_word":false,"lstrip":false,"rstrip":false,"normalized":false},{"id":50,"special":true,"content":"[unused31]","single_word":false,"lstrip":false,"rstrip":false,"normalized":false},{"id":51,"special":true,"content":"[unused32]","single_word":false,"lstrip":false,"rstrip":false,"normalized":false},{"id":52,"special":true,"content":"[unused33]","single_word":false,"lstrip":false,"rstrip":false,"normalized":false},{"id":53,"special":true,"content":"[unused34]","single_word":false,"lstrip":false,"rstrip":false,"normalized":false},{"id":54,"special":true,"content":"[unused35]","single_word":false,"lstrip":false,"rstrip":false,"normalized":false},{"id":55,"special":true,"content":"[unused36]","single_word":false,"lstrip":false,"rstrip":false,"normalized":false},{"id":56,"special":true,"content":"[unused37]","single_word":false,"lstrip":false,"rstrip":false,"normalized":false},{"id":57,"special":true,"content":"[unused38]","single_word":false,"lstrip":false,"rstrip":false,"normalized":false},{"id":58,"special":true,"content":"[unused39]","single_word":false,"lstrip":false,"rstrip":false,"normalized":false},{"id":59,"special":true,"content":"[unused40]","single_word":false,"lstrip":false,"rstrip":false,"normalized":false},{"id":60,"special":true,"content":"[unused41]","single_word":false,"lstrip":false,"rstrip":false,"normalized":false},{"id":61,"special":true,"content":"[unused42]","single_word":false,"lstrip":false,"rstrip":false,"normalized":false},{"id":62,"special":true,"content":"[unused43]","single_word":false,"lstrip":false,"rstrip":false,"normalized":false},{"id":63,"special":true,"content":"[unused44]","single_word":false,"lstrip":false,"rstrip":false,"normalized":false},{"id":64,"special":true,"content":"[unused45]","single_word":false,"lstrip":false,"rstrip":false,"normalized":false},{"id":65,"special":true,"content":"[unused46]","single_word":false,"lstrip":false,"rstrip":false,"normalized":false},{"id":66,"special":true,"content":"[unused47]","single_word":false,"lstrip":false,"rstrip":false,"normalized":false},{"id":67,"special":true,"content":"[unused48]","single_word":false,"lstrip":false,"rstrip":false,"normalized":false},{"id":68,"special":true,"content":"[unused49]","single_word":false,"lstrip":false,"rstrip":false,"normalized":false},{"id":69,"special":true,"content":"[unused50]","single_word":false,"lstrip":false,"rstrip":false,"normalized":false},{"id":70,"special":true,"content":"[unused51]","single_word":false,"lstrip":false,"rstrip":false,"normalized":false},{"id":71,"special":true,"content":"[unused52]","single_word":false,"lstrip":false,"rstrip":false,"normalized":false},{"id":72,"special":true,"content":"[unused53]","single_word":false,"lstrip":false,"rstrip":false,"normalized":false},{"id":73,"special":true,"content":"[unused54]","single_word":false,"lstrip":false,"rstrip":false,"normalized":false},{"id":74,"special":true,"content":"[unused55]","single_word":false,"lstrip":false,"rstrip":false,"normalized":false},{"id":75,"special":true,"content":"[unused56]","single_word":false,"lstrip":false,"rstrip":false,"normalized":false},{"id":76,"special":true,"content":"[unused57]","single_word":false,"lstrip":false,"rstrip":false,"normalized":false},{"id":77,"special":true,"content":"[unused58]","single_word":false,"lstrip":false,"rstrip":false,"normalized":false},{"id":78,"special":true,"content":"[unused59]","single_word":false,"lstrip":false,"rstrip":false,"normalized":false},{"id":79,"special":true,"content":"[unused60]","single_word":false,"lstrip":false,"rstrip":false,"normalized":false},{"id":80,"special":true,"content":"[unused61]","single_word":false,"lstrip":false,"rstrip":false,"normalized":false},{"id":81,"special":true,"content":"[unused62]","single_word":false,"lstrip":false,"rstrip":false,"normalized":false},{"id":82,"special":true,"content":"[unused63]","single_word":false,"lstrip":false,"rstrip":false,"normalized":false},{"id":83,"special":true,"content":"[unused64]","single_word":false,"lstrip":false,"rstrip":false,"normalized":false},{"id":84,"special":true,"content":"[unused65]","single_word":false,"lstrip":false,"rstrip":false,"normalized":false},{"id":85,"special":true,"content":"[unused66]","single_word":false,"lstrip":false,"rstrip":false,"normalized":false},{"id":86,"special":true,"content":"[unused67]","single_word":false,"lstrip":false,"rstrip":false,"normalized":false},{"id":87,"special":true,"content":"[unused68]","single_word":false,"lstrip":false,"rstrip":false,"normalized":false},{"id":88,"special":true,"content":"[unused69]","single_word":false,"lstrip":false,"rstrip":false,"normalized":false},{"id":89,"special":true,"content":"[unused70]","single_word":false,"lstrip":false,"rstrip":false,"normalized":false},{"id":90,"special":true,"content":"[unused71]","single_word":false,"lstrip":false,"rstrip":false,"normalized":false},{"id":91,"special":true,"content":"[unused72]","single_word":false,"lstrip":false,"rstrip":false,"normalized":false},{"id":92,"special":true,"content":"[unused73]","single_word":false,"lstrip":false,"rstrip":false,"normalized":false},{"id":93,"special":true,"content":"[unused74]","single_word":false,"lstrip":false,"rstrip":false,"normalized":false},{"id":94,"special":true,"content":"[unused75]","single_word":false,"lstrip":false,"rstrip":false,"normalized":false},{"id":95,"special":true,"content":"[unused76]","single_word":false,"lstrip":false,"rstrip":false,"normalized":false},{"id":96,"special":true,"content":"[unused77]","single_word":false,"lstrip":false,"rstrip":false,"normalized":false},{"id":97,"special":true,"content":"[unused78]","single_word":false,"lstrip":false,"rstrip":false,"normalized":false},{"id":98,"special":true,"content":"[unused79]","single_word":false,"lstrip":false,"rstrip":false,"normalized":false},{"id":99,"special":true,"content":"[unused80]","single_word":false,"lstrip":false,"rstrip":false,"normalized":false},{"id":100,"special":true,"content":"[unused81]","single_word":false,"lstrip":false,"rstrip":false,"normalized":false},{"id":101,"special":true,"content":"[unused82]","single_word":false,"lstrip":false,"rstrip":false,"normalized":false},{"id":102,"special":true,"content":"[unused83]","single_word":false,"lstrip":false,"rstrip":false,"normalized":false},{"id":103,"special":true,"content":"[unused84]","single_word":false,"lstrip":false,"rstrip":false,"normalized":false},{"id":104,"special":true,"content":"[unused85]","single_word":false,"lstrip":false,"rstrip":false,"normalized":false},{"id":105,"special":true,"content":"[unused86]","single_word":false,"lstrip":false,"rstrip":false,"normalized":false},{"id":106,"special":true,"content":"[unused87]","single_word":false,"lstrip":false,"rstrip":false,"normalized":false},{"id":107,"special":true,"content":"[unused88]","single_word":false,"lstrip":false,"rstrip":false,"normalized":false},{"id":108,"special":true,"content":"[unused89]","single_word":false,"lstrip":false,"rstrip":false,"normalized":false},{"id":109,"special":true,"content":"[unused90]","single_word":false,"lstrip":false,"rstrip":false,"normalized":false},{"id":110,"special":true,"content":"[unused91]","single_word":false,"lstrip":false,"rstrip":false,"normalized":false},{"id":111,"special":true,"content":"[unused92]","single_word":false,"lstrip":false,"rstrip":false,"normalized":false},{"id":112,"special":true,"content":"[unused93]","single_word":false,"lstrip":false,"rstrip":false,"normalized":false},{"id":113,"special":true,"content":"[unused94]","single_word":false,"lstrip":false,"rstrip":false,"normalized":false},{"id":114,"special":true,"content":"[unused95]","single_word":false,"lstrip":false,"rstrip":false,"normalized":false},{"id":115,"special":true,"content":"[unused96]","single_word":false,"lstrip":false,"rstrip":false,"normalized":false},{"id":116,"special":true,"content":"[unused97]","single_word":false,"lstrip":false,"rstrip":false,"normalized":false},{"id":117,"special":true,"content":"[unused98]","single_word":false,"lstrip":false,"rstrip":false,"normalized":false},{"id":118,"special":true,"content":"[unused99]","single_word":false,"lstrip":false,"rstrip":false,"normalized":false}],"normalizer":{"type":"BertNormalizer","clean_text":true,"handle_chinese_chars":true,"strip_accents":false,"lowercase":false},"pre_tokenizer":{"type":"BertPreTokenizer"},"post_processor":null,"decoder":{"type":"WordPiece","prefix":"##","cleanup":true},"model":{"unk_token":"[UNK]","continuing_subword_prefix":"##","max_input_chars_per_word":100,"vocab":{"[PAD]":0,"[UNK]":1,"[CLS]":2,"[SEP]":3,"[MASK]":4,"[SEPT]":5,"[NAME]":6,"[BOS]":7,"[EOS]":8,"[UNK0]":9,"[UNK1]":10,"[UNK2]":11,"[UNK3]":12,"[UNK4]":13,"[UNK5]":14,"[UNK6]":15,"[UNK7]":16,"[UNK8]":17,"[UNK9]":18,"[unused0]":19,"[unused1]":20,"[unused2]":21,"[unused3]":22,"[unused4]":23,"[unused5]":24,"[unused6]":25,"[unused7]":26,"[unused8]":27,"[unused9]":28,"[unused10]":29,"[unused11]":30,"[unused12]":31,"[unused13]":32,"[unused14]":33,"[unused15]":34,"[unused16]":35,"[unused17]":36,"[unused18]":37,"[unused19]":38,"[unused20]":39,"[unused21]":40,"[unused22]":41,"[unused23]":42,"[unused24]":43,"[unused25]":44,"[unused26]":45,"[unused27]":46,"[unused28]":47,"[unused29]":48,"[unused30]":49,"[unused31]":50,"[unused32]":51,"[unused33]":52,"[unused34]":53,"[unused35]":54,"[unused36]":55,"[unused37]":56,"[unused38]":57,"[unused39]":58,"[unused40]":59,"[unused41]":60,"[unused42]":61,"[unused43]":62,"[unused44]":63,"[unused45]":64,"[unused46]":65,"[unused47]":66,"[unused48]":67,"[unused49]":68,"[unused50]":69,"[unused51]":70,"[unused52]":71,"[unused53]":72,"[unused54]":73,"[unused55]":74,"[unused56]":75,"[unused57]":76,"[unused58]":77,"[unused59]":78,"[unused60]":79,"[unused61]":80,"[unused62]":81,"[unused63]":82,"[unused64]":83,"[unused65]":84,"[unused66]":85,"[unused67]":86,"[unused68]":87,"[unused69]":88,"[unused70]":89,"[unused71]":90,"[unused72]":91,"[unused73]":92,"[unused74]":93,"[unused75]":94,"[unused76]":95,"[unused77]":96,"[unused78]":97,"[unused79]":98,"[unused80]":99,"[unused81]":100,"[unused82]":101,"[unused83]":102,"[unused84]":103,"[unused85]":104,"[unused86]":105,"[unused87]":106,"[unused88]":107,"[unused89]":108,"[unused90]":109,"[unused91]":110,"[unused92]":111,"[unused93]":112,"[unused94]":113,"[unused95]":114,"[unused96]":115,"[unused97]":116,"[unused98]":117,"[unused99]":118,"!":119,"%":120,",":121,"-":122,".":123,"0":124,"1":125,"2":126,"3":127,"4":128,"5":129,"6":130,"7":131,"8":132,"9":133,"?":134,"A":135,"E":136,"M":137,"N":138,"[":139,"]":140,"^":141,"_":142,"a":143,"b":144,"c":145,"d":146,"e":147,"f":148,"g":149,"h":150,"i":151,"j":152,"k":153,"l":154,"m":155,"n":156,"o":157,"p":158,"q":159,"r":160,"s":161,"t":162,"u":163,"v":164,"w":165,"x":166,"y":167,"z":168,"~":169,"ㄱ":170,"ㄲ":171,"ㄳ":172,"ㄴ":173,"ㄵ":174,"ㄶ":175,"ㄷ":176,"ㄸ":177,"ㄹ":178,"ㄺ":179,"ㄻ":180,"ㄼ":181,"ㄽ":182,"ㄾ":183,"ㄿ":184,"ㅀ":185,"ㅁ":186,"ㅂ":187,"ㅃ":188,"ㅄ":189,"ㅅ":190,"ㅆ":191,"ㅇ":192,"ㅈ":193,"ㅉ":194,"ㅊ":195,"ㅋ":196,"ㅌ":197,"ㅍ":198,"ㅎ":199,"ㅏ":200,"ㅐ":201,"ㅑ":202,"ㅒ":203,"ㅓ":204,"ㅔ":205,"ㅕ":206,"ㅖ":207,"ㅗ":208,"ㅘ":209,"ㅙ":210,"ㅚ":211,"ㅛ":212,"ㅜ":213,"ㅝ":214,"ㅞ":215,"ㅟ":216,"ㅠ":217,"ㅡ":218,"ㅢ":219,"ㅣ":220,"가":221,"각":222,"갂":223,"간":224,"갅":225,"갇":226,"갈":227,"갉":228,"감":229,"갑":230,"값":231,"갓":232,"갔":233,"강":234,"갖":235,"갗":236,"갘":237,"같":238,"갚":239,"갛":240,"개":241,"객":242,"갠":243,"갤":244,"갥":245,"갬":246,"갭":247,"갮":248,"갯":249,"갰":250,"갱":251,"갵":252,"갷":253,"갸":254,"갹":255,"갼":256,"갿":257,"걀":258,"걌":259,"걍":260,"걔":261,"걘":262,"걜":263,"걨":264,"거":265,"걱":266,"걳":267,"건":268,"걵":269,"걷":270,"걸":271,"걹":272,"검":273,"겁":274,"것":275,"겄":276,"겅":277,"겆":278,"겇":279,"겈":280,"겉":281,"겊":282,"겋":283,"게":284,"겍":285,"겎":286,"겐":287,"겓":288,"겔":289,"겜":290,"겟":291,"겠":292,"겡":293,"겢":294,"겤":295,"겧":296,"겨":297,"격":298,"겪":299,"견":300,"겯":301,"결":302,"겸":303,"겹":304,"겻":305,"겼":306,"경":307,"겾":308,"겿":309,"곁":310,"곃":311,"계":312,"곈":313,"곕":314,"곗":315,"곘":316,"고":317,"곡":318,"곤":319,"곦":320,"곧":321,"골":322,"곰":323,"곱":324,"곳":325,"공":326,"곶":327,"곷":328,"곸":329,"곺":330,"곻":331,"과":332,"곽":333,"관":334,"괄":335,"광":336,"괘":337,"괜":338,"괨":339,"괴":340,"괵":341,"괼":342,"굄":343,"굇":344,"굉":345,"굊":346,"교":347,"굑":348,"굔":349,"굘":350,"굠":351,"굤":352,"굥":353,"굨":354,"구":355,"국":356,"굮":357,"군":358,"굳":359,"굴":360,"굵":361,"굶":362,"굼":363,"굽":364,"굿":365,"궁":366,"궂":367,"궈":368,"권":369,"궐":370,"궜":371,"궝":372,"궞":373,"궤":374,"궷":375,"궸":376,"귀":377,"귄":378,"귈":379,"귓":380,"귕":381,"귗":382,"규":383,"균":384,"귤":385,"귬":386,"귱":387,"그":388,"극":389,"귺":390,"근":391,"귿":392,"글":393,"긁":394,"긇":395,"금":396,"급":397,"긋":398,"긌":399,"긍":400,"긏":401,"긑":402,"긒":403,"긓":404,"긔":405,"긘":406,"긝":407,"기":408,"긱":409,"긴":410,"길":411,"긿":412,"김":413,"깁":414,"깃":415,"깄":416,"깅":417,"깇":418,"깈":419,"깉":420,"깊":421,"깋":422,"까":423,"깍":424,"깎":425,"깐":426,"깔":427,"깜":428,"깝":429,"깟":430,"깠":431,"깡":432,"깢":433,"깥":434,"깧":435,"깨":436,"깩":437,"깬":438,"깰":439,"깸":440,"깻":441,"깼":442,"깽":443,"꺄":444,"꺅":445,"꺈":446,"꺌":447,"꺍":448,"꺔":449,"꺘":450,"꺙":451,"꺟":452,"꺠":453,"꺳":454,"꺴":455,"꺼":456,"꺽":457,"꺾":458,"껀":459,"껄":460,"껌":461,"껍":462,"껏":463,"껐":464,"껑":465,"께":466,"껨":467,"껫":468,"껭":469,"껴":470,"꼇":471,"꼈":472,"꼐":473,"꼥":474,"꼬":475,"꼭":476,"꼮":477,"꼰":478,"꼴":479,"꼼":480,"꼽":481,"꽁":482,"꽂":483,"꽃":484,"꽈":485,"꽉":486,"꽊":487,"꽓":488,"꽝":489,"꽤":490,"꽥":491,"꽹":492,"꾸":493,"꾹":494,"꾺":495,"꾼":496,"꿀":497,"꿇":498,"꿈":499,"꿉":500,"꿍":501,"꿑":502,"꿔":503,"꿧":504,"꿨":505,"뀌":506,"뀐":507,"뀔":508,"뀜":509,"뀡":510,"뀨":511,"뀰":512,"뀽":513,"끄":514,"끅":515,"끆":516,"끈":517,"끊":518,"끌":519,"끓":520,"끔":521,"끕":522,"끗":523,"끛":524,"끜":525,"끝":526,"끠":527,"끵":528,"끼":529,"끽":530,"낀":531,"낄":532,"낌":533,"낑":534,"낗":535,"나":536,"낙":537,"낚":538,"난":539,"낞":540,"낟":541,"날":542,"낡":543,"남":544,"납":545,"낫":546,"났":547,"낭":548,"낮":549,"낯":550,"낰":551,"낱":552,"낲":553,"낳":554,"내":555,"낵":556,"낸":557,"낼":558,"냄":559,"냅":560,"냇":561,"냈":562,"냉":563,"냊":564,"냎":565,"냏":566,"냐":567,"냑":568,"냔":569,"냘":570,"냠":571,"냡":572,"냣":573,"냤":574,"냥":575,"냦":576,"냨":577,"냪":578,"냫":579,"냬":580,"너":581,"넉":582,"넋":583,"넌":584,"넏":585,"널":586,"넒":587,"넓":588,"넘":589,"넙":590,"넚":591,"넛":592,"넜":593,"넝":594,"넞":595,"넟":596,"넡":597,"넢":598,"넣":599,"네":600,"넥":601,"넨":602,"넫":603,"넬":604,"넴":605,"넵":606,"넷":607,"넹":608,"넺":609,"넼":610,"넿":611,"녀":612,"녁":613,"년":614,"녅":615,"념":616,"녓":617,"녔":618,"녕":619,"녖":620,"녘":621,"녛":622,"녜":623,"녬":624,"녱":625,"노":626,"녹":627,"논":628,"놀":629,"놁":630,"놈":631,"놉":632,"놋":633,"농":634,"놏":635,"놐":636,"놑":637,"높":638,"놓":639,"놔":640,"놘":641,"놜":642,"놤":643,"놧":644,"놨":645,"놰":646,"뇌":647,"뇨":648,"뇬":649,"뇸":650,"뇹":651,"뇼":652,"뇽":653,"누":654,"눅":655,"눈":656,"눋":657,"눌":658,"눔":659,"눕":660,"눙":661,"눚":662,"눜":663,"눞":664,"눟":665,"눠":666,"눤":667,"눨":668,"눴":669,"눼":670,"뉇":671,"뉑":672,"뉘":673,"뉜":674,"뉨":675,"뉭":676,"뉴":677,"뉵":678,"뉸":679,"뉻":680,"뉼":681,"늄":682,"늉":683,"늊":684,"늌":685,"느":686,"늑":687,"늒":688,"는":689,"늕":690,"늗":691,"늘":692,"늙":693,"늚":694,"늠":695,"능":696,"늦":697,"늨":698,"늪":699,"늫":700,"늬":701,"늰":702,"늴":703,"늶":704,"늼":705,"닁":706,"니":707,"닉":708,"닊":709,"닌":710,"닏":711,"닐":712,"님":713,"닙":714,"닛":715,"닜":716,"닝":717,"닞":718,"닠":719,"닡":720,"닢":721,"닣":722,"다":723,"닥":724,"닦":725,"단":726,"닪":727,"닫":728,"달":729,"닭":730,"닮":731,"닳":732,"담":733,"답":734,"닷":735,"닸":736,"당":737,"닻":738,"닼":739,"닽":740,"닾":741,"닿":742,"대":743,"댁":744,"댂":745,"댄":746,"댇":747,"댈":748,"댐":749,"댑":750,"댓":751,"댔":752,"댕":753,"댛":754,"댜":755,"댝":756,"댣":757,"댤":758,"댬":759,"댯":760,"댱":761,"댲":762,"댸":763,"더":764,"덕":765,"던":766,"덙":767,"덛":768,"덜":769,"덟":770,"덢":771,"덤":772,"덥":773,"덧":774,"덩":775,"덭":776,"덮":777,"덯":778,"데":779,"덱":780,"덴":781,"덷":782,"델":783,"뎀":784,"뎁":785,"뎃":786,"뎄":787,"뎅":788,"뎉":789,"뎋":790,"뎌":791,"뎠":792,"뎡":793,"뎦":794,"뎨":795,"뎸":796,"도":797,"독":798,"돈":799,"돋":800,"돌":801,"돔":802,"돕":803,"돗":804,"동":805,"돟":806,"돠":807,"돨":808,"돰":809,"돵":810,"돼":811,"됀":812,"됃":813,"됌":814,"됐":815,"됑":816,"됔":817,"되":818,"됛":819,"된":820,"될":821,"됨":822,"됩":823,"됫":824,"됬":825,"됭":826,"됮":827,"됰":828,"됳":829,"됴":830,"둉":831,"두":832,"둑":833,"둔":834,"둗":835,"둘":836,"둠":837,"둡":838,"둣":839,"둥":840,"둦":841,"둪":842,"둫":843,"둬":844,"둴":845,"둿":846,"뒀":847,"뒁":848,"뒈":849,"뒓":850,"뒙":851,"뒤":852,"뒨":853,"뒷":854,"뒹":855,"듀":856,"듁":857,"듄":858,"듈":859,"듕":860,"드":861,"득":862,"든":863,"듢":864,"듣":865,"들":866,"듦":867,"듫":868,"듬":869,"듭":870,"듯":871,"등":872,"듶":873,"듷":874,"듸":875,"딈":876,"디":877,"딕":878,"딖":879,"딘":880,"딛":881,"딜":882,"딤":883,"딥":884,"딧":885,"딨":886,"딩":887,"딪":888,"딬":889,"딮":890,"딯":891,"따":892,"딱":893,"딲":894,"딴":895,"딸":896,"땀":897,"땁":898,"땃":899,"땄":900,"땅":901,"땋":902,"때":903,"땐":904,"땔":905,"땜":906,"땟":907,"땠":908,"땡":909,"땨":910,"땬":911,"떄":912,"떈":913,"떔":914,"떘":915,"떙":916,"떠":917,"떡":918,"떢":919,"떤":920,"떨":921,"떫":922,"떰":923,"떱":924,"떳":925,"떴":926,"떵":927,"떻":928,"떼":929,"뗀":930,"뗄":931,"뗏":932,"뗐":933,"뗘":934,"또":935,"똑":936,"똒":937,"똔":938,"똘":939,"똥":940,"똪":941,"똫":942,"똬":943,"똭":944,"뙇":945,"뙈":946,"뚐":947,"뚕":948,"뚜":949,"뚝":950,"뚞":951,"뚠":952,"뚣":953,"뚤":954,"뚫":955,"뚬":956,"뚭":957,"뚯":958,"뚱":959,"뚸":960,"뛔":961,"뛟":962,"뛰":963,"뛴":964,"뛸":965,"뜀":966,"뜨":967,"뜩":968,"뜬":969,"뜯":970,"뜰":971,"뜸":972,"뜻":973,"뜽":974,"띃":975,"띄":976,"띠":977,"띡":978,"띤":979,"띨":980,"띵":981,"라":982,"락":983,"띾":984,"란":985,"랂":986,"랃":987,"랄":988,"랅":989,"랉":990,"람":991,"랍":992,"랏":993,"랐":994,"랑":995,"랔":996,"랕":997,"랖":998,"랗":999,"래":1000,"랙":1001,"랜":1002,"랠":1003,"램":1004,"랩":1005,"랫":1006,"랬":1007,"랭":1008,"랮":1009,"랰":1010,"랱":1011,"랳":1012,"랴":1013,"략":1014,"랸":1015,"랻":1016,"랼":1017,"럄":1018,"럅":1019,"럇":1020,"럈":1021,"량":1022,"럊":1023,"럎":1024,"럐":1025,"럣":1026,"러":1027,"럭":1028,"럯":1029,"런":1030,"럳":1031,"럴":1032,"럵":1033,"럻":1034,"럼":1035,"럽":1036,"럾":1037,"럿":1038,"렀":1039,"렁":1040,"렂":1041,"렄":1042,"렆":1043,"렇":1044,"레":1045,"렉":1046,"렌":1047,"렏":1048,"렐":1049,"렑":1050,"렓":1051,"렘":1052,"렙":1053,"렛":1054,"렜":1055,"렝":1056,"렠":1057,"렣":1058,"려":1059,"력":1060,"렦":1061,"련":1062,"렫":1063,"렬":1064,"렴":1065,"렵":1066,"렷":1067,"렸":1068,"령":1069,"렺":1070,"렼":1071,"렾":1072,"렿":1073,"례":1074,"롄":1075,"로":1076,"록":1077,"론":1078,"롣":1079,"롤":1080,"롥":1081,"롬":1082,"롭":1083,"롯":1084,"롱":1085,"롲":1086,"롷":1087,"롸":1088,"롹":1089,"롼":1090,"뢀":1091,"뢔":1092,"뢰":1093,"뢴":1094,"료":1095,"룐":1096,"룔":1097,"룜":1098,"룝":1099,"룠":1100,"룡":1101,"루":1102,"룩":1103,"룫":1104,"룬":1105,"룯":1106,"룰":1107,"룸":1108,"룹":1109,"룻":1110,"룽":1111,"룾":1112,"뤃":1113,"뤄":1114,"뤈":1115,"뤕":1116,"뤘":1117,"뤙":1118,"뤠":1119,"뤫":1120,"뤱":1121,"뤵":1122,"뤼":1123,"륀":1124,"륌":1125,"륏":1126,"륑":1127,"류":1128,"륙":1129,"륜":1130,"륟":1131,"률":1132,"륨":1133,"륭":1134,"르":1135,"륵":1136,"른":1137,"륹":1138,"륻":1139,"를":1140,"륽":1141,"름":1142,"릅":1143,"릇":1144,"릉":1145,"릍":1146,"릎":1147,"릏":1148,"릐":1149,"릠":1150,"리":1151,"릭":1152,"릯":1153,"린":1154,"릳":1155,"릴":1156,"림":1157,"립":1158,"릿":1159,"맀":1160,"링":1161,"맂":1162,"맇":1163,"마":1164,"막":1165,"만":1166,"많":1167,"맏":1168,"말":1169,"맑":1170,"맘":1171,"맙":1172,"맛":1173,"맜":1174,"망":1175,"맞":1176,"맟":1177,"맠":1178,"맡":1179,"맢":1180,"맣":1181,"매":1182,"맥":1183,"맨":1184,"맫":1185,"맬":1186,"맴":1187,"맵":1188,"맷":1189,"맸":1190,"맹":1191,"맺":1192,"맿":1193,"먀":1194,"먄":1195,"먆":1196,"먐":1197,"먕":1198,"먗":1199,"머":1200,"먹":1201,"먼":1202,"먾":1203,"먿":1204,"멀":1205,"멂":1206,"멇":1207,"멈":1208,"멉":1209,"멋":1210,"멍":1211,"멎":1212,"멏":1213,"멒":1214,"멓":1215,"메":1216,"멕":1217,"멘":1218,"멜":1219,"멤":1220,"멧":1221,"멩":1222,"며":1223,"멱":1224,"면":1225,"멸":1226,"몀":1227,"명":1228,"몇":1229,"몌":1230,"모":1231,"목":1232,"몫":1233,"몬":1234,"몯":1235,"몰":1236,"몸":1237,"몹":1238,"못":1239,"몼":1240,"몽":1241,"뫀":1242,"뫃":1243,"뫄":1244,"묘":1245,"묜":1246,"묠":1247,"묨":1248,"묭":1249,"묯":1250,"무":1251,"묵":1252,"묶":1253,"문":1254,"묹":1255,"묻":1256,"물":1257,"묽":1258,"뭄":1259,"뭇":1260,"뭉":1261,"뭊":1262,"뭋":1263,"뭍":1264,"뭎":1265,"뭏":1266,"뭐":1267,"뭔":1268,"뭘":1269,"뭡":1270,"뭣":1271,"뭥":1272,"뭦":1273,"뭬":1274,"뮁":1275,"뮤":1276,"뮨":1277,"뮫":1278,"뮬":1279,"뮷":1280,"뮹":1281,"뮽":1282,"뮾":1283,"므":1284,"믁":1285,"믄":1286,"믇":1287,"믈":1288,"믐":1289,"믓":1290,"믕":1291,"믛":1292,"믜":1293,"믤":1294,"미":1295,"믹":1296,"민":1297,"믾":1298,"믿":1299,"밀":1300,"밈":1301,"밉":1302,"밋":1303,"밌":1304,"밍":1305,"밎":1306,"및":1307,"밑":1308,"밒":1309,"밓":1310,"바":1311,"박":1312,"밖":1313,"반":1314,"밙":1315,"받":1316,"발":1317,"밝":1318,"밞":1319,"밟":1320,"밠":1321,"밤":1322,"밥":1323,"밧":1324,"밨":1325,"방":1326,"밬":1327,"밭":1328,"밯":1329,"배":1330,"백":1331,"밴":1332,"밸":1333,"뱀":1334,"뱁":1335,"뱃":1336,"뱅":1337,"뱆":1338,"뱉":1339,"뱌":1340,"뱍":1341,"뱔":1342,"뱧":1343,"버":1344,"벅":1345,"번":1346,"벋":1347,"벌":1348,"벏":1349,"범":1350,"법":1351,"벗":1352,"벙":1353,"벚":1354,"벟":1355,"베":1356,"벡":1357,"벤":1358,"벨":1359,"벫":1360,"벱":1361,"벳":1362,"벵":1363,"벼":1364,"벽":1365,"변":1366,"별":1367,"볍":1368,"볐":1369,"병":1370,"볕":1371,"보":1372,"복":1373,"볶":1374,"본":1375,"볼":1376,"볽":1377,"봄":1378,"봅":1379,"봇":1380,"봉":1381,"봏":1382,"봐":1383,"봘":1384,"봙":1385,"봣":1386,"봤":1387,"봥":1388,"봬":1389,"뵀":1390,"뵈":1391,"뵌":1392,"뵐":1393,"뵘":1394,"뵙":1395,"뵜":1396,"뵤":1397,"뵷":1398,"부":1399,"북":1400,"분":1401,"붇":1402,"불":1403,"붉":1404,"붋":1405,"붐":1406,"붑":1407,"붓":1408,"붕":1409,"붖":1410,"붗":1411,"붘":1412,"붙":1413,"붛":1414,"붜":1415,"붤":1416,"붸":1417,"뷉":1418,"뷔":1419,"뷰":1420,"뷱":1421,"뷴":1422,"뷸":1423,"븃":1424,"븅":1425,"븋":1426,"브":1427,"븍":1428,"븐":1429,"블":1430,"븗":1431,"븘":1432,"븜":1433,"븡":1434,"븰":1435,"븱":1436,"븸":1437,"비":1438,"빅":1439,"빆":1440,"빈":1441,"빋":1442,"빌":1443,"빔":1444,"빕":1445,"빗":1446,"빙":1447,"빚":1448,"빛":1449,"빠":1450,"빡":1451,"빢":1452,"빤":1453,"빧":1454,"빨":1455,"빰":1456,"빱":1457,"빳":1458,"빴":1459,"빵":1460,"빻":1461,"빼":1462,"빽":1463,"뺀":1464,"뺄":1465,"뺌":1466,"뺏":1467,"뺐":1468,"뺑":1469,"뺘":1470,"뺠":1471,"뺨":1472,"뺴":1473,"뺸":1474,"뻄":1475,"뻇":1476,"뻐":1477,"뻑":1478,"뻔":1479,"뻗":1480,"뻘":1481,"뻠":1482,"뻡":1483,"뻣":1484,"뻤":1485,"뻥":1486,"뻨":1487,"뻬":1488,"뼈":1489,"뼛":1490,"뼜":1491,"뼝":1492,"뽀":1493,"뽄":1494,"뽈":1495,"뽐":1496,"뽑":1497,"뽕":1498,"뽜":1499,"뽝":1500,"뽷":1501,"뾰":1502,"뿅":1503,"뿌":1504,"뿐":1505,"뿔":1506,"뿜":1507,"뿡":1508,"뿨":1509,"뿽":1510,"쀠":1511,"쀼":1512,"쁀":1513,"쁘":1514,"쁜":1515,"쁠":1516,"쁨":1517,"쁩":1518,"삉":1519,"삐":1520,"삑":1521,"삔":1522,"삘":1523,"삥":1524,"사":1525,"삭":1526,"산":1527,"살":1528,"삵":1529,"삶":1530,"삼":1531,"삽":1532,"삿":1533,"샀":1534,"상":1535,"샂":1536,"샃":1537,"샅":1538,"샆":1539,"샇":1540,"새":1541,"색":1542,"샊":1543,"샌":1544,"샐":1545,"샘":1546,"샛":1547,"샜":1548,"생":1549,"샢":1550,"샣":1551,"샤":1552,"샥":1553,"샨":1554,"샬":1555,"샴":1556,"샵":1557,"샷":1558,"샸":1559,"샹":1560,"섑":1561,"섕":1562,"서":1563,"석":1564,"섞":1565,"선":1566,"섣":1567,"설":1568,"섥":1569,"섬":1570,"섭":1571,"섯":1572,"성":1573,"섲":1574,"섴":1575,"섵":1576,"세":1577,"섹":1578,"센":1579,"셀":1580,"셈":1581,"셉":1582,"셋":1583,"셌":1584,"셍":1585,"셔":1586,"션":1587,"셜":1588,"셤":1589,"셧":1590,"셨":1591,"셩":1592,"셬":1593,"셭":1594,"셰":1595,"소":1596,"속":1597,"손":1598,"솓":1599,"솔":1600,"솜":1601,"솝":1602,"솟":1603,"송":1604,"솣":1605,"솥":1606,"솦":1607,"솨":1608,"솩":1609,"쇄":1610,"쇠":1611,"쇳":1612,"쇼":1613,"쇽":1614,"숀":1615,"숄":1616,"숍":1617,"숏":1618,"숑":1619,"숔":1620,"수":1621,"숙":1622,"순":1623,"숟":1624,"술":1625,"숨":1626,"숩":1627,"숫":1628,"숭":1629,"숮":1630,"숯":1631,"숱":1632,"숲":1633,"숳":1634,"숴":1635,"숵":1636,"숼":1637,"쉉":1638,"쉐":1639,"쉑":1640,"쉘":1641,"쉣":1642,"쉥":1643,"쉨":1644,"쉩":1645,"쉬":1646,"쉭":1647,"쉰":1648,"쉴":1649,"쉼":1650,"쉽":1651,"쉿":1652,"슁":1653,"슂":1654,"슈":1655,"슉":1656,"슌":1657,"슐":1658,"슘":1659,"슙":1660,"슝":1661,"슢":1662,"스":1663,"슥":1664,"슧":1665,"슨":1666,"슬":1667,"슴":1668,"습":1669,"슷":1670,"승":1671,"슺":1672,"슼":1673,"슽":1674,"슿":1675,"싀":1676,"싁":1677,"싄":1678,"싈":1679,"싐":1680,"싑":1681,"싕":1682,"싙":1683,"싚":1684,"시":1685,"식":1686,"신":1687,"싡":1688,"싣":1689,"실":1690,"싥":1691,"싪":1692,"싫":1693,"심":1694,"십":1695,"싮":1696,"싯":1697,"싰":1698,"싱":1699,"싲":1700,"싳":1701,"싴":1702,"싵":1703,"싶":1704,"싷":1705,"싸":1706,"싹":1707,"싺":1708,"싼":1709,"싿":1710,"쌀":1711,"쌈":1712,"쌉":1713,"쌋":1714,"쌌":1715,"쌍":1716,"쌓":1717,"쌔":1718,"쌤":1719,"쌩":1720,"쌰":1721,"썅":1722,"썌":1723,"썜":1724,"써":1725,"썩":1726,"썪":1727,"썬":1728,"썯":1729,"썰":1730,"썸":1731,"썹":1732,"썻":1733,"썼":1734,"썽":1735,"썾":1736,"쎄":1737,"쎈":1738,"쎌":1739,"쎔":1740,"쎙":1741,"쎵":1742,"쎼":1743,"쏀":1744,"쏘":1745,"쏙":1746,"쏟":1747,"쏠":1748,"쏨":1749,"쏩":1750,"쏭":1751,"쏴":1752,"쐬":1753,"쐴":1754,"쑈":1755,"쑐":1756,"쑤":1757,"쑥":1758,"쑦":1759,"쑬":1760,"쑴":1761,"쒀":1762,"쒄":1763,"쒈":1764,"쒕":1765,"쒠":1766,"쒬":1767,"쒯":1768,"쒸":1769,"쓔":1770,"쓰":1771,"쓱":1772,"쓲":1773,"쓴":1774,"쓸":1775,"씀":1776,"씁":1777,"씄":1778,"씅":1779,"씌":1780,"씐":1781,"씨":1782,"씩":1783,"씪":1784,"씬":1785,"씹":1786,"씻":1787,"씼":1788,"씽":1789,"씾":1790,"앀":1791,"아":1792,"악":1793,"앆":1794,"안":1795,"앉":1796,"않":1797,"앋":1798,"알":1799,"앍":1800,"앎":1801,"앓":1802,"암":1803,"압":1804,"앖":1805,"앗":1806,"았":1807,"앙":1808,"앚":1809,"앛":1810,"앜":1811,"앝":1812,"앞":1813,"앟":1814,"애":1815,"액":1816,"앤":1817,"앧":1818,"앨":1819,"앪":1820,"앰":1821,"앱":1822,"앳":1823,"앴":1824,"앵":1825,"앶":1826,"앷":1827,"앹":1828,"앺":1829,"앻":1830,"야":1831,"약":1832,"앿":1833,"얀":1834,"얂":1835,"얃":1836,"얄":1837,"얅":1838,"얇":1839,"얌":1840,"얍":1841,"얏":1842,"얐":1843,"양":1844,"얒":1845,"얔":1846,"얕":1847,"얖":1848,"얗":1849,"얘":1850,"얜":1851,"어":1852,"억":1853,"얶":1854,"언":1855,"얹":1856,"얻":1857,"얼":1858,"얽":1859,"얾":1860,"엄":1861,"업":1862,"없":1863,"엇":1864,"었":1865,"엉":1866,"엊":1867,"엋":1868,"엌":1869,"엍":1870,"엎":1871,"엏":1872,"에":1873,"엑":1874,"엔":1875,"엗":1876,"엘":1877,"엙":1878,"엠":1879,"엡":1880,"엣":1881,"엤":1882,"엥":1883,"엨":1884,"엩":1885,"엪":1886,"엫":1887,"여":1888,"역":1889,"엮":1890,"연":1891,"엱":1892,"엲":1893,"엳":1894,"열":1895,"엶":1896,"염":1897,"엽":1898,"엿":1899,"였":1900,"영":1901,"옂":1902,"옃":1903,"옄":1904,"옆":1905,"옇":1906,"예":1907,"옌":1908,"옘":1909,"옙":1910,"옛":1911,"옝":1912,"오":1913,"옥":1914,"온":1915,"옫":1916,"올":1917,"옭":1918,"옮":1919,"옳":1920,"옴":1921,"옵":1922,"옶":1923,"옷":1924,"옸":1925,"옹":1926,"옺":1927,"옼":1928,"옾":1929,"옿":1930,"와":1931,"왁":1932,"왂":1933,"완":1934,"왈":1935,"왉":1936,"왐":1937,"왑":1938,"왓":1939,"왔":1940,"왕":1941,"왘":1942,"왛":1943,"왜":1944,"왠":1945,"왤":1946,"왯":1947,"왱":1948,"왴":1949,"왷":1950,"외":1951,"왼":1952,"욀":1953,"욌":1954,"욎":1955,"욐":1956,"요":1957,"욕":1958,"욘":1959,"욜":1960,"욤":1961,"욥":1962,"욧":1963,"욨":1964,"용":1965,"욪":1966,"욬":1967,"욮":1968,"욯":1969,"우":1970,"욱":1971,"욲":1972,"욳":1973,"운":1974,"욷":1975,"울":1976,"욹":1977,"욺":1978,"욾":1979,"움":1980,"웁":1981,"웂":1982,"웃":1983,"웄":1984,"웅":1985,"웆":1986,"웇":1987,"웈":1988,"웉":1989,"웊":1990,"웋":1991,"워":1992,"웎":1993,"원":1994,"웒":1995,"월":1996,"웕":1997,"웜":1998,"웞":1999,"웠":2000,"웡":2001,"웢":2002,"웤":2003,"웥":2004,"웧":2005,"웨":2006,"웩":2007,"웬":2008,"웰":2009,"웱":2010,"웹":2011,"웽":2012,"윀":2013,"위":2014,"윅":2015,"윈":2016,"윌":2017,"윔":2018,"윕":2019,"윗":2020,"윙":2021,"윜":2022,"유":2023,"육":2024,"윤":2025,"율":2026,"윰":2027,"윳":2028,"융":2029,"윷":2030,"으":2031,"윽":2032,"윾":2033,"은":2034,"읂":2035,"읃":2036,"을":2037,"읅":2038,"읆":2039,"읈":2040,"읋":2041,"음":2042,"읍":2043,"읎":2044,"읏":2045,"읐":2046,"응":2047,"읒":2048,"읓":2049,"읔":2050,"읕":2051,"읗":2052,"의":2053,"읜":2054,"읫":2055,"읭":2056,"읰":2057,"읳":2058,"이":2059,"익":2060,"읶":2061,"인":2062,"읻":2063,"일":2064,"읽":2065,"읾":2066,"잃":2067,"임":2068,"입":2069,"잇":2070,"있":2071,"잉":2072,"잊":2073,"잌":2074,"잍":2075,"잎":2076,"잏":2077,"자":2078,"작":2079,"잒":2080,"잔":2081,"잖":2082,"잗":2083,"잘":2084,"잚":2085,"잠":2086,"잡":2087,"잣":2088,"잤":2089,"장":2090,"잦":2091,"잧":2092,"잨":2093,"잫":2094,"재":2095,"잭":2096,"잰":2097,"잴":2098,"잼":2099,"잽":2100,"잿":2101,"쟀":2102,"쟁":2103,"쟂":2104,"쟈":2105,"쟉":2106,"쟌":2107,"쟏":2108,"쟐":2109,"쟘":2110,"쟜":2111,"쟞":2112,"쟡":2113,"쟤":2114,"쟨":2115,"저":2116,"적":2117,"전":2118,"젆":2119,"젇":2120,"절":2121,"젊":2122,"젏":2123,"점":2124,"접":2125,"젓":2126,"젔":2127,"정":2128,"젖":2129,"젙":2130,"젛":2131,"제":2132,"젝":2133,"젠":2134,"젣":2135,"젤":2136,"젨":2137,"젬":2138,"젭":2139,"젯":2140,"젱":2141,"젶":2142,"져":2143,"젹":2144,"젼":2145,"젿":2146,"졀":2147,"졈":2148,"졋":2149,"졌":2150,"졍":2151,"졎":2152,"졒":2153,"졓":2154,"졔":2155,"졘":2156,"조":2157,"족":2158,"존":2159,"졷":2160,"졸":2161,"좀":2162,"좁":2163,"좃":2164,"종":2165,"좆":2166,"좉":2167,"좊":2168,"좋":2169,"좌":2170,"좍":2171,"좔":2172,"죄":2173,"죔":2174,"죠":2175,"죡":2176,"죤":2177,"죨":2178,"죰":2179,"죴":2180,"죵":2181,"주":2182,"죽":2183,"준":2184,"줃":2185,"줄":2186,"줅":2187,"줉":2188,"줌":2189,"줍":2190,"줏":2191,"줐":2192,"중":2193,"줒":2194,"줔":2195,"줖":2196,"줗":2197,"줘":2198,"줙":2199,"줚":2200,"줜":2201,"줬":2202,"줭":2203,"줲":2204,"줴":2205,"줼":2206,"쥄":2207,"쥐":2208,"쥑":2209,"쥔":2210,"쥠":2211,"쥥":2212,"쥦":2213,"쥬":2214,"쥭":2215,"쥰":2216,"쥴":2217,"쥼":2218,"쥽":2219,"쥿":2220,"즁":2221,"즇":2222,"즈":2223,"즉":2224,"즌":2225,"즐":2226,"즑":2227,"즘":2228,"즙":2229,"즛":2230,"증":2231,"즣":2232,"즨":2233,"즹":2234,"지":2235,"직":2236,"진":2237,"짆":2238,"짇":2239,"질":2240,"짉":2241,"짊":2242,"짌":2243,"짏":2244,"짐":2245,"집":2246,"짓":2247,"짔":2248,"징":2249,"짖":2250,"짗":2251,"짘":2252,"짙":2253,"짚":2254,"짛":2255,"짜":2256,"짝":2257,"짠":2258,"짢":2259,"짤":2260,"짧":2261,"짬":2262,"짭":2263,"짯":2264,"짰":2265,"짱":2266,"짲":2267,"째":2268,"짹":2269,"짼":2270,"쨈":2271,"쨋":2272,"쨌":2273,"쨍":2274,"쨔":2275,"쨕":2276,"쨖":2277,"쨜":2278,"쨩":2279,"쨰":2280,"쩄":2281,"쩊":2282,"쩌":2283,"쩍":2284,"쩐":2285,"쩔":2286,"쩜":2287,"쩡":2288,"쩨":2289,"쩰":2290,"쪄":2291,"쪔":2292,"쪗":2293,"쪘":2294,"쪙":2295,"쪼":2296,"쪽":2297,"쫀":2298,"쫃":2299,"쫄":2300,"쫌":2301,"쫏":2302,"쫑":2303,"쫒":2304,"쫓":2305,"쫘":2306,"쫙":2307,"쫨":2308,"쬐":2309,"쬬":2310,"쬼":2311,"쭈":2312,"쭉":2313,"쭘":2314,"쭤":2315,"쭬":2316,"쮜":2317,"쮸":2318,"쯈":2319,"쯉":2320,"쯔":2321,"쯜":2322,"쯤":2323,"쯩":2324,"쯰":2325,"찌":2326,"찍":2327,"찎":2328,"찐":2329,"찓":2330,"찔":2331,"찜":2332,"찝":2333,"찟":2334,"찡":2335,"찢":2336,"차":2337,"착":2338,"찬":2339,"찮":2340,"찯":2341,"찰":2342,"찱":2343,"참":2344,"찹":2345,"찻":2346,"찼":2347,"창":2348,"찾":2349,"찿":2350,"챃":2351,"채":2352,"책":2353,"챈":2354,"챌":2355,"챕":2356,"챗":2357,"챘":2358,"챙":2359,"챠":2360,"챡":2361,"챤":2362,"챱":2363,"챴":2364,"챵":2365,"챷":2366,"처":2367,"척":2368,"천":2369,"첝":2370,"첞":2371,"철":2372,"첢":2373,"첨":2374,"첩":2375,"첫":2376,"첬":2377,"청":2378,"첯":2379,"체":2380,"첵":2381,"첸":2382,"쳇":2383,"쳐":2384,"쳒":2385,"쳘":2386,"쳠":2387,"쳣":2388,"쳤":2389,"쳥":2390,"쳨":2391,"초":2392,"촉":2393,"촌":2394,"촐":2395,"촛":2396,"총":2397,"촠":2398,"촤":2399,"촥":2400,"촨":2401,"촬":2402,"촵":2403,"최":2404,"쵝":2405,"쵸":2406,"쵹":2407,"춉":2408,"춋":2409,"춌":2410,"추":2411,"축":2412,"춘":2413,"출":2414,"춤":2415,"춥":2416,"춧":2417,"충":2418,"춰":2419,"춱":2420,"췃":2421,"췄":2422,"췌":2423,"췤":2424,"취":2425,"췸":2426,"췹":2427,"츄":2428,"츅":2429,"츕":2430,"츠":2431,"측":2432,"츤":2433,"츦":2434,"츨":2435,"층":2436,"츷":2437,"츼":2438,"칍":2439,"치":2440,"칙":2441,"칛":2442,"친":2443,"칠":2444,"침":2445,"칩":2446,"칫":2447,"칭":2448,"칮":2449,"칯":2450,"칰":2451,"칱":2452,"카":2453,"칵":2454,"칸":2455,"칼":2456,"캄":2457,"캅":2458,"캉":2459,"캌":2460,"캍":2461,"캐":2462,"캔":2463,"캗":2464,"캠":2465,"캡":2466,"캣":2467,"캤":2468,"캥":2469,"캬":2470,"컀":2471,"컄":2472,"커":2473,"컨":2474,"컫":2475,"컬":2476,"컴":2477,"컵":2478,"컷":2479,"컸":2480,"컹":2481,"컼":2482,"케":2483,"켁":2484,"켄":2485,"켈":2486,"켓":2487,"켕":2488,"켘":2489,"켜":2490,"켠":2491,"켤":2492,"켬":2493,"켭":2494,"켯":2495,"켰":2496,"코":2497,"콕":2498,"콘":2499,"콜":2500,"콤":2501,"콧":2502,"콩":2503,"콬":2504,"콰":2505,"콱":2506,"콸":2507,"쾅":2508,"쾌":2509,"쿄":2510,"쿗":2511,"쿜":2512,"쿠":2513,"쿡":2514,"쿤":2515,"쿨":2516,"쿰":2517,"쿵":2518,"쿸":2519,"쿼":2520,"퀀":2521,"퀄":2522,"퀘":2523,"퀴":2524,"퀸":2525,"큐":2526,"큘":2527,"큥":2528,"큨":2529,"큩":2530,"크":2531,"큰":2532,"클":2533,"큼":2534,"큽":2535,"킁":2536,"킂":2537,"킄":2538,"킅":2539,"킇":2540,"킈":2541,"킠":2542,"키":2543,"킥":2544,"킨":2545,"킬":2546,"킴":2547,"킵":2548,"킷":2549,"킹":2550,"킼":2551,"타":2552,"탁":2553,"탄":2554,"탆":2555,"탈":2556,"탉":2557,"탍":2558,"탐":2559,"탑":2560,"탓":2561,"탔":2562,"탕":2563,"탗":2564,"탘":2565,"탙":2566,"탛":2567,"태":2568,"택":2569,"탠":2570,"탤":2571,"탬":2572,"탭":2573,"탯":2574,"탱":2575,"탸":2576,"턍":2577,"터":2578,"턱":2579,"턴":2580,"턷":2581,"털":2582,"텀":2583,"텂":2584,"텃":2585,"텄":2586,"텅":2587,"테":2588,"텍":2589,"텐":2590,"텔":2591,"템":2592,"텝":2593,"텥":2594,"텨":2595,"텻":2596,"텼":2597,"토":2598,"톡":2599,"톤":2600,"톨":2601,"톰":2602,"톱":2603,"통":2604,"톷":2605,"톹":2606,"톼":2607,"퇴":2608,"툐":2609,"툤":2610,"투":2611,"툭":2612,"툰":2613,"툴":2614,"툼":2615,"툽":2616,"퉁":2617,"퉅":2618,"퉆":2619,"퉈":2620,"퉛":2621,"퉤":2622,"퉵":2623,"퉷":2624,"튀":2625,"튄":2626,"튈":2627,"튐":2628,"튕":2629,"튜":2630,"튠":2631,"튤":2632,"튭":2633,"트":2634,"특":2635,"튼":2636,"틀":2637,"틈":2638,"틍":2639,"틐":2640,"틑":2641,"틓":2642,"틔":2643,"티":2644,"틱":2645,"틴":2646,"틸":2647,"팀":2648,"팁":2649,"팄":2650,"팅":2651,"파":2652,"팍":2653,"판":2654,"팓":2655,"팔":2656,"팜":2657,"팝":2658,"팟":2659,"팠":2660,"팡":2661,"팢":2662,"팤":2663,"팥":2664,"팦":2665,"팧":2666,"패":2667,"팩":2668,"팬":2669,"팰":2670,"팸":2671,"팹":2672,"팽":2673,"퍃":2674,"퍄":2675,"퍈":2676,"퍌":2677,"퍙":2678,"퍚":2679,"퍠":2680,"퍼":2681,"퍽":2682,"펀":2683,"펃":2684,"펄":2685,"펌":2686,"펏":2687,"펐":2688,"펑":2689,"펗":2690,"페":2691,"펙":2692,"펜":2693,"펠":2694,"펫":2695,"펭":2696,"펴":2697,"편":2698,"펼":2699,"폄":2700,"폈":2701,"평":2702,"폐":2703,"포":2704,"폭":2705,"폰":2706,"폴":2707,"폼":2708,"퐁":2709,"퐃":2710,"퐈":2711,"퐉":2712,"퐤":2713,"표":2714,"푝":2715,"푠":2716,"푤":2717,"푱":2718,"푶":2719,"푸":2720,"푹":2721,"푼":2722,"풀":2723,"품":2724,"풉":2725,"풋":2726,"풍":2727,"풒":2728,"풓":2729,"풔":2730,"풩":2731,"퓌":2732,"퓔":2733,"퓨":2734,"퓬":2735,"퓯":2736,"퓰":2737,"퓽":2738,"픂":2739,"픃":2740,"프":2741,"픅":2742,"픈":2743,"플":2744,"픔":2745,"픕":2746,"픗":2747,"픙":2748,"픞":2749,"픠":2750,"픨":2751,"픵":2752,"피":2753,"픽":2754,"핀":2755,"필":2756,"핋":2757,"핌":2758,"핍":2759,"핏":2760,"핑":2761,"핖":2762,"핗":2763,"하":2764,"학":2765,"핚":2766,"한":2767,"핟":2768,"할":2769,"핡":2770,"핢":2771,"핥":2772,"함":2773,"합":2774,"핫":2775,"핬":2776,"항":2777,"핮":2778,"핱":2779,"핳":2780,"해":2781,"핵":2782,"핶":2783,"핸":2784,"핻":2785,"핼":2786,"햃":2787,"햄":2788,"햅":2789,"햇":2790,"했":2791,"행":2792,"햋":2793,"햌":2794,"햎":2795,"햏":2796,"햐":2797,"햔":2798,"햘":2799,"햣":2800,"햤":2801,"향":2802,"햫":2803,"햿":2804,"헀":2805,"허":2806,"헉":2807,"헌":2808,"헐":2809,"헑":2810,"헗":2811,"험":2812,"헙":2813,"헛":2814,"헜":2815,"헝":2816,"헠":2817,"헣":2818,"헤":2819,"헥":2820,"헨":2821,"헬":2822,"헷":2823,"헸":2824,"헹":2825,"헽":2826,"헿":2827,"혀":2828,"혁":2829,"현":2830,"혆":2831,"혈":2832,"혐":2833,"협":2834,"혓":2835,"혔":2836,"형":2837,"혜":2838,"호":2839,"혹":2840,"혼":2841,"혿":2842,"홀":2843,"홈":2844,"홉":2845,"홋":2846,"홍":2847,"홓":2848,"화":2849,"확":2850,"홗":2851,"환":2852,"활":2853,"홤":2854,"홧":2855,"황":2856,"홰":2857,"횃":2858,"회":2859,"획":2860,"횟":2861,"횡":2862,"효":2863,"횻":2864,"횽":2865,"훃":2866,"후":2867,"훅":2868,"훈":2869,"훋":2870,"훌":2871,"훑":2872,"훔":2873,"훗":2874,"훙":2875,"훟":2876,"훠":2877,"훤":2878,"훨":2879,"훼":2880,"휄":2881,"휏":2882,"휑":2883,"휘":2884,"휠":2885,"휩":2886,"휳":2887,"휴":2888,"흉":2889,"흏":2890,"흐":2891,"흑":2892,"흒":2893,"흓":2894,"흔":2895,"흗":2896,"흘":2897,"흙":2898,"흟":2899,"흠":2900,"흡":2901,"흥":2902,"흩":2903,"흫":2904,"희":2905,"흭":2906,"흰":2907,"흼":2908,"힁":2909,"힇":2910,"히":2911,"힉":2912,"힌":2913,"힏":2914,"힐":2915,"힘":2916,"힙":2917,"힛":2918,"힝":2919,"힣":2920,"##부":2921,"##하":2922,"##고":2923,"##있":2924,"##게":2925,"##내":2926,"##산":2927,"##밖":2928,"##에":2929,"##랠":2930,"##거":2931,"##까":2932,"##지":2933,"##야":2934,"##ㅠ":2935,"##크":2936,"##두":2937,"##아":2938,"##주":2939,"##니":2940,"##율":2941,"##동":2942,"##리":2943,"##는":2944,"##l":2945,"##u":2946,"##t":2947,"##e":2948,"##r":2949,"##네":2950,"##자":2951,"##ㅋ":2952,"##마":2953,"##ㅏ":2954,"##면":2955,"##서":2956,"##퍼":2957,"##성":2958,"##이":2959,"##나":2960,"##와":2961,"##요":2962,"##막":2963,"##졍":2964,"##ㅕ":2965,"##렴":2966,"##수":2967,"##였":2968,"##중":2969,"##시":2970,"##간":2971,"##트":2972,"##7":2973,"##0":2974,"##가":2975,"##냐":2976,"##른":2977,"##로":2978,"##들":2979,"##었":2980,"##든":2981,"##끝":2982,"##롭":2983,"##히":2984,"##도":2985,"##건":2986,"##ㄴ":2987,"##어":2988,"##보":2989,"##데":2990,"##여":2991,"##터":2992,"##공":2993,"##유":2994,"##라":2995,"##쳤":2996,"##습":2997,"##4":2998,"##개":2999,"##정":3000,"##과":3001,"##제":3002,"##닐":3003,"##깡":3004,"##ㅑ":3005,"##ㅇ":3006,"##깨":3007,"##난":3008,"##당":3009,"##말":3010,"##배":3011,"##녀":3012,"##석":3013,"##무":3014,"##힘":3015,"##려":3016,"##오":3017,"##던":3018,"##맞":3019,"##다":3020,"##줌":3021,"##쓸":3022,"##구":3023,"##래":3024,"##검":3025,"##한":3026,"##대":3027,"##ㅛ":3028,"##넹":3029,"##랄":3030,"##모":3031,"##살":3032,"##드":3033,"##러":3034,"##쒀":3035,"##디":3036,"##해":3037,"##박":3038,"##험":3039,"##합":3040,"##먹":3041,"##ㅉ":3042,"##못":3043,"##신":3044,"##같":3045,"##진":3046,"##워":3047,"##볼":3048,"##쩡":3049,"##함":3050,"##많":3051,"##비":3052,"##챈":3053,"##분":3054,"##노":3055,"##맛":3056,"##광":3057,"##임":3058,"##쥐":3059,"##기":3060,"##없":3061,"##큰":3062,"##n":3063,"##o":3064,"##d":3065,"##후":3066,"##했":3067,"##푸":3068,"##각":3069,"##뭐":3070,"##미":3071,"##전":3072,"##차":3073,"##왕":3074,"##걸":3075,"##너":3076,"##ㅜ":3077,"##룬":3078,"##머":3079,"##ㄹ":3080,"##냈":3081,"##교":3082,"##만":3083,"##큼":3084,"##년":3085,"##셈":3086,"##므":3087,"##ㅡ":3088,"##친":3089,"##얏":3090,"##싶":3091,"##은":3092,"##사":3093,"##업":3094,"##칙":3095,"##태":3096,"##창":3097,"##샵":3098,"##칩":3099,"##인":3100,"##올":3101,"##듯":3102,"##깐":3103,"##벌":3104,"##쓰":3105,"##죠":3106,"##천":3107,"##원":3108,"##치":3109,"##줘":3110,"##찍":3111,"##b":3112,"##k":3113,"##s":3114,"##쁜":3115,"##것":3116,"##매":3117,"##져":3118,"##토":3119,"##묵":3120,"##랑":3121,"##누":3122,"##럴":3123,"##긴":3124,"##p":3125,"##1":3126,"##을":3127,"##럼":3128,"##긱":3129,"##식":3130,"##영":3131,"##상":3132,"##룰":3133,"##헐":3134,"##축":3135,"##ㅅ":3136,"##점":3137,"##학":3138,"##찮":3139,"##항":3140,"##연":3141,"##헬":3142,"##되":3143,"##실":3144,"##할":3145,"##우":3146,"##림":3147,"##팔":3148,"##럽":3149,"##군":3150,"##필":3151,"##그":3152,"##ㅐ":3153,"##랬":3154,"##엉":3155,"##슨":3156,"##일":3157,"##ㅁ":3158,"##ㅣ":3159,"##웊":3160,"##울":3161,"##ㅎ":3162,"##옹":3163,"##루":3164,"##ㅓ":3165,"##눙":3166,"##스":3167,"##쿼":3168,"##카":3169,"##적":3170,"##짓":3171,"##택":3172,"##음":3173,"##줄":3174,"##생":3175,"##때":3176,"##메":3177,"##3":3178,"##십":3179,"##쓱":3180,"##버":3181,"##초":3182,"##탸":3183,"##추":3184,"##채":3185,"##통":3186,"##짜":3187,"##린":3188,"##애":3189,"##준":3190,"##남":3191,"##았":3192,"##x":3193,"##르":3194,"##겠":3195,"##씹":3196,"##처":3197,"##닉":3198,"##픈":3199,"##존":3200,"##값":3201,"##녁":3202,"##줬":3203,"##잖":3204,"##꺼":3205,"##체":3206,"##색":3207,"##잘":3208,"##m":3209,"##란":3210,"##왔":3211,"##속":3212,"##안":3213,"##켰":3214,"##징":3215,"##세":3216,"##됐":3217,"##으":3218,"##곤":3219,"##겟":3220,"##복":3221,"##ㅈ":3222,"##옷":3223,"##떻":3224,"##티":3225,"##랭":3226,"##절":3227,"##용":3228,"##ㄷ":3229,"##뮫":3230,"##뉻":3231,"##ㄱ":3232,"##뮤":3233,"##료":3234,"##낭":3235,"##넜":3236,"##장":3237,"##현":3238,"##증":3239,"##를":3240,"##온":3241,"##즈":3242,"##발":3243,"##킨":3244,"##피":3245,"##옴":3246,"##경":3247,"##써":3248,"##문":3249,"##갈":3250,"##봐":3251,"##소":3252,"##엘":3253,"##물":3254,"##운":3255,"##더":3256,"##혀":3257,"##께":3258,"##쩌":3259,"##슴":3260,"##립":3261,"##황":3262,"##능":3263,"##뮬":3264,"##람":3265,"##쿠":3266,"##롱":3267,"##평":3268,"##독":3269,"##엎":3270,"##낼":3271,"##끊":3272,"##런":3273,"##반":3274,"##늨":3275,"##봤":3276,"##느":3277,"##넫":3278,"##믕":3279,"##조":3280,"##w":3281,"##i":3282,"##a":3283,"##클":3284,"##깅":3285,"##감":3286,"##겹":3287,"##쯤":3288,"##웃":3289,"##앍":3290,"##돼":3291,"##릴":3292,"##화":3293,"##따":3294,"##페":3295,"##센":3296,"##셨":3297,"##낚":3298,"##c":3299,"##쳐":3300,"##곳":3301,"##본":3302,"##프":3303,"##쪽":3304,"##렸":3305,"##낸":3306,"##될":3307,"##움":3308,"##퉈":3309,"##케":3310,"##됨":3311,"##갔":3312,"##김":3313,"##h":3314,"##담":3315,"##받":3316,"##잤":3317,"##헌":3318,"##타":3319,"##넘":3320,"##돈":3321,"##젠":3322,"##뎅":3323,"##펴":3324,"##냏":3325,"##코":3326,"##춤":3327,"##법":3328,"##닿":3329,"##역":3330,"##응":3331,"##램":3332,"##입":3333,"##잇":3334,"##튭":3335,"##ㅂ":3336,"##선":3337,"##잠":3338,"##턴":3339,"##톡":3340,"##겼":3341,"##뤄":3342,"##츨":3343,"##행":3344,"##된":3345,"##급":3346,"##번":3347,"##즘":3348,"##뜬":3349,"##낌":3350,"##명":3351,"##변":3352,"##의":3353,"##귀":3354,"##망":3355,"##ㅚ":3356,"##회":3357,"##격":3358,"##읜":3359,"##품":3360,"##름":3361,"##방":3362,"##활":3363,"##ㅍ":3364,"##길":3365,"##깝":3366,"##패":3367,"##덟":3368,"##닁":3369,"##등":3370,"##킬":3371,"##랙":3372,"##밀":3373,"##ㅌ":3374,"##호":3375,"##ㅗ":3376,"##쟁":3377,"##며":3378,"##찌":3379,"##바":3380,"##밥":3381,"##집":3382,"##5":3383,"##겨":3384,"##팸":3385,"##즐":3386,"##헉":3387,"##ㅊ":3388,"##잔":3389,"##깔":3390,"##퀴":3391,"##틀":3392,"##범":3393,"##테":3394,"##ㄲ":3395,"##랴":3396,"##파":3397,"##뎄":3398,"##껍":3399,"##풀":3400,"##싸":3401,"##쉨":3402,"##갚":3403,"##심":3404,"##쟈":3405,"##글":3406,"##관":3407,"##키":3408,"##봉":3409,"##앵":3410,"##브":3411,"##꾸":3412,"##널":3413,"##책":3414,"##계":3415,"##작":3416,"##록":3417,"##형":3418,"##레":3419,"##칭":3420,"##빴":3421,"##링":3422,"##싫":3423,"##좋":3424,"##베":3425,"##불":3426,"##골":3427,"##엽":3428,"##단":3429,"##흐":3430,"##놈":3431,"##짐":3432,"##굴":3433,"##날":3434,"##밭":3435,"##펀":3436,"##님":3437,"##잉":3438,"##폰":3439,"##늘":3440,"##령":3441,"##렇":3442,"##ㄺ":3443,"##떢":3444,"##섭":3445,"##렁":3446,"##탔":3447,"##끔":3448,"##앙":3449,"##씀":3450,"##달":3451,"##설":3452,"##땡":3453,"##긋":3454,"##9":3455,"##금":3456,"##뭔":3457,"##럊":3458,"##맨":3459,"##탑":3460,"##혜":3461,"##쌤":3462,"##냑":3463,"##챘":3464,"##졌":3465,"##툰":3466,"##헤":3467,"##술":3468,"##넷":3469,"##혼":3470,"##댔":3471,"##톤":3472,"##씨":3473,"##덩":3474,"##짛":3475,"##완":3476,"##결":3477,"##언":3478,"##족":3479,"##겜":3480,"##댜":3481,"##근":3482,"##딨":3483,"##끄":3484,"##쉽":3485,"##순":3486,"##표":3487,"##청":3488,"##포":3489,"##폴":3490,"##놔":3491,"##났":3492,"##충":3493,"##앉":3494,"##잼":3495,"##직":3496,"##류":3497,"##탕":3498,"##썰":3499,"##층":3500,"##침":3501,"##좀":3502,"##북":3503,"##빼":3504,"##쌍":3505,"##엄":3506,"##례":3507,"##떠":3508,"##눈":3509,"##숙":3510,"##힣":3511,"##뤘":3512,"##쁘":3513,"##확":3514,"##찢":3515,"##편":3516,"##죽":3517,"##커":3518,"##강":3519,"##암":3520,"##팡":3521,"##얌":3522,"##힐":3523,"##월":3524,"##싳":3525,"##캐":3526,"##억":3527,"##삭":3528,"##똥":3529,"##멍":3530,"##웅":3531,"##룡":3532,"##겡":3533,"##댈":3534,"##놓":3535,"##밌":3536,"##허":3537,"##효":3538,"##랍":3539,"##국":3540,"##익":3541,"##별":3542,"##잌":3543,"##샌":3544,"##넉":3545,"##똔":3546,"##탐":3547,"##녕":3548,"##냉":3549,"##ㅔ":3550,"##궁":3551,"##염":3552,"##냥":3553,"##y":3554,"##뉴":3555,"##새":3556,"##끼":3557,"##욥":3558,"##양":3559,"##외":3560,"##욕":3561,"##질":3562,"##촌":3563,"##꼈":3564,"##엔":3565,"##종":3566,"##놨":3567,"##몬":3568,"##론":3569,"##븐":3570,"##뒈":3571,"##엇":3572,"##2":3573,"##햇":3574,"##뇽":3575,"##죄":3576,"##엿":3577,"##뿌":3578,"##닝":3579,"##듣":3580,"##찬":3581,"##위":3582,"##썜":3583,"##롤":3584,"##돌":3585,"##궤":3586,"##규":3587,"##쉬":3588,"##귄":3589,"##송":3590,"##알":3591,"##력":3592,"##숨":3593,"##찐":3594,"##g":3595,"##믤":3596,"##젬":3597,"##몰":3598,"##밸":3599,"##헝":3600,"##않":3601,"##옿":3602,"##씩":3603,"##럄":3604,"##섯":3605,"##탓":3606,"##ㄸ":3607,"##뽈":3608,"##승":3609,"##셔":3610,"##욱":3611,"##갸":3612,"##낳":3613,"##육":3614,"##땐":3615,"##륀":3616,"##랫":3617,"##폼":3618,"##쫄":3619,"##컨":3620,"##슷":3621,"##씁":3622,"##잡":3623,"##락":3624,"##씅":3625,"##ㅆ":3626,"##꿀":3627,"##춰":3628,"##밍":3629,"##출":3630,"##뿐":3631,"##줭":3632,"##찾":3633,"##션":3634,"##겐":3635,"##귈":3636,"##혈":3637,"##쿨":3638,"##먄":3639,"##굽":3640,"##켜":3641,"##척":3642,"##둘":3643,"##컸":3644,"##뽑":3645,"##탈":3646,"##첵":3647,"##겤":3648,"##맘":3649,"##샷":3650,"##졋":3651,"##똑":3652,"##엣":3653,"##8":3654,"##뇨":3655,"##밤":3656,"##권":3657,"##쳣":3658,"##얼":3659,"##탆":3660,"##재":3661,"##병":3662,"##닼":3663,"##릭":3664,"##봄":3665,"##땃":3666,"##룹":3667,"##딩":3668,"##쌀":3669,"##텐":3670,"##민":3671,"##향":3672,"##답":3673,"##겅":3674,"##약":3675,"##꺄":3676,"##탁":3677,"##킄":3678,"##닥":3679,"##욜":3680,"##뜨":3681,"##붙":3682,"##껄":3683,"##죵":3684,"##판":3685,"##얀":3686,"##샹":3687,"##팀":3688,"##먼":3689,"##저":3690,"##빠":3691,"##열":3692,"##싼":3693,"##맡":3694,"##앗":3695,"##겄":3696,"##뉜":3697,"##댕":3698,"##됫":3699,"##플":3700,"##썼":3701,"##넝":3702,"##쒕":3703,"##갑":3704,"##폐":3705,"##벽":3706,"##눠":3707,"##읶":3708,"##돋":3709,"##측":3710,"##즁":3711,"##ㅝ":3712,"##풍":3713,"##액":3714,"##퇴":3715,"##슈":3716,"##즌":3717,"##빌":3718,"##빙":3719,"##손":3720,"##째":3721,"##왁":3722,"##콘":3723,"##퀘":3724,"##엥":3725,"##갖":3726,"##ㄻ":3727,"##짝":3728,"##놀":3729,"##랐":3730,"##꿔":3731,"##쇼":3732,"##닮":3733,"##쫌":3734,"##벨":3735,"##탱":3736,"##쿵":3737,"##픂":3738,"##퓨":3739,"##잎":3740,"##쓴":3741,"##맙":3742,"##볶":3743,"##컬":3744,"##찡":3745,"##밟":3746,"##멎":3747,"##낡":3748,"##앱":3749,"##됀":3750,"##셍":3751,"##뜻":3752,"##칠":3753,"##봇":3754,"##훠":3755,"##놘":3756,"##칸":3757,"##훈":3758,"##릉":3759,"##톱":3760,"##v":3761,"##큐":3762,"##숭":3763,"##닌":3764,"##즛":3765,"##춋":3766,"##앞":3767,"##z":3768,"##렂":3769,"##덤":3770,"##렜":3771,"##옵":3772,"##목":3773,"##덮":3774,"##접":3775,"##뷱":3776,"##뻔":3777,"##렵":3778,"##뱁":3779,"##투":3780,"##앎":3781,"##뻐":3782,"##샆":3783,"##갓":3784,"##빡":3785,"##쌈":3786,"##렀":3787,"##뭎":3788,"##걱":3789,"##넌":3790,"##획":3791,"##예":3792,"##옝":3793,"##흑":3794,"##극":3795,"##왓":3796,"##탄":3797,"##꿈":3798,"##딱":3799,"##뉘":3800,"##컴":3801,"##념":3802,"##셀":3803,"##왜":3804,"##섣":3805,"##뼈":3806,"##챠":3807,"##앨":3808,"##렆":3809,"##겁":3810,"##둔":3811,"##썬":3812,"##촉":3813,"##웠":3814,"##햌":3815,"##떄":3816,"##셋":3817,"##취":3818,"##휘":3819,"##껀":3820,"##탠":3821,"##잒":3822,"##럈":3823,"##퐁":3824,"##뫄":3825,"##챤":3826,"##팁":3827,"##챙":3828,"##빵":3829,"##겻":3830,"##헿":3831,"##즹":3832,"##련":3833,"##환":3834,"##쇠":3835,"##꼐":3836,"##튼":3837,"##묘":3838,"##묭":3839,"##샣":3840,"##웨":3841,"##싱":3842,"##혹":3843,"##ㄶ":3844,"##뻗":3845,"##렬":3846,"##텼":3847,"##앰":3848,"##믄":3849,"##캬":3850,"##뽀":3851,"##ㅒ":3852,"##늬":3853,"##멈":3854,"##춘":3855,"##킷":3856,"##낀":3857,"##읍":3858,"##떡":3859,"##땅":3860,"##득":3861,"##덱":3862,"##굼":3863,"##털":3864,"##잏":3865,"##퍄":3866,"##싿":3867,"##웢":3868,"##냬":3869,"##랜":3870,"##빈":3871,"##퉤":3872,"##텥":3873,"##텝":3874,"##ㅞ":3875,"##츠":3876,"##둡":3877,"##댱":3878,"##앳":3879,"##맴":3880,"##착":3881,"##넚":3882,"##삐":3883,"##좌":3884,"##룸":3885,"##옮":3886,"##룩":3887,"##겪":3888,"##걍":3889,"##렐":3890,"##륭":3891,"##균":3892,"##욤":3893,"##뀌":3894,"##견":3895,"##맂":3896,"##륵":3897,"##특":3898,"##둥":3899,"##듭":3900,"##낫":3901,"##먀":3902,"##앺":3903,"##벼":3904,"##얽":3905,"##읎":3906,"##f":3907,"##롬":3908,"##궈":3909,"##6":3910,"##찰":3911,"##량":3912,"##뷰":3913,"##핳":3914,"##헙":3915,"##슺":3916,"##삼":3917,"##곰":3918,"##웤":3919,"##팩":3920,"##뚱":3921,"##혔":3922,"##틸":3923,"##젝":3924,"##빨":3925,"##켈":3926,"##렠":3927,"##렉":3928,"##폭":3929,"##짱":3930,"##철":3931,"##괴":3932,"##훅":3933,"##밓":3934,"##옾":3935,"##옥":3936,"##꼬":3937,"##쒯":3938,"##슧":3939,"##튀":3940,"##잭":3941,"##먕":3942,"##랸":3943,"##j":3944,"##늗":3945,"##잣":3946,"##솔":3947,"##닭":3948,"##팅":3949,"##멘":3950,"##띠":3951,"##낟":3952,"##쨰":3953,"##뉸":3954,"##쾌":3955,"##쥬":3956,"##닷":3957,"##룽":3958,"##깜":3959,"##블":3960,"##엡":3961,"##벅":3962,"##옆":3963,"##얘":3964,"##튜":3965,"##쟏":3966,"##넣":3967,"##깼":3968,"##땜":3969,"##뉨":3970,"##칍":3971,"##슬":3972,"##쩔":3973,"##덜":3974,"##껴":3975,"##꾼":3976,"##줲":3977,"##샤":3978,"##컵":3979,"##뺏":3980,"##뒤":3981,"##뉵":3982,"##늦":3983,"##ㅀ":3984,"##악":3985,"##녔":3986,"##쌔":3987,"##쑴":3988,"##희":3989,"##슥":3990,"##윽":3991,"##갰":3992,"##싷":3993,"##랩":3994,"##꺽":3995,"##맥":3996,"##롄":3997,"##힌":3998,"##슂":3999,"##썻":4000,"##숫":4001,"##돠":4002,"##졀":4003,"##훟":4004,"##맹":4005,"##탘":4006,"##콰":4007,"##렌":4008,"##핑":4009,"##뽕":4010,"##켄":4011,"##찜":4012,"##챴":4013,"##갱":4014,"##뀐":4015,"##갛":4016,"##딴":4017,"##팠":4018,"##닛":4019,"##꿨":4020,"##쯰":4021,"##덕":4022,"##췄":4023,"##졸":4024,"##늑":4025,"##뉭":4026,"##겆":4027,"##텔":4028,"##떤":4029,"##캉":4030,"##멸":4031,"##엠":4032,"##갤":4033,"##빛":4034,"##쎌":4035,"##앟":4036,"##봅":4037,"##짤":4038,"##듕":4039,"##홓":4040,"##팟":4041,"##템":4042,"##혁":4043,"##뚜":4044,"##찝":4045,"##긔":4046,"##눌":4047,"##덴":4048,"##뇼":4049,"##걷":4050,"##읽":4051,"##백":4052,"##콜":4053,"##닙":4054,"##샸":4055,"##꼥":4056,"##캣":4057,"##뒙":4058,"##쪼":4059,"##납":4060,"##듀":4061,"##샐":4062,"##썽":4063,"##딘":4064,"##뤼":4065,"##궸":4066,"##뤙":4067,"##놧":4068,"##갗":4069,"##랃":4070,"##뺴":4071,"##냄":4072,"##웰":4073,"##뷉":4074,"##킹":4075,"##끓":4076,"##델":4077,"##괜":4078,"##벗":4079,"##꽃":4080,"##쌩":4081,"##핱":4082,"##셉":4083,"##떨":4084,"##띄":4085,"##딖":4086,"##릎":4087,"##햤":4088,"##팝":4089,"##랏":4090,"##떔":4091,"##읔":4092,"##뺑":4093,"##샛":4094,"##딜":4095,"##또":4096,"##협":4097,"##혐":4098,"##푱":4099,"##헣":4100,"##걌":4101,"##텨":4102,"##좉":4103,"##참":4104,"##몽":4105,"##늫":4106,"##봬":4107,"##뫀":4108,"##럭":4109,"##핟":4110,"##휴":4111,"##셜":4112,"##흘":4113,"##눕":4114,"##늠":4115,"##웡":4116,"##팍":4117,"##햐":4118,"##봣":4119,"##옸":4120,"##녹":4121,"##줍":4122,"##갂":4123,"##릿":4124,"##앆":4125,"##뇌":4126,"##됮":4127,"##렾":4128,"##큨":4129,"##킼":4130,"##콬":4131,"##끗":4132,"##쏘":4133,"##빔":4134,"##숲":4135,"##짼":4136,"##낙":4137,"##럿":4138,"##갘":4139,"##쥼":4140,"##댓":4141,"##홰":4142,"##읭":4143,"##댐":4144,"##닞":4145,"##샅":4146,"##챗":4147,"##밑":4148,"##끽":4149,"##굨":4150,"##뎁":4151,"##씾":4152,"##멋":4153,"##쎄":4154,"##붜":4155,"##팥":4156,"##눼":4157,"##듦":4158,"##샀":4159,"##젹":4160,"##맷":4161,"##쬬":4162,"##앻":4163,"##얗":4164,"##멩":4165,"##벵":4166,"##쉐":4167,"##옄":4168,"##뚝":4169,"##첨":4170,"##곡":4171,"##긁":4172,"##흥":4173,"##곱":4174,"##짧":4175,"##쉴":4176,"##률":4177,"##첬":4178,"##쩍":4179,"##엙":4180,"##뱉":4181,"##욧":4182,"##앤":4183,"##쥰":4184,"##켓":4185,"##벤":4186,"##깃":4187,"##뎀":4188,"##멜":4189,"##풉":4190,"##킴":4191,"##붕":4192,"##옭":4193,"##닡":4194,"##첯":4195,"##읅":4196,"##훌":4197,"##셧":4198,"##둬":4199,"##햄":4200,"##껐":4201,"##틑":4202,"##뚫":4203,"##뒀":4204,"##쵸":4205,"##촵":4206,"##슘":4207,"##밨":4208,"##낄":4209,"##뤠":4210,"##싣":4211,"##츄":4212,"##릅":4213,"##핡":4214,"##뜰":4215,"##틴":4216,"##닜":4217,"##렛":4218,"##렷":4219,"##쇄":4220,"##푼":4221,"##콤":4222,"##뱔":4223,"##힏":4224,"##압":4225,"##A":4226,"##M":4227,"##E":4228,"##팬":4229,"##뿔":4230,"##끌":4231,"##띾":4232,"##얐":4233,"##눔":4234,"##뤕":4235,"##펐":4236,"##믐":4237,"##캠":4238,"##짌":4239,"##밴":4240,"##헨":4241,"##엏":4242,"##둠":4243,"##ㅘ":4244,"##됬":4245,"##겍":4246,"##엩":4247,"##웈":4248,"##볍":4249,"##쟤":4250,"##벙":4251,"##q":4252,"##갵":4253,"##잧":4254,"##딥":4255,"##깄":4256,"##콸":4257,"##딧":4258,"##쏭":4259,"##쿄":4260,"##몸":4261,"##눅":4262,"##쉑":4263,"##렺":4264,"##좆":4265,"##넨":4266,"##릇":4267,"##얍":4268,"##궜":4269,"##툼":4270,"##큘":4271,"##땨":4272,"##뒹":4273,"##논":4274,"##컹":4275,"##깊":4276,"##깉":4277,"##칫":4278,"##씬":4279,"##듬":4280,"##럾":4281,"##냦":4282,"##믿":4283,"##툭":4284,"##틔":4285,"##엑":4286,"##닫":4287,"##쩐":4288,"##펙":4289,"##윤":4290,"##릳":4291,"##떼":4292,"##늚":4293,"##긍":4294,"##펄":4295,"##뵤":4296,"##젿":4297,"##짖":4298,"##뎌":4299,"##짇":4300,"##쪄":4301,"##굔":4302,"##궐":4303,"##뛰":4304,"##헠":4305,"##륽":4306,"##홀":4307,"##웋":4308,"##붸":4309,"##멀":4310,"##뜸":4311,"##뭄":4312,"##덷":4313,"##믓":4314,"##쿤":4315,"##묻":4316,"##냠":4317,"##빕":4318,"##냫":4319,"##훔":4320,"##괘":4321,"##쌌":4322,"##숯":4323,"##멒":4324,"##틈":4325,"##숴":4326,"##넒":4327,"##맬":4328,"##쌓":4329,"##쉣":4330,"##챷":4331,"##객":4332,"##녖":4333,"##룠":4334,"##왛":4335,"##캄":4336,"##갠":4337,"##앜":4338,"##삿":4339,"##꼽":4340,"##듷":4341,"##옙":4342,"##쨌":4343,"##픔":4344,"##냨":4345,"##뻥":4346,"##싯":4347,"##캔":4348,"##겸":4349,"##땠":4350,"##핮":4351,"##껨":4352,"##붓":4353,"##꽈":4354,"##퉁":4355,"##쥥":4356,"##엌":4357,"##섬":4358,"##흫":4359,"##봥":4360,"##샘":4361,"##렙":4362,"##퉅":4363,"##윗":4364,"##풩":4365,"##쿸":4366,"##벏":4367,"##밧":4368,"##벳":4369,"##욹":4370,"##븰":4371,"##텀":4372,"##뮾":4373,"##쒈":4374,"##엮":4375,"##닏":4376,"##얻":4377,"##죰":4378,"##힇":4379,"##싀":4380,"##쑤":4381,"##쮜":4382,"##홍":4383,"##홈":4384,"##츤":4385,"##몇":4386,"##뿜":4387,"##쿜":4388,"##넴":4389,"##첩":4390,"##꼰":4391,"##됩":4392,"##헽":4393,"##첞":4394,"##짠":4395,"##밋":4396,"##륟":4397,"##쭤":4398,"##꺔":4399,"##잍":4400,"##잿":4401,"##붑":4402,"##욘":4403,"##싄":4404,"##왈":4405,"##횻":4406,"##랻":4407,"##꿑":4408,"##럳":4409,"##헥":4410,"##넥":4411,"##썹":4412,"##즉":4413,"##갼":4414,"##훼":4415,"##헸":4416,"##깠":4417,"##쫘":4418,"##엤":4419,"##밈":4420,"##핵":4421,"##텂":4422,"##늙":4423,"##앛":4424,"##꺠":4425,"##뭉":4426,"##뭇":4427,"##씌":4428,"##뎸":4429,"##껏":4430,"##ㅄ":4431,"##칵":4432,"##햏":4433,"##꼴":4434,"##낮":4435,"##슉":4436,"##댄":4437,"##펑":4438,"##및":4439,"##떴":4440,"##왐":4441,"##흠":4442,"##굮":4443,"##꾺":4444,"##떳":4445,"##딤":4446,"##ㅙ":4447,"##륙":4448,"##횡":4449,"##싰":4450,"##줔":4451,"##땀":4452,"##쒸":4453,"##붐":4454,"##밬":4455,"##냔":4456,"##삶":4457,"##ㅃ":4458,"##쁩":4459,"##댁":4460,"##잚":4461,"##컷":4462,"##맟":4463,"##략":4464,"##깎":4465,"##윙":4466,"##냊":4467,"##펌":4468,"##뙈":4469,"##췌":4470,"##잊":4471,"##릐":4472,"##틍":4473,"##넓":4474,"##꼼":4475,"##뱍":4476,"##닽":4477,"##벚":4478,"##둿":4479,"##턍":4480,"##칼":4481,"##엊":4482,"##콩":4483,"##믈":4484,"##녘":4485,"##옼":4486,"##싚":4487,"##냤":4488,"##떘":4489,"##셩":4490,"##줚":4491,"##얄":4492,"##맑":4493,"##됛":4494,"##녛":4495,"##둗":4496,"##냘":4497,"##긌":4498,"##끈":4499,"##븜":4500,"##쎼":4501,"##왂":4502,"##탉":4503,"##탙":4504,"##괄":4505,"##쌉":4506,"##냅":4507,"##탭":4508,"##곸":4509,"##랰":4510,"##떵":4511,"##쎈":4512,"##읕":4513,"##댑":4514,"##뉑":4515,"##힛":4516,"##왉":4517,"##뻘":4518,"##턱":4519,"##줅":4520,"##넬":4521,"##쨜":4522,"##딪":4523,"##휏":4524,"##숑":4525,"##뾰":4526,"##듄":4527,"##쮸":4528,"##뎃":4529,"##꺌":4530,"##먐":4531,"##휄":4532,"##잫":4533,"##맿":4534,"##젖":4535,"##캤":4536,"##젤":4537,"##껭":4538,"##웩":4539,"##샨":4540,"##푠":4541,"##엪":4542,"##팓":4543,"##삽":4544,"##흉":4545,"##븸":4546,"##껑":4547,"##높":4548,"##앋":4549,"##꺈":4550,"##숩":4551,"##딸":4552,"##펫":4553,"##덥":4554,"##쥠":4555,"##잗":4556,"##깸":4557,"##눴":4558,"##찟":4559,"##렑":4560,"##롥":4561,"##촥":4562,"##쯔":4563,"##턷":4564,"##넙":4565,"##쉉":4566,"##빳":4567,"##농":4568,"##씻":4569,"##퀄":4570,"##쫓":4571,"##맵":4572,"##닦":4573,"##겉":4574,"##뀔":4575,"##쥑":4576,"##럅":4577,"##룯":4578,"##팢":4579,"##닪":4580,"##깩":4581,"##욲":4582,"##뵐":4583,"##뺄":4584,"##쁠":4585,"##쪘":4586,"##녓":4587,"##돗":4588,"##븡":4589,"##롼":4590,"##릏":4591,"##썯":4592,"##늕":4593,"##헜":4594,"##엨":4595,"##윀":4596,"##윜":4597,"##왘":4598,"##쫏":4599,"##욪":4600,"##펠":4601,"##뤃":4602,"##햣":4603,"##핫":4604,"##헷":4605,"##뜯":4606,"##젶":4607,"##롸":4608,"##쭈":4609,"##븃":4610,"##짚":4611,"##뚤":4612,"##듸":4613,"##믇":4614,"##ㄵ":4615,"##웬":4616,"##긓":4617,"##컀":4618,"##벱":4619,"##덧":4620,"##룔":4621,"##덛":4622,"##벫":4623,"##텅":4624,"##흔":4625,"##줗":4626,"##빤":4627,"##앴":4628,"##룜":4629,"##융":4630,"##욬":4631,"##랳":4632,"##웹":4633,"##펜":4634,"##돔":4635,"##튠":4636,"##겿":4637,"##넡":4638,"##롣":4639,"##솥":4640,"##챡":4641,"##옶":4642,"##곗":4643,"##뻨":4644,"##솜":4645,"##렣":4646,"##쿡":4647,"##힙":4648,"##슽":4649,"##솝":4650,"##싵":4651,"##훙":4652,"##륨":4653,"##몀":4654,"##웕":4655,"##뢰":4656,"##헑":4657,"##갹":4658,"##룐":4659,"##웁":4660,"##쉿":4661,"##쩄":4662,"##뤈":4663,"##돵":4664,"##썩":4665,"##ㄽ":4666,"##싹":4667,"##븋":4668,"##킵":4669,"##킁":4670,"##ㄳ":4671,"##뿽":4672,"##섲":4673,"##앹":4674,"##읗":4675,"##묜":4676,"##뢴":4677,"##쯩":4678,"##됑":4679,"##긿":4680,"##멇":4681,"##잰":4682,"##쁨":4683,"##읒":4684,"##쥽":4685,"##꺳":4686,"##쿗":4687,"##읏":4688,"##ㄼ":4689,"##맇":4690,"##놏":4691,"##옫":4692,"##쾅":4693,"##맏":4694,"##겋":4695,"##굳":4696,"##총":4697,"##짢":4698,"##귤":4699,"##앶":4700,"##뺌":4701,"##쭉":4702,"##잽":4703,"##핀":4704,"##뱌":4705,"##앧":4706,"##칯":4707,"##눋":4708,"##옺":4709,"##찔":4710,"##겢":4711,"##슐":4712,"##쏠":4713,"##쪔":4714,"##숀":4715,"##닠":4716,"##빋":4717,"##췃":4718,"##뻠":4719,"##욳":4720,"##랗":4721,"##렿":4722,"##걵":4723,"##삉":4724,"##즙":4725,"##픽":4726,"##옂":4727,"##뵷":4728,"##ㅖ":4729,"##깬":4730,"##넏":4731,"##밙":4732,"##쑈":4733,"##땟":4734,"##씄":4735,"##잃":4736,"##넼":4737,"##닊":4738,"##솓":4739,"##댂":4740,"##욮":4741,"##륜":4742,"##겧":4743,"##윳":4744,"##빅":4745,"##둑":4746,"##쟀":4747,"##핚":4748,"##쨔":4749,"##녜":4750,"##롷":4751,"##킥":4752,"##돰":4753,"##싑":4754,"##늶":4755,"##뚠":4756,"##엍":4757,"##윈":4758,"##홧":4759,"##롹":4760,"##쉼":4761,"##렝":4762,"##폈":4763,"##엫":4764,"##뚯":4765,"##줏":4766,"##겊":4767,"##셤":4768,"##퍈":4769,"##춥":4770,"##핖":4771,"##룻":4772,"##젓":4773,"##찿":4774,"##딕":4775,"##뀜":4776,"##묶":4777,"##핢":4778,"##툽":4779,"##꼭":4780,"##짆":4781,"##읻":4782,"##최":4783,"##쟂":4784,"##뽄":4785,"##냎":4786,"##뷴":4787,"##굉":4788,"##졎":4789,"##셌":4790,"##뛴":4791,"##톷":4792,"##잦":4793,"##둣":4794,"##읋":4795,"##좔":4796,"##괨":4797,"##곶":4798,"##귿":4799,"##멧":4800,"##낑":4801,"##밝":4802,"##깧":4803,"##깰":4804,"##훃":4805,"##핻":4806,"##읃":4807,"##짬":4808,"##힝":4809,"##ㅢ":4810,"##줴":4811,"##웜":4812,"##읈":4813,"##뎡":4814,"##갅":4815,"##돨":4816,"##픙":4817,"##맀":4818,"##닣":4819,"##뢀":4820,"##뺐":4821,"##붛":4822,"##젛":4823,"##됌":4824,"##깥":4825,"##걳":4826,"##텃":4827,"##즨":4828,"##틱":4829,"##똪":4830,"##읆":4831,"##쉭":4832,"##랔":4833,"##럎":4834,"##컼":4835,"##읫":4836,"##띵":4837,"##떈":4838,"##팽":4839,"##쇽":4840,"##빰":4841,"##핬":4842,"##ㄾ":4843,"##벟":4844,"##윌":4845,"##쎙":4846,"##빗":4847,"##얒":4848,"##꼇":4849,"##홉":4850,"##뻤":4851,"##뻣":4852,"##깍":4853,"##딲":4854,"##끜":4855,"##룾":4856,"##떙":4857,"##탬":4858,"##긑":4859,"##칛":4860,"##갥":4861,"##웄":4862,"##퉵":4863,"##놰":4864,"##맣":4865,"##윔":4866,"##쨩":4867,"##땬":4868,"##곧":4869,"##겔":4870,"##앖":4871,"##찹":4872,"##뜩":4873,"##섵":4874,"##뤱":4875,"##캥":4876,"##굶":4877,"##죤":4878,"##쒄":4879,"##샥":4880,"##킅":4881,"##뭥":4882,"##맺":4883,"##앷":4884,"##쑐":4885,"##썌":4886,"##쨕":4887,"##딬":4888,"##퓬":4889,"##랉":4890,"##랕":4891,"##썸":4892,"##샬":4893,"##눟":4894,"##깁":4895,"##빱":4896,"##숟":4897,"##밯":4898,"##갯":4899,"##둪":4900,"##퓰":4901,"##퐈":4902,"##섹":4903,"##쬼":4904,"##떰":4905,"##팦":4906,"##짉":4907,"##픕":4908,"##늄":4909,"##넛":4910,"##솟":4911,"##츼":4912,"##힁":4913,"##띤":4914,"##듶":4915,"##봏":4916,"##겎":4917,"##딈":4918,"##쑦":4919,"##쭘":4920,"##괼":4921,"##젔":4922,"##굑":4923,"##늉":4924,"##왑":4925,"##걨":4926,"##섑":4927,"##댸":4928,"##귱":4929,"##륻":4930,"##컄":4931,"##줜":4932,"##욌":4933,"##츕":4934,"##뎋":4935,"##쿰":4936,"##얾":4937,"##뮁":4938,"##뎨":4939,"##풔":4940,"##댯":4941,"##눞":4942,"##깋":4943,"##닾":4944,"##챵":4945,"##핶":4946,"##퐉":4947,"##샇":4948,"##앀":4949,"##왼":4950,"##둉":4951,"##맢":4952,"##햃":4953,"##릠":4954,"##퀀":4955,"##끕":4956,"##뗄":4957,"##욨":4958,"##촨":4959,"##쓔":4960,"##헗":4961,"##곃":4962,"##릯":4963,"##썾":4964,"##콧":4965,"##뚸":4966,"##켕":4967,"##듈":4968,"##낲":4969,"##맫":4970,"##멤":4971,"##믹":4972,"##킈":4973,"##킠":4974,"##셭":4975,"##ㄿ":4976,"##렘":4977,"##쟌":4978,"##췸":4979,"##렫":4980,"##짙":4981,"##궞":4982,"##긒":4983,"##욺":4984,"##옛":4985,"##졈":4986,"##웆":4987,"##뻑":4988,"##뫃":4989,"##횽":4990,"##궝":4991,"##뒁":4992,"##핏":4993,"##끅":4994,"##뎉":4995,"##캌":4996,"##흡":4997,"##갿":4998,"##풓":4999,"##빻":5000,"##럇":5001,"##욾":5002,"##칱":5003,"##뀡":5004,"##넞":5005,"##핼":5006,"##읾":5007,"##둴":5008,"##꿧":5009,"##싁":5010,"##삘":5011,"##텍":5012,"##곺":5013,"##쳨":5014,"##휑":5015,"##걀":5016,"##슿":5017,"##킇":5018,"##틓":5019,"##컫":5020,"##줉":5021,"##픞":5022,"##냪":5023,"##앝":5024,"##쉘":5025,"##웧":5026,"##똒":5027,"##랖":5028,"##뽜":5029,"##쥄":5030,"##귬":5031,"##싪":5032,"##륏":5033,"##젆":5034,"##뵈":5035,"##찓":5036,"##렄":5037,"##덭":5038,"##윰":5039,"##퓽":5040,"##쯈":5041,"##냇":5042,"##웱":5043,"##룫":5044,"##놑":5045,"##뮹":5046,"##럣":5047,"##똫":5048,"##츦":5049,"##눚":5050,"##힉":5051,"##텻":5052,"##넵":5053,"##렓":5054,"##됴":5055,"##볐":5056,"##늰":5057,"##핗":5058,"##엶":5059,"##젼":5060,"##덯":5061,"##좃":5062,"##갇":5063,"##솩":5064,"##숔":5065,"##랱":5066,"##깻":5067,"##뚐":5068,"##낯":5069,"##붖":5070,"##좁":5071,"##붗":5072,"##굤":5073,"##띃":5074,"##샜":5075,"##낱":5076,"##죴":5077,"##얶":5078,"##싴":5079,"##쫙":5080,"##꽊":5081,"##귺":5082,"##끠":5083,"##툴":5084,"##쨈":5085,"##륌":5086,"##얃":5087,"##쟞":5088,"##톰":5089,"##싈":5090,"##딮":5091,"##멓":5092,"##륑":5093,"##퍽":5094,"##밠":5095,"##곁":5096,"##숳":5097,"##얔":5098,"##곷":5099,"##쩜":5100,"##눜":5101,"##쨋":5102,"##넿":5103,"##댤":5104,"##웽":5105,"##쳘":5106,"##햔":5107,"##옃":5108,"##낞":5109,"##쳥":5110,"##풒":5111,"##눨":5112,"##톨":5113,"##쪙":5114,"##긝":5115,"##섕":5116,"##궷":5117,"##쉥":5118,"##빽":5119,"##붤":5120,"##젣":5121,"##븗":5122,"##톹":5123,"##핸":5124,"##숵":5125,"##돟":5126,"##듢":5127,"##됳":5128,"##땔":5129,"##엋":5130,"##솦":5131,"##씪":5132,"##푤":5133,"##눤":5134,"##춧":5135,"##됰":5136,"##뵘":5137,"##픠":5138,"##칰":5139,"##삔":5140,"##퐃":5141,"##븱":5142,"##큩":5143,"##렼":5144,"##댝":5145,"##윅":5146,"##뭘":5147,"##갷":5148,"##뗘":5149,"##쩊":5150,"##퍠":5151,"##탛":5152,"##앚":5153,"##쟡":5154,"##죔":5155,"##켯":5156,"##퐤":5157,"##햅":5158,"##늼":5159,"##캅":5160,"##졓":5161,"##뺠":5162,"##젯":5163,"##겈":5164,"##껫":5165,"##웇":5166,"##똘":5167,"##뎠":5168,"##탍":5169,"##꽉":5170,"##궂":5171,"##읓":5172,"##볕":5173,"##솨":5174,"##튤":5175,"##삥":5176,"##줙":5177,"##춱":5178,"##흏":5179,"##딯":5180,"##팧":5181,"##꺾":5182,"##맸":5183,"##갬":5184,"##쟉":5185,"##긏":5186,"##롲":5187,"##쎔":5188,"##뎦":5189,"##럻":5190,"##숍":5191,"##읐":5192,"##엱":5193,"##헹":5194,"##됃":5195,"##먿":5196,"##샂":5197,"##덢":5198,"##싮":5199,"##뵜":5200,"##슙":5201,"##꽂":5202,"##앿":5203,"##훗":5204,"##옌":5205,"##찯":5206,"##굿":5207,"##곻":5208,"##맜":5209,"##섴":5210,"##늪":5211,"##쟐":5212,"##샊":5213,"##믁":5214,"##놤":5215,"##혓":5216,"##찱":5217,"##햘":5218,"##픵":5219,"##끵":5220,"##찼":5221,"##픃":5222,"##춌":5223,"##퍚":5224,"##켁":5225,"##뷸":5226,"##혆":5227,"##둦":5228,"##꺘":5229,"##푝":5230,"##엲":5231,"##쨍":5232,"##흗":5233,"##얕":5234,"##웎":5235,"##밎":5236,"##욐":5237,"##슼":5238,"##뤫":5239,"##챃":5240,"##얖":5241,"##겾":5242,"##롯":5243,"##슢":5244,"##콕":5245,"##곕":5246,"##샃":5247,"##푹":5248,"##쫀":5249,"##깈":5250,"##틐":5251,"##엳":5252,"##넟":5253,"##뤵":5254,"##뱃":5255,"##끆":5256,"##삑":5257,"##댛":5258,"##슁":5259,"##풋":5260,"##뵀":5261,"##툐":5262,"##뇬":5263,"##렦":5264,"##빚":5265,"##줐":5266,"##붘":5267,"##샢":5268,"##붋":5269,"##쟘":5270,"##낗":5271,"##칮":5272,"##핥":5273,"##뱅":5274,"##뛸":5275,"##귗":5276,"##펃":5277,"##듫":5278,"##돕":5279,"##숼":5280,"##탗":5281,"##퓯":5282,"##엗":5283,"##뭍":5284,"##팤":5285,"##뜀":5286,"##젙":5287,"##셰":5288,"##꾹":5289,"##퉛":5290,"##댬":5291,"##룝":5292,"##곘":5293,"##둫":5294,"##훋":5295,"##졒":5296,"##쌋":5297,"##묨":5298,"##뭋":5299,"##햋":5300,"##겇":5301,"##튕":5302,"##륹":5303,"##웞":5304,"##럵":5305,"##흓":5306,"##땁":5307,"##셬":5308,"##듁":5309,"##짏":5310,"##놐":5311,"##젏":5312,"##싐":5313,"##켬":5314,"##뵙":5315,"##냡":5316,"##꿍":5317,"##뮨":5318,"##띨":5319,"##늴":5320,"##뷔":5321,"##뀨":5322,"##웉":5323,"##붇":5324,"##뭏":5325,"##굄":5326,"##됔":5327,"##뗀":5328,"##곈":5329,"##깢":5330,"##럯":5331,"##묹":5332,"##왱":5333,"##챱":5334,"##싕":5335,"##굥":5336,"##짯":5337,"##횃":5338,"##픗":5339,"##믛":5340,"##닢":5341,"##퉆":5342,"##졷":5343,"##벋":5344,"##맠":5345,"##긇":5346,"##랅":5347,"##렏":5348,"##뺀":5349,"##쨖":5350,"##첫":5351,"##뚬":5352,"##앓":5353,"##캗":5354,"##흙":5355,"##뜽":5356,"##댇":5357,"##퍌":5358,"##겓":5359,"##겯":5360,"##켘":5361,"##쥴":5362,"##쁀":5363,"##젇":5364,"##깇":5365,"##닳":5366,"##뛔":5367,"##쯜":5368,"##냣":5369,"##쑥":5370,"##뿡":5371,"##쯉":5372,"##욷":5373,"##썅":5374,"##쉰":5375,"##촐":5376,"##뱆":5377,"##얇":5378,"##몫":5379,"##쎵":5380,"##짗":5381,"##밒":5382,"##곦":5383,"##쟜":5384,"##괵":5385,"##ㅟ":5386,"##볽":5387,"##쵹":5388,"##뻡":5389,"##큽":5390,"##줼":5391,"##첝":5392,"##빆":5393,"##몹":5394,"##쀠":5395,"##뚣":5396,"##짰":5397,"##싺":5398,"##짹":5399,"##꿉":5400,"##늊":5401,"##죡":5402,"##웒":5403,"##툤":5404,"##넢":5405,"##햫":5406,"##걹":5407,"##깟":5408,"##얂":5409,"##탯":5410,"##핌":5411,"##굘":5412,"##싡":5413,"##갉":5414,"##웥":5415,"##낵":5416,"##뿨":5417,"##븍":5418,"##뚭":5419,"##쐬":5420,"##럐":5421,"##랼":5422,"##랂":5423,"##잴":5424,"##솣":5425,"##밞":5426,"##쳠":5427,"##즣":5428,"##줖":5429,"##댣":5430,"##댲":5431,"##줃":5432,"##늌":5433,"##릍":5434,"##쓲":5435,"##숱":5436,"##헀":5437,"##닸":5438,"##랮":5439,"##톼":5440,"##펏":5441,"##쳒":5442,"##땄":5443,"##낰":5444,"##쥭":5445,"##츷":5446,"##ㅋㅋ":5447,"##ㅋㅋㅋ":5448,"##는데":5449,"아니":5450,"ㅋㅋㅋ":5451,"진짜":5452,"##는거":5453,"NA":5454,"##ME":5455,"NAME":5456,"너무":5457,"내가":5458,"나도":5459,"그냥":5460,"##으로":5461,"근데":5462,"##야지":5463,"그래":5464,"##니까":5465,"오늘":5466,"##고싶":5467,"그런":5468,"##에서":5469,"지금":5470,"##렇게":5471,"이제":5472,"##니다":5473,"##하고":5474,"##으면":5475,"##이야":5476,"어떻":5477,"어떻게":5478,"##다고":5479,"##거야":5480,"##ㅎㅎ":5481,"그거":5482,"우리":5483,"##어서":5484,"그럼":5485,"##하는":5486,"##하면":5487,"##라고":5488,"##인데":5489,"그러":5490,"이거":5491,"##다가":5492,"##아아":5493,"##겠다":5494,"생각":5495,"운동":5496,"학교":5497,"##거같":5498,"##해서":5499,"하고":5500,"##구나":5501,"##까지":5502,"##시간":5503,"##은데":5504,"##이라":5505,"내일":5506,"##ㄱㅋ":5507,"아무":5508,"##들어":5509,"모르":5510,"##하지":5511,"미친":5512,"그래서":5513,"##ㅠㅠ":5514,"##한테":5515,"사람":5516,"##세요":5517,"많이":5518,"##리고":5519,"아직":5520,"##것도":5521,"존나":5522,"##는게":5523,"##이랑":5524,"뭐야":5525,"##이지":5526,"##00":5527,"하면":5528,"##는중":5529,"##는거야":5530,"친구":5531,"들어":5532,"하나":5533,"##아서":5534,"##고있":5535,"그럴":5536,"##부터":5537,"해야":5538,"그건":5539,"##해야":5540,"이런":5541,"##자기":5542,"ㄹㅇ":5543,"이게":5544,"##잖아":5545,"ㅋㅋㅋㅋㅋ":5546,"##인가":5547,"그게":5548,"얼른":5549,"다시":5550,"하지":5551,"##려고":5552,"갑자기":5553,"##는건":5554,"##었어":5555,"##하게":5556,"왜이":5557,"이미":5558,"시간":5559,"그렇게":5560,"언제":5561,"너가":5562,"##고싶다":5563,"애들":5564,"##어어":5565,"어디":5566,"그런거":5567,"나는":5568,"이렇게":5569,"아이":5570,"한번":5571,"##것은":5572,"어제":5573,"좋아":5574,"다른":5575,"##아ㅏ":5576,"너도":5577,"##정도":5578,"##ㅅㅋ":5579,"##을까":5580,"머리":5581,"수업":5582,"##했어":5583,"##더라":5584,"괜찮":5585,"##하는데":5586,"##수있":5587,"공부":5588,"##겠지":5589,"##었는데":5590,"##한다":5591,"##이나":5592,"사실":5593,"미쳤":5594,"10":5595,"바로":5596,"##심히":5597,"##시에":5598,"##습니다":5599,"ㅋㅋ":5600,"무슨":5601,"사진":5602,"몰라":5603,"저거":5604,"빨리":5605,"##하다":5606,"ㅅㅂ":5607,"##대로":5608,"정신":5609,"##면서":5610,"있어":5611,"재밌":5612,"같이":5613,"##입니다":5614,"아니야":5615,"ㅎㅎ":5616,"##거든":5617,"하기":5618,"그렇":5619,"열심히":5620,"##그래":5621,"문제":5622,"힘들":5623,"기분":5624,"##구만":5625,"하자":5626,"##소리":5627,"##한거":5628,"그리고":5629,"이상":5630,"원래":5631,"없어":5632,"안되":5633,"그래도":5634,"보내":5635,"##은거":5636,"##이다":5637,"일단":5638,"여기":5639,"계속":5640,"시발":5641,"##지고":5642,"##겠어":5643,"맛있":5644,"##했는데":5645,"##길래":5646,"귀찮":5647,"안돼":5648,"응원":5649,"에바":5650,"다음":5651,"하는":5652,"##어야":5653,"얼마":5654,"##시지":5655,"##가서":5656,"요즘":5657,"피곤":5658,"##지게":5659,"진정":5660,"뭐가":5661,"##거같아":5662,"##ㄱㅋㄱ":5663,"이번":5664,"삭제":5665,"일어":5666,"대충":5667,"보고":5668,"##하네":5669,"##이네":5670,"##요일":5671,"게임":5672,"소설":5673,"오늘은":5674,"이것은":5675,"엄청":5676,"##사람":5677,"안해":5678,"밥먹":5679,"##지는":5680,"##지만":5681,"##보다":5682,"아침":5683,"##이터":5684,"##0분":5685,"메시지":5686,"왜이렇게":5687,"아닌":5688,"##는거지":5689,"엄마":5690,"##수도":5691,"죽을":5692,"취업":5693,"파일":5694,"##밖에":5695,"싫어":5696,"##새끼":5697,"눈물":5698,"뭐라":5699,"좋은":5700,"##겠네":5701,"##보고":5702,"누나":5703,"이러":5704,"고생":5705,"방금":5706,"##냐고":5707,"##해야지":5708,"##ㅜㅜ":5709,"했는데":5710,"##그러":5711,"전화":5712,"나가":5713,"##것으로":5714,"##하자":5715,"##있어":5716,"뭔가":5717,"일찍":5718,"삭제된":5719,"이걸":5720,"가능":5721,"물어":5722,"##것같":5723,"##중에":5724,"##되는데":5725,"메시지입니다":5726,"처음":5727,"인생":5728,"하루":5729,"##으니까":5730,"나오":5731,"안나":5732,"힘들어":5733,"##이면":5734,"##학교":5735,"거기":5736,"##했다":5737,"##았어":5738,"##더니":5739,"이해":5740,"프로":5741,"##아니":5742,"##고싶어":5743,"알아":5744,"해야지":5745,"잘못":5746,"##네ㅋㅋㅋ":5747,"먹어":5748,"##버리":5749,"카톡":5750,"혼자":5751,"##거임":5752,"아니라":5753,"지금은":5754,"안좋":5755,"##하는거":5756,"##간다":5757,"##기가":5758,"아마":5759,"##인지":5760,"아니면":5761,"##하나":5762,"뭐야ㅋㅋㅋ":5763,"아무것도":5764,"시작":5765,"말고":5766,"찾아":5767,"##던데":5768,"##ㅎㅋ":5769,"##버렸":5770,"##해보":5771,"##들이":5772,"##어ㅓ":5773,"기억":5774,"만들":5775,"##지마":5776,"##나서":5777,"누구":5778,"없다":5779,"조금":5780,"##리가":5781,"##스크":5782,"얼마나":5783,"느낌":5784,"않아":5785,"고민":5786,"##와서":5787,"그러면":5788,"12":5789,"자살":5790,"##었다":5791,"가서":5792,"그럴수있":5793,"집에":5794,"##하기":5795,"개웃":5796,"먹고":5797,"##라는":5798,"안보":5799,"얘기":5800,"##려서":5801,"##았는데":5802,"고양":5803,"다행":5804,"별로":5805,"오지게":5806,"아무튼":5807,"맘에":5808,"##지도":5809,"만들어":5810,"아주":5811,"이따":5812,"화이":5813,"노래":5814,"##는다":5815,"##자나":5816,"##아아ㅏ":5817,"##한데":5818,"누가":5819,"아니ㅋㅋㅋ":5820,"버스":5821,"집가":5822,"이름":5823,"##이고":5824,"그때":5825,"##이가":5826,"##리는":5827,"##같은":5828,"시험":5829,"거의":5830,"노트":5831,"먼저":5832,"##어요":5833,"ㅇㅇ":5834,"귀여":5835,"아까":5836,"과제":5837,"살아":5838,"저녁":5839,"##전에":5840,"##ㄴㅇ":5841,"##볼게":5842,"웹툰":5843,"있는":5844,"##검색":5845,"##을때":5846,"늦게":5847,"샵검색":5848,"##젝트":5849,"아직도":5850,"졸려":5851,"##ㅠㅜ":5852,"그랬":5853,"가져":5854,"전에":5855,"##합니다":5856,"대체":5857,"아파":5858,"##거같은데":5859,"너네":5860,"씻고":5861,"얼굴":5862,"##가는":5863,"##려주":5864,"##ㅎㅎㅎ":5865,"사람이":5866,"##ㄱㅋㄱㅋ":5867,"미친ㅋㅋㅋ":5868,"발표":5869,"##하하":5870,"##건가":5871,"##야겠다":5872,"연락":5873,"해서":5874,"되게":5875,"맨날":5876,"안먹":5877,"##워서":5878,"##할게":5879,"##자너":5880,"##이스":5881,"그걸":5882,"행복":5883,"기다":5884,"개발":5885,"제일":5886,"##거나":5887,"아님":5888,"않을까":5889,"점심":5890,"##가지":5891,"##만에":5892,"노트북":5893,"미치":5894,"영화":5895,"필요":5896,"그만":5897,"정말":5898,"코드":5899,"##에요":5900,"##난다":5901,"모르겠":5902,"완전":5903,"있는데":5904,"##았다":5905,"프로젝트":5906,"##교시":5907,"보면":5908,"##마다":5909,"##해주":5910,"##해도":5911,"끝나":5912,"##일이":5913,"##문에":5914,"미쳐":5915,"##에는":5916,"당신":5917,"저번":5918,"할게":5919,"##er":5920,"##ㅠㅠㅠ":5921,"화이팅":5922,"짜증":5923,"치킨":5924,"소리":5925,"하지만":5926,"11":5927,"데이터":5928,"##동안":5929,"있음":5930,"돌아":5931,"해보":5932,"고양이":5933,"있으면":5934,"조져":5935,"##로나":5936,"동생":5937,"한다":5938,"겁나":5939,"##하세요":5940,"##놓고":5941,"##라이":5942,"##단다":5943,"스트":5944,"우린":5945,"있었":5946,"했어":5947,"이모":5948,"죽어":5949,"나랑":5950,"대단":5951,"한데":5952,"##거지":5953,"##적으로":5954,"##생각":5955,"##라도":5956,"벌써":5957,"##이었":5958,"하는데":5959,"##처럼":5960,"ㅋㅅㅋ":5961,"선물":5962,"##에에":5963,"##학년":5964,"사라":5965,"##해ㅋㅋㅋ":5966,"##명이":5967,"##텐데":5968,"##다니":5969,"##스트":5970,"##으니":5971,"나만":5972,"미안":5973,"##다는":5974,"##디어":5975,"##기도":5976,"##할까":5977,"ㅋㄱㅋㄱ":5978,"개학":5979,"파이":5980,"##가야":5981,"##가면":5982,"##000":5983,"그럴수있지":5984,"세상":5985,"최고":5986,"해봐":5987,"##지막":5988,"##리면":5989,"오늘도":5990,"놀아":5991,"영상":5992,"자야지":5993,"##애들":5994,"##레이":5995,"##하고있":5996,"디코":5997,"20":5998,"못해":5999}}}