{"version":"1.0","truncation":null,"padding":null,"added_tokens":[{"id":0,"special":true,"content":"[PAD]","single_word":false,"lstrip":false,"rstrip":false,"normalized":false},{"id":1,"special":true,"content":"[UNK]","single_word":false,"lstrip":false,"rstrip":false,"normalized":false},{"id":2,"special":true,"content":"[CLS]","single_word":false,"lstrip":false,"rstrip":false,"normalized":false},{"id":3,"special":true,"content":"[SEP]","single_word":false,"lstrip":false,"rstrip":false,"normalized":false},{"id":4,"special":true,"content":"[MASK]","single_word":false,"lstrip":false,"rstrip":false,"normalized":false},{"id":5,"special":true,"content":"[SEPT]","single_word":false,"lstrip":false,"rstrip":false,"normalized":false},{"id":6,"special":true,"content":"[NAME]","single_word":false,"lstrip":false,"rstrip":false,"normalized":false},{"id":7,"special":true,"content":"[BOS]","single_word":false,"lstrip":false,"rstrip":false,"normalized":false},{"id":8,"special":true,"content":"[EOS]","single_word":false,"lstrip":false,"rstrip":false,"normalized":false},{"id":9,"special":true,"content":"[UNK0]","single_word":false,"lstrip":false,"rstrip":false,"normalized":false},{"id":10,"special":true,"content":"[UNK1]","single_word":false,"lstrip":false,"rstrip":false,"normalized":false},{"id":11,"special":true,"content":"[UNK2]","single_word":false,"lstrip":false,"rstrip":false,"normalized":false},{"id":12,"special":true,"content":"[UNK3]","single_word":false,"lstrip":false,"rstrip":false,"normalized":false},{"id":13,"special":true,"content":"[UNK4]","single_word":false,"lstrip":false,"rstrip":false,"normalized":false},{"id":14,"special":true,"content":"[UNK5]","single_word":false,"lstrip":false,"rstrip":false,"normalized":false},{"id":15,"special":true,"content":"[UNK6]","single_word":false,"lstrip":false,"rstrip":false,"normalized":false},{"id":16,"special":true,"content":"[UNK7]","single_word":false,"lstrip":false,"rstrip":false,"normalized":false},{"id":17,"special":true,"content":"[UNK8]","single_word":false,"lstrip":false,"rstrip":false,"normalized":false},{"id":18,"special":true,"content":"[UNK9]","single_word":false,"lstrip":false,"rstrip":false,"normalized":false},{"id":19,"special":true,"content":"[unused0]","single_word":false,"lstrip":false,"rstrip":false,"normalized":false},{"id":20,"special":true,"content":"[unused1]","single_word":false,"lstrip":false,"rstrip":false,"normalized":false},{"id":21,"special":true,"content":"[unused2]","single_word":false,"lstrip":false,"rstrip":false,"normalized":false},{"id":22,"special":true,"content":"[unused3]","single_word":false,"lstrip":false,"rstrip":false,"normalized":false},{"id":23,"special":true,"content":"[unused4]","single_word":false,"lstrip":false,"rstrip":false,"normalized":false},{"id":24,"special":true,"content":"[unused5]","single_word":false,"lstrip":false,"rstrip":false,"normalized":false},{"id":25,"special":true,"content":"[unused6]","single_word":false,"lstrip":false,"rstrip":false,"normalized":false},{"id":26,"special":true,"content":"[unused7]","single_word":false,"lstrip":false,"rstrip":false,"normalized":false},{"id":27,"special":true,"content":"[unused8]","single_word":false,"lstrip":false,"rstrip":false,"normalized":false},{"id":28,"special":true,"content":"[unused9]","single_word":false,"lstrip":false,"rstrip":false,"normalized":false},{"id":29,"special":true,"content":"[unused10]","single_word":false,"lstrip":false,"rstrip":false,"normalized":false},{"id":30,"special":true,"content":"[unused11]","single_word":false,"lstrip":false,"rstrip":false,"normalized":false},{"id":31,"special":true,"content":"[unused12]","single_word":false,"lstrip":false,"rstrip":false,"normalized":false},{"id":32,"special":true,"content":"[unused13]","single_word":false,"lstrip":false,"rstrip":false,"normalized":false},{"id":33,"special":true,"content":"[unused14]","single_word":false,"lstrip":false,"rstrip":false,"normalized":false},{"id":34,"special":true,"content":"[unused15]","single_word":false,"lstrip":false,"rstrip":false,"normalized":false},{"id":35,"special":true,"content":"[unused16]","single_word":false,"lstrip":false,"rstrip":false,"normalized":false},{"id":36,"special":true,"content":"[unused17]","single_word":false,"lstrip":false,"rstrip":false,"normalized":false},{"id":37,"special":true,"content":"[unused18]","single_word":false,"lstrip":false,"rstrip":false,"normalized":false},{"id":38,"special":true,"content":"[unused19]","single_word":false,"lstrip":false,"rstrip":false,"normalized":false},{"id":39,"special":true,"content":"[unused20]","single_word":false,"lstrip":false,"rstrip":false,"normalized":false},{"id":40,"special":true,"content":"[unused21]","single_word":false,"lstrip":false,"rstrip":false,"normalized":false},{"id":41,"special":true,"content":"[unused22]","single_word":false,"lstrip":false,"rstrip":false,"normalized":false},{"id":42,"special":true,"content":"[unused23]","single_word":false,"lstrip":false,"rstrip":false,"normalized":false},{"id":43,"special":true,"content":"[unused24]","single_word":false,"lstrip":false,"rstrip":false,"normalized":false},{"id":44,"special":true,"content":"[unused25]","single_word":false,"lstrip":false,"rstrip":false,"normalized":false},{"id":45,"special":true,"content":"[unused26]","single_word":false,"lstrip":false,"rstrip":false,"normalized":false},{"id":46,"special":true,"content":"[unused27]","single_word":false,"lstrip":false,"rstrip":false,"normalized":false},{"id":47,"special":true,"content":"[unused28]","single_word":false,"lstrip":false,"rstrip":false,"normalized":false},{"id":48,"special":true,"content":"[unused29]","single_word":false,"lstrip":false,"rstrip":false,"normalized":false},{"id":49,"special":true,"content":"[unused30]","single_word":false,"lstrip":false,"rstrip":false,"normalized":false},{"id":50,"special":true,"content":"[unused31]","single_word":false,"lstrip":false,"rstrip":false,"normalized":false},{"id":51,"special":true,"content":"[unused32]","single_word":false,"lstrip":false,"rstrip":false,"normalized":false},{"id":52,"special":true,"content":"[unused33]","single_word":false,"lstrip":false,"rstrip":false,"normalized":false},{"id":53,"special":true,"content":"[unused34]","single_word":false,"lstrip":false,"rstrip":false,"normalized":false},{"id":54,"special":true,"content":"[unused35]","single_word":false,"lstrip":false,"rstrip":false,"normalized":false},{"id":55,"special":true,"content":"[unused36]","single_word":false,"lstrip":false,"rstrip":false,"normalized":false},{"id":56,"special":true,"content":"[unused37]","single_word":false,"lstrip":false,"rstrip":false,"normalized":false},{"id":57,"special":true,"content":"[unused38]","single_word":false,"lstrip":false,"rstrip":false,"normalized":false},{"id":58,"special":true,"content":"[unused39]","single_word":false,"lstrip":false,"rstrip":false,"normalized":false},{"id":59,"special":true,"content":"[unused40]","single_word":false,"lstrip":false,"rstrip":false,"normalized":false},{"id":60,"special":true,"content":"[unused41]","single_word":false,"lstrip":false,"rstrip":false,"normalized":false},{"id":61,"special":true,"content":"[unused42]","single_word":false,"lstrip":false,"rstrip":false,"normalized":false},{"id":62,"special":true,"content":"[unused43]","single_word":false,"lstrip":false,"rstrip":false,"normalized":false},{"id":63,"special":true,"content":"[unused44]","single_word":false,"lstrip":false,"rstrip":false,"normalized":false},{"id":64,"special":true,"content":"[unused45]","single_word":false,"lstrip":false,"rstrip":false,"normalized":false},{"id":65,"special":true,"content":"[unused46]","single_word":false,"lstrip":false,"rstrip":false,"normalized":false},{"id":66,"special":true,"content":"[unused47]","single_word":false,"lstrip":false,"rstrip":false,"normalized":false},{"id":67,"special":true,"content":"[unused48]","single_word":false,"lstrip":false,"rstrip":false,"normalized":false},{"id":68,"special":true,"content":"[unused49]","single_word":false,"lstrip":false,"rstrip":false,"normalized":false},{"id":69,"special":true,"content":"[unused50]","single_word":false,"lstrip":false,"rstrip":false,"normalized":false},{"id":70,"special":true,"content":"[unused51]","single_word":false,"lstrip":false,"rstrip":false,"normalized":false},{"id":71,"special":true,"content":"[unused52]","single_word":false,"lstrip":false,"rstrip":false,"normalized":false},{"id":72,"special":true,"content":"[unused53]","single_word":false,"lstrip":false,"rstrip":false,"normalized":false},{"id":73,"special":true,"content":"[unused54]","single_word":false,"lstrip":false,"rstrip":false,"normalized":false},{"id":74,"special":true,"content":"[unused55]","single_word":false,"lstrip":false,"rstrip":false,"normalized":false},{"id":75,"special":true,"content":"[unused56]","single_word":false,"lstrip":false,"rstrip":false,"normalized":false},{"id":76,"special":true,"content":"[unused57]","single_word":false,"lstrip":false,"rstrip":false,"normalized":false},{"id":77,"special":true,"content":"[unused58]","single_word":false,"lstrip":false,"rstrip":false,"normalized":false},{"id":78,"special":true,"content":"[unused59]","single_word":false,"lstrip":false,"rstrip":false,"normalized":false},{"id":79,"special":true,"content":"[unused60]","single_word":false,"lstrip":false,"rstrip":false,"normalized":false},{"id":80,"special":true,"content":"[unused61]","single_word":false,"lstrip":false,"rstrip":false,"normalized":false},{"id":81,"special":true,"content":"[unused62]","single_word":false,"lstrip":false,"rstrip":false,"normalized":false},{"id":82,"special":true,"content":"[unused63]","single_word":false,"lstrip":false,"rstrip":false,"normalized":false},{"id":83,"special":true,"content":"[unused64]","single_word":false,"lstrip":false,"rstrip":false,"normalized":false},{"id":84,"special":true,"content":"[unused65]","single_word":false,"lstrip":false,"rstrip":false,"normalized":false},{"id":85,"special":true,"content":"[unused66]","single_word":false,"lstrip":false,"rstrip":false,"normalized":false},{"id":86,"special":true,"content":"[unused67]","single_word":false,"lstrip":false,"rstrip":false,"normalized":false},{"id":87,"special":true,"content":"[unused68]","single_word":false,"lstrip":false,"rstrip":false,"normalized":false},{"id":88,"special":true,"content":"[unused69]","single_word":false,"lstrip":false,"rstrip":false,"normalized":false},{"id":89,"special":true,"content":"[unused70]","single_word":false,"lstrip":false,"rstrip":false,"normalized":false},{"id":90,"special":true,"content":"[unused71]","single_word":false,"lstrip":false,"rstrip":false,"normalized":false},{"id":91,"special":true,"content":"[unused72]","single_word":false,"lstrip":false,"rstrip":false,"normalized":false},{"id":92,"special":true,"content":"[unused73]","single_word":false,"lstrip":false,"rstrip":false,"normalized":false},{"id":93,"special":true,"content":"[unused74]","single_word":false,"lstrip":false,"rstrip":false,"normalized":false},{"id":94,"special":true,"content":"[unused75]","single_word":false,"lstrip":false,"rstrip":false,"normalized":false},{"id":95,"special":true,"content":"[unused76]","single_word":false,"lstrip":false,"rstrip":false,"normalized":false},{"id":96,"special":true,"content":"[unused77]","single_word":false,"lstrip":false,"rstrip":false,"normalized":false},{"id":97,"special":true,"content":"[unused78]","single_word":false,"lstrip":false,"rstrip":false,"normalized":false},{"id":98,"special":true,"content":"[unused79]","single_word":false,"lstrip":false,"rstrip":false,"normalized":false},{"id":99,"special":true,"content":"[unused80]","single_word":false,"lstrip":false,"rstrip":false,"normalized":false},{"id":100,"special":true,"content":"[unused81]","single_word":false,"lstrip":false,"rstrip":false,"normalized":false},{"id":101,"special":true,"content":"[unused82]","single_word":false,"lstrip":false,"rstrip":false,"normalized":false},{"id":102,"special":true,"content":"[unused83]","single_word":false,"lstrip":false,"rstrip":false,"normalized":false},{"id":103,"special":true,"content":"[unused84]","single_word":false,"lstrip":false,"rstrip":false,"normalized":false},{"id":104,"special":true,"content":"[unused85]","single_word":false,"lstrip":false,"rstrip":false,"normalized":false},{"id":105,"special":true,"content":"[unused86]","single_word":false,"lstrip":false,"rstrip":false,"normalized":false},{"id":106,"special":true,"content":"[unused87]","single_word":false,"lstrip":false,"rstrip":false,"normalized":false},{"id":107,"special":true,"content":"[unused88]","single_word":false,"lstrip":false,"rstrip":false,"normalized":false},{"id":108,"special":true,"content":"[unused89]","single_word":false,"lstrip":false,"rstrip":false,"normalized":false},{"id":109,"special":true,"content":"[unused90]","single_word":false,"lstrip":false,"rstrip":false,"normalized":false},{"id":110,"special":true,"content":"[unused91]","single_word":false,"lstrip":false,"rstrip":false,"normalized":false},{"id":111,"special":true,"content":"[unused92]","single_word":false,"lstrip":false,"rstrip":false,"normalized":false},{"id":112,"special":true,"content":"[unused93]","single_word":false,"lstrip":false,"rstrip":false,"normalized":false},{"id":113,"special":true,"content":"[unused94]","single_word":false,"lstrip":false,"rstrip":false,"normalized":false},{"id":114,"special":true,"content":"[unused95]","single_word":false,"lstrip":false,"rstrip":false,"normalized":false},{"id":115,"special":true,"content":"[unused96]","single_word":false,"lstrip":false,"rstrip":false,"normalized":false},{"id":116,"special":true,"content":"[unused97]","single_word":false,"lstrip":false,"rstrip":false,"normalized":false},{"id":117,"special":true,"content":"[unused98]","single_word":false,"lstrip":false,"rstrip":false,"normalized":false},{"id":118,"special":true,"content":"[unused99]","single_word":false,"lstrip":false,"rstrip":false,"normalized":false}],"normalizer":{"type":"BertNormalizer","clean_text":true,"handle_chinese_chars":true,"strip_accents":false,"lowercase":false},"pre_tokenizer":{"type":"BertPreTokenizer"},"post_processor":null,"decoder":{"type":"WordPiece","prefix":"##","cleanup":true},"model":{"unk_token":"[UNK]","continuing_subword_prefix":"##","max_input_chars_per_word":100,"vocab":{"[PAD]":0,"[UNK]":1,"[CLS]":2,"[SEP]":3,"[MASK]":4,"[SEPT]":5,"[NAME]":6,"[BOS]":7,"[EOS]":8,"[UNK0]":9,"[UNK1]":10,"[UNK2]":11,"[UNK3]":12,"[UNK4]":13,"[UNK5]":14,"[UNK6]":15,"[UNK7]":16,"[UNK8]":17,"[UNK9]":18,"[unused0]":19,"[unused1]":20,"[unused2]":21,"[unused3]":22,"[unused4]":23,"[unused5]":24,"[unused6]":25,"[unused7]":26,"[unused8]":27,"[unused9]":28,"[unused10]":29,"[unused11]":30,"[unused12]":31,"[unused13]":32,"[unused14]":33,"[unused15]":34,"[unused16]":35,"[unused17]":36,"[unused18]":37,"[unused19]":38,"[unused20]":39,"[unused21]":40,"[unused22]":41,"[unused23]":42,"[unused24]":43,"[unused25]":44,"[unused26]":45,"[unused27]":46,"[unused28]":47,"[unused29]":48,"[unused30]":49,"[unused31]":50,"[unused32]":51,"[unused33]":52,"[unused34]":53,"[unused35]":54,"[unused36]":55,"[unused37]":56,"[unused38]":57,"[unused39]":58,"[unused40]":59,"[unused41]":60,"[unused42]":61,"[unused43]":62,"[unused44]":63,"[unused45]":64,"[unused46]":65,"[unused47]":66,"[unused48]":67,"[unused49]":68,"[unused50]":69,"[unused51]":70,"[unused52]":71,"[unused53]":72,"[unused54]":73,"[unused55]":74,"[unused56]":75,"[unused57]":76,"[unused58]":77,"[unused59]":78,"[unused60]":79,"[unused61]":80,"[unused62]":81,"[unused63]":82,"[unused64]":83,"[unused65]":84,"[unused66]":85,"[unused67]":86,"[unused68]":87,"[unused69]":88,"[unused70]":89,"[unused71]":90,"[unused72]":91,"[unused73]":92,"[unused74]":93,"[unused75]":94,"[unused76]":95,"[unused77]":96,"[unused78]":97,"[unused79]":98,"[unused80]":99,"[unused81]":100,"[unused82]":101,"[unused83]":102,"[unused84]":103,"[unused85]":104,"[unused86]":105,"[unused87]":106,"[unused88]":107,"[unused89]":108,"[unused90]":109,"[unused91]":110,"[unused92]":111,"[unused93]":112,"[unused94]":113,"[unused95]":114,"[unused96]":115,"[unused97]":116,"[unused98]":117,"[unused99]":118,"!":119,"%":120,",":121,"-":122,".":123,"0":124,"1":125,"2":126,"3":127,"4":128,"5":129,"6":130,"7":131,"8":132,"9":133,"?":134,"A":135,"E":136,"M":137,"N":138,"[":139,"]":140,"^":141,"_":142,"a":143,"b":144,"c":145,"d":146,"e":147,"f":148,"g":149,"h":150,"i":151,"j":152,"k":153,"l":154,"m":155,"n":156,"o":157,"p":158,"q":159,"r":160,"s":161,"t":162,"u":163,"v":164,"w":165,"x":166,"y":167,"z":168,"~":169,"ㄱ":170,"ㄲ":171,"ㄳ":172,"ㄴ":173,"ㄵ":174,"ㄶ":175,"ㄷ":176,"ㄸ":177,"ㄹ":178,"ㄺ":179,"ㄻ":180,"ㄼ":181,"ㄽ":182,"ㄾ":183,"ㄿ":184,"ㅀ":185,"ㅁ":186,"ㅂ":187,"ㅃ":188,"ㅄ":189,"ㅅ":190,"ㅆ":191,"ㅇ":192,"ㅈ":193,"ㅉ":194,"ㅊ":195,"ㅋ":196,"ㅌ":197,"ㅍ":198,"ㅎ":199,"ㅏ":200,"ㅐ":201,"ㅑ":202,"ㅒ":203,"ㅓ":204,"ㅔ":205,"ㅕ":206,"ㅖ":207,"ㅗ":208,"ㅘ":209,"ㅙ":210,"ㅚ":211,"ㅛ":212,"ㅜ":213,"ㅝ":214,"ㅞ":215,"ㅟ":216,"ㅠ":217,"ㅡ":218,"ㅢ":219,"ㅣ":220,"가":221,"각":222,"갂":223,"간":224,"갅":225,"갇":226,"갈":227,"갉":228,"감":229,"갑":230,"값":231,"갓":232,"갔":233,"강":234,"갖":235,"갗":236,"갘":237,"같":238,"갚":239,"갛":240,"개":241,"객":242,"갠":243,"갤":244,"갥":245,"갬":246,"갭":247,"갮":248,"갯":249,"갰":250,"갱":251,"갵":252,"갷":253,"갸":254,"갹":255,"갼":256,"갿":257,"걀":258,"걌":259,"걍":260,"걔":261,"걘":262,"걜":263,"걨":264,"거":265,"걱":266,"걳":267,"건":268,"걵":269,"걷":270,"걸":271,"걹":272,"검":273,"겁":274,"것":275,"겄":276,"겅":277,"겆":278,"겇":279,"겈":280,"겉":281,"겊":282,"겋":283,"게":284,"겍":285,"겎":286,"겐":287,"겓":288,"겔":289,"겜":290,"겟":291,"겠":292,"겡":293,"겢":294,"겤":295,"겧":296,"겨":297,"격":298,"겪":299,"견":300,"겯":301,"결":302,"겸":303,"겹":304,"겻":305,"겼":306,"경":307,"겾":308,"겿":309,"곁":310,"곃":311,"계":312,"곈":313,"곕":314,"곗":315,"곘":316,"고":317,"곡":318,"곤":319,"곦":320,"곧":321,"골":322,"곰":323,"곱":324,"곳":325,"공":326,"곶":327,"곷":328,"곸":329,"곺":330,"곻":331,"과":332,"곽":333,"관":334,"괄":335,"광":336,"괘":337,"괜":338,"괨":339,"괴":340,"괵":341,"괼":342,"굄":343,"굇":344,"굉":345,"굊":346,"교":347,"굑":348,"굔":349,"굘":350,"굠":351,"굤":352,"굥":353,"굨":354,"구":355,"국":356,"굮":357,"군":358,"굳":359,"굴":360,"굵":361,"굶":362,"굼":363,"굽":364,"굿":365,"궁":366,"궂":367,"궈":368,"권":369,"궐":370,"궜":371,"궝":372,"궞":373,"궤":374,"궷":375,"궸":376,"귀":377,"귄":378,"귈":379,"귓":380,"귕":381,"귗":382,"규":383,"균":384,"귤":385,"귬":386,"귱":387,"그":388,"극":389,"귺":390,"근":391,"귿":392,"글":393,"긁":394,"긇":395,"금":396,"급":397,"긋":398,"긌":399,"긍":400,"긏":401,"긑":402,"긒":403,"긓":404,"긔":405,"긘":406,"긝":407,"기":408,"긱":409,"긴":410,"길":411,"긿":412,"김":413,"깁":414,"깃":415,"깄":416,"깅":417,"깇":418,"깈":419,"깉":420,"깊":421,"깋":422,"까":423,"깍":424,"깎":425,"깐":426,"깔":427,"깜":428,"깝":429,"깟":430,"깠":431,"깡":432,"깢":433,"깥":434,"깧":435,"깨":436,"깩":437,"깬":438,"깰":439,"깸":440,"깻":441,"깼":442,"깽":443,"꺄":444,"꺅":445,"꺈":446,"꺌":447,"꺍":448,"꺔":449,"꺘":450,"꺙":451,"꺟":452,"꺠":453,"꺳":454,"꺴":455,"꺼":456,"꺽":457,"꺾":458,"껀":459,"껄":460,"껌":461,"껍":462,"껏":463,"껐":464,"껑":465,"께":466,"껨":467,"껫":468,"껭":469,"껴":470,"꼇":471,"꼈":472,"꼐":473,"꼥":474,"꼬":475,"꼭":476,"꼮":477,"꼰":478,"꼴":479,"꼼":480,"꼽":481,"꽁":482,"꽂":483,"꽃":484,"꽈":485,"꽉":486,"꽊":487,"꽓":488,"꽝":489,"꽤":490,"꽥":491,"꽹":492,"꾸":493,"꾹":494,"꾺":495,"꾼":496,"꿀":497,"꿇":498,"꿈":499,"꿉":500,"꿍":501,"꿑":502,"꿔":503,"꿧":504,"꿨":505,"뀌":506,"뀐":507,"뀔":508,"뀜":509,"뀡":510,"뀨":511,"뀰":512,"뀽":513,"끄":514,"끅":515,"끆":516,"끈":517,"끊":518,"끌":519,"끓":520,"끔":521,"끕":522,"끗":523,"끛":524,"끜":525,"끝":526,"끠":527,"끵":528,"끼":529,"끽":530,"낀":531,"낄":532,"낌":533,"낑":534,"낗":535,"나":536,"낙":537,"낚":538,"난":539,"낞":540,"낟":541,"날":542,"낡":543,"남":544,"납":545,"낫":546,"났":547,"낭":548,"낮":549,"낯":550,"낰":551,"낱":552,"낲":553,"낳":554,"내":555,"낵":556,"낸":557,"낼":558,"냄":559,"냅":560,"냇":561,"냈":562,"냉":563,"냊":564,"냎":565,"냏":566,"냐":567,"냑":568,"냔":569,"냘":570,"냠":571,"냡":572,"냣":573,"냤":574,"냥":575,"냦":576,"냨":577,"냪":578,"냫":579,"냬":580,"너":581,"넉":582,"넋":583,"넌":584,"넏":585,"널":586,"넒":587,"넓":588,"넘":589,"넙":590,"넚":591,"넛":592,"넜":593,"넝":594,"넞":595,"넟":596,"넡":597,"넢":598,"넣":599,"네":600,"넥":601,"넨":602,"넫":603,"넬":604,"넴":605,"넵":606,"넷":607,"넹":608,"넺":609,"넼":610,"넿":611,"녀":612,"녁":613,"년":614,"녅":615,"념":616,"녓":617,"녔":618,"녕":619,"녖":620,"녘":621,"녛":622,"녜":623,"녬":624,"녱":625,"노":626,"녹":627,"논":628,"놀":629,"놁":630,"놈":631,"놉":632,"놋":633,"농":634,"놏":635,"놐":636,"놑":637,"높":638,"놓":639,"놔":640,"놘":641,"놜":642,"놤":643,"놧":644,"놨":645,"놰":646,"뇌":647,"뇨":648,"뇬":649,"뇸":650,"뇹":651,"뇼":652,"뇽":653,"누":654,"눅":655,"눈":656,"눋":657,"눌":658,"눔":659,"눕":660,"눙":661,"눚":662,"눜":663,"눞":664,"눟":665,"눠":666,"눤":667,"눨":668,"눴":669,"눼":670,"뉇":671,"뉑":672,"뉘":673,"뉜":674,"뉨":675,"뉭":676,"뉴":677,"뉵":678,"뉸":679,"뉻":680,"뉼":681,"늄":682,"늉":683,"늊":684,"늌":685,"느":686,"늑":687,"늒":688,"는":689,"늕":690,"늗":691,"늘":692,"늙":693,"늚":694,"늠":695,"능":696,"늦":697,"늨":698,"늪":699,"늫":700,"늬":701,"늰":702,"늴":703,"늶":704,"늼":705,"닁":706,"니":707,"닉":708,"닊":709,"닌":710,"닏":711,"닐":712,"님":713,"닙":714,"닛":715,"닜":716,"닝":717,"닞":718,"닠":719,"닡":720,"닢":721,"닣":722,"다":723,"닥":724,"닦":725,"단":726,"닪":727,"닫":728,"달":729,"닭":730,"닮":731,"닳":732,"담":733,"답":734,"닷":735,"닸":736,"당":737,"닻":738,"닼":739,"닽":740,"닾":741,"닿":742,"대":743,"댁":744,"댂":745,"댄":746,"댇":747,"댈":748,"댐":749,"댑":750,"댓":751,"댔":752,"댕":753,"댛":754,"댜":755,"댝":756,"댣":757,"댤":758,"댬":759,"댯":760,"댱":761,"댲":762,"댸":763,"더":764,"덕":765,"던":766,"덙":767,"덛":768,"덜":769,"덟":770,"덢":771,"덤":772,"덥":773,"덧":774,"덩":775,"덭":776,"덮":777,"덯":778,"데":779,"덱":780,"덴":781,"덷":782,"델":783,"뎀":784,"뎁":785,"뎃":786,"뎄":787,"뎅":788,"뎉":789,"뎋":790,"뎌":791,"뎠":792,"뎡":793,"뎦":794,"뎨":795,"뎸":796,"도":797,"독":798,"돈":799,"돋":800,"돌":801,"돔":802,"돕":803,"돗":804,"동":805,"돟":806,"돠":807,"돨":808,"돰":809,"돵":810,"돼":811,"됀":812,"됃":813,"됌":814,"됐":815,"됑":816,"됔":817,"되":818,"됛":819,"된":820,"될":821,"됨":822,"됩":823,"됫":824,"됬":825,"됭":826,"됮":827,"됰":828,"됳":829,"됴":830,"둉":831,"두":832,"둑":833,"둔":834,"둗":835,"둘":836,"둠":837,"둡":838,"둣":839,"둥":840,"둦":841,"둪":842,"둫":843,"둬":844,"둴":845,"둿":846,"뒀":847,"뒁":848,"뒈":849,"뒓":850,"뒙":851,"뒤":852,"뒨":853,"뒷":854,"뒹":855,"듀":856,"듁":857,"듄":858,"듈":859,"듕":860,"드":861,"득":862,"든":863,"듢":864,"듣":865,"들":866,"듦":867,"듫":868,"듬":869,"듭":870,"듯":871,"등":872,"듶":873,"듷":874,"듸":875,"딈":876,"디":877,"딕":878,"딖":879,"딘":880,"딛":881,"딜":882,"딤":883,"딥":884,"딧":885,"딨":886,"딩":887,"딪":888,"딬":889,"딮":890,"딯":891,"따":892,"딱":893,"딲":894,"딴":895,"딸":896,"땀":897,"땁":898,"땃":899,"땄":900,"땅":901,"땋":902,"때":903,"땐":904,"땔":905,"땜":906,"땟":907,"땠":908,"땡":909,"땨":910,"땬":911,"떄":912,"떈":913,"떔":914,"떘":915,"떙":916,"떠":917,"떡":918,"떢":919,"떤":920,"떨":921,"떫":922,"떰":923,"떱":924,"떳":925,"떴":926,"떵":927,"떻":928,"떼":929,"뗀":930,"뗄":931,"뗏":932,"뗐":933,"뗘":934,"또":935,"똑":936,"똒":937,"똔":938,"똘":939,"똥":940,"똪":941,"똫":942,"똬":943,"똭":944,"뙇":945,"뙈":946,"뚐":947,"뚕":948,"뚜":949,"뚝":950,"뚞":951,"뚠":952,"뚣":953,"뚤":954,"뚫":955,"뚬":956,"뚭":957,"뚯":958,"뚱":959,"뚸":960,"뛔":961,"뛟":962,"뛰":963,"뛴":964,"뛸":965,"뜀":966,"뜨":967,"뜩":968,"뜬":969,"뜯":970,"뜰":971,"뜸":972,"뜻":973,"뜽":974,"띃":975,"띄":976,"띠":977,"띡":978,"띤":979,"띨":980,"띵":981,"라":982,"락":983,"띾":984,"란":985,"랂":986,"랃":987,"랄":988,"랅":989,"랉":990,"람":991,"랍":992,"랏":993,"랐":994,"랑":995,"랔":996,"랕":997,"랖":998,"랗":999,"래":1000,"랙":1001,"랜":1002,"랠":1003,"램":1004,"랩":1005,"랫":1006,"랬":1007,"랭":1008,"랮":1009,"랰":1010,"랱":1011,"랳":1012,"랴":1013,"략":1014,"랸":1015,"랻":1016,"랼":1017,"럄":1018,"럅":1019,"럇":1020,"럈":1021,"량":1022,"럊":1023,"럎":1024,"럐":1025,"럣":1026,"러":1027,"럭":1028,"럯":1029,"런":1030,"럳":1031,"럴":1032,"럵":1033,"럻":1034,"럼":1035,"럽":1036,"럾":1037,"럿":1038,"렀":1039,"렁":1040,"렂":1041,"렄":1042,"렆":1043,"렇":1044,"레":1045,"렉":1046,"렌":1047,"렏":1048,"렐":1049,"렑":1050,"렓":1051,"렘":1052,"렙":1053,"렛":1054,"렜":1055,"렝":1056,"렠":1057,"렣":1058,"려":1059,"력":1060,"렦":1061,"련":1062,"렫":1063,"렬":1064,"렴":1065,"렵":1066,"렷":1067,"렸":1068,"령":1069,"렺":1070,"렼":1071,"렾":1072,"렿":1073,"례":1074,"롄":1075,"로":1076,"록":1077,"론":1078,"롣":1079,"롤":1080,"롥":1081,"롬":1082,"롭":1083,"롯":1084,"롱":1085,"롲":1086,"롷":1087,"롸":1088,"롹":1089,"롼":1090,"뢀":1091,"뢔":1092,"뢰":1093,"뢴":1094,"료":1095,"룐":1096,"룔":1097,"룜":1098,"룝":1099,"룠":1100,"룡":1101,"루":1102,"룩":1103,"룫":1104,"룬":1105,"룯":1106,"룰":1107,"룸":1108,"룹":1109,"룻":1110,"룽":1111,"룾":1112,"뤃":1113,"뤄":1114,"뤈":1115,"뤕":1116,"뤘":1117,"뤙":1118,"뤠":1119,"뤫":1120,"뤱":1121,"뤵":1122,"뤼":1123,"륀":1124,"륌":1125,"륏":1126,"륑":1127,"류":1128,"륙":1129,"륜":1130,"륟":1131,"률":1132,"륨":1133,"륭":1134,"르":1135,"륵":1136,"른":1137,"륹":1138,"륻":1139,"를":1140,"륽":1141,"름":1142,"릅":1143,"릇":1144,"릉":1145,"릍":1146,"릎":1147,"릏":1148,"릐":1149,"릠":1150,"리":1151,"릭":1152,"릯":1153,"린":1154,"릳":1155,"릴":1156,"림":1157,"립":1158,"릿":1159,"맀":1160,"링":1161,"맂":1162,"맇":1163,"마":1164,"막":1165,"만":1166,"많":1167,"맏":1168,"말":1169,"맑":1170,"맘":1171,"맙":1172,"맛":1173,"맜":1174,"망":1175,"맞":1176,"맟":1177,"맠":1178,"맡":1179,"맢":1180,"맣":1181,"매":1182,"맥":1183,"맨":1184,"맫":1185,"맬":1186,"맴":1187,"맵":1188,"맷":1189,"맸":1190,"맹":1191,"맺":1192,"맿":1193,"먀":1194,"먄":1195,"먆":1196,"먐":1197,"먕":1198,"먗":1199,"머":1200,"먹":1201,"먼":1202,"먾":1203,"먿":1204,"멀":1205,"멂":1206,"멇":1207,"멈":1208,"멉":1209,"멋":1210,"멍":1211,"멎":1212,"멏":1213,"멒":1214,"멓":1215,"메":1216,"멕":1217,"멘":1218,"멜":1219,"멤":1220,"멧":1221,"멩":1222,"며":1223,"멱":1224,"면":1225,"멸":1226,"몀":1227,"명":1228,"몇":1229,"몌":1230,"모":1231,"목":1232,"몫":1233,"몬":1234,"몯":1235,"몰":1236,"몸":1237,"몹":1238,"못":1239,"몼":1240,"몽":1241,"뫀":1242,"뫃":1243,"뫄":1244,"묘":1245,"묜":1246,"묠":1247,"묨":1248,"묭":1249,"묯":1250,"무":1251,"묵":1252,"묶":1253,"문":1254,"묹":1255,"묻":1256,"물":1257,"묽":1258,"뭄":1259,"뭇":1260,"뭉":1261,"뭊":1262,"뭋":1263,"뭍":1264,"뭎":1265,"뭏":1266,"뭐":1267,"뭔":1268,"뭘":1269,"뭡":1270,"뭣":1271,"뭥":1272,"뭦":1273,"뭬":1274,"뮁":1275,"뮤":1276,"뮨":1277,"뮫":1278,"뮬":1279,"뮷":1280,"뮹":1281,"뮽":1282,"뮾":1283,"므":1284,"믁":1285,"믄":1286,"믇":1287,"믈":1288,"믐":1289,"믓":1290,"믕":1291,"믛":1292,"믜":1293,"믤":1294,"미":1295,"믹":1296,"민":1297,"믾":1298,"믿":1299,"밀":1300,"밈":1301,"밉":1302,"밋":1303,"밌":1304,"밍":1305,"밎":1306,"및":1307,"밑":1308,"밒":1309,"밓":1310,"바":1311,"박":1312,"밖":1313,"반":1314,"밙":1315,"받":1316,"발":1317,"밝":1318,"밞":1319,"밟":1320,"밠":1321,"밤":1322,"밥":1323,"밧":1324,"밨":1325,"방":1326,"밬":1327,"밭":1328,"밯":1329,"배":1330,"백":1331,"밴":1332,"밸":1333,"뱀":1334,"뱁":1335,"뱃":1336,"뱅":1337,"뱆":1338,"뱉":1339,"뱌":1340,"뱍":1341,"뱔":1342,"뱧":1343,"버":1344,"벅":1345,"번":1346,"벋":1347,"벌":1348,"벏":1349,"범":1350,"법":1351,"벗":1352,"벙":1353,"벚":1354,"벟":1355,"베":1356,"벡":1357,"벤":1358,"벨":1359,"벫":1360,"벱":1361,"벳":1362,"벵":1363,"벼":1364,"벽":1365,"변":1366,"별":1367,"볍":1368,"볐":1369,"병":1370,"볕":1371,"보":1372,"복":1373,"볶":1374,"본":1375,"볼":1376,"볽":1377,"봄":1378,"봅":1379,"봇":1380,"봉":1381,"봏":1382,"봐":1383,"봘":1384,"봙":1385,"봣":1386,"봤":1387,"봥":1388,"봬":1389,"뵀":1390,"뵈":1391,"뵌":1392,"뵐":1393,"뵘":1394,"뵙":1395,"뵜":1396,"뵤":1397,"뵷":1398,"부":1399,"북":1400,"분":1401,"붇":1402,"불":1403,"붉":1404,"붋":1405,"붐":1406,"붑":1407,"붓":1408,"붕":1409,"붖":1410,"붗":1411,"붘":1412,"붙":1413,"붛":1414,"붜":1415,"붤":1416,"붸":1417,"뷉":1418,"뷔":1419,"뷰":1420,"뷱":1421,"뷴":1422,"뷸":1423,"븃":1424,"븅":1425,"븋":1426,"브":1427,"븍":1428,"븐":1429,"블":1430,"븗":1431,"븘":1432,"븜":1433,"븡":1434,"븰":1435,"븱":1436,"븸":1437,"비":1438,"빅":1439,"빆":1440,"빈":1441,"빋":1442,"빌":1443,"빔":1444,"빕":1445,"빗":1446,"빙":1447,"빚":1448,"빛":1449,"빠":1450,"빡":1451,"빢":1452,"빤":1453,"빧":1454,"빨":1455,"빰":1456,"빱":1457,"빳":1458,"빴":1459,"빵":1460,"빻":1461,"빼":1462,"빽":1463,"뺀":1464,"뺄":1465,"뺌":1466,"뺏":1467,"뺐":1468,"뺑":1469,"뺘":1470,"뺠":1471,"뺨":1472,"뺴":1473,"뺸":1474,"뻄":1475,"뻇":1476,"뻐":1477,"뻑":1478,"뻔":1479,"뻗":1480,"뻘":1481,"뻠":1482,"뻡":1483,"뻣":1484,"뻤":1485,"뻥":1486,"뻨":1487,"뻬":1488,"뼈":1489,"뼛":1490,"뼜":1491,"뼝":1492,"뽀":1493,"뽄":1494,"뽈":1495,"뽐":1496,"뽑":1497,"뽕":1498,"뽜":1499,"뽝":1500,"뽷":1501,"뾰":1502,"뿅":1503,"뿌":1504,"뿐":1505,"뿔":1506,"뿜":1507,"뿡":1508,"뿨":1509,"뿽":1510,"쀠":1511,"쀼":1512,"쁀":1513,"쁘":1514,"쁜":1515,"쁠":1516,"쁨":1517,"쁩":1518,"삉":1519,"삐":1520,"삑":1521,"삔":1522,"삘":1523,"삥":1524,"사":1525,"삭":1526,"산":1527,"살":1528,"삵":1529,"삶":1530,"삼":1531,"삽":1532,"삿":1533,"샀":1534,"상":1535,"샂":1536,"샃":1537,"샅":1538,"샆":1539,"샇":1540,"새":1541,"색":1542,"샊":1543,"샌":1544,"샐":1545,"샘":1546,"샛":1547,"샜":1548,"생":1549,"샢":1550,"샣":1551,"샤":1552,"샥":1553,"샨":1554,"샬":1555,"샴":1556,"샵":1557,"샷":1558,"샸":1559,"샹":1560,"섑":1561,"섕":1562,"서":1563,"석":1564,"섞":1565,"선":1566,"섣":1567,"설":1568,"섥":1569,"섬":1570,"섭":1571,"섯":1572,"성":1573,"섲":1574,"섴":1575,"섵":1576,"세":1577,"섹":1578,"센":1579,"셀":1580,"셈":1581,"셉":1582,"셋":1583,"셌":1584,"셍":1585,"셔":1586,"션":1587,"셜":1588,"셤":1589,"셧":1590,"셨":1591,"셩":1592,"셬":1593,"셭":1594,"셰":1595,"소":1596,"속":1597,"손":1598,"솓":1599,"솔":1600,"솜":1601,"솝":1602,"솟":1603,"송":1604,"솣":1605,"솥":1606,"솦":1607,"솨":1608,"솩":1609,"쇄":1610,"쇠":1611,"쇳":1612,"쇼":1613,"쇽":1614,"숀":1615,"숄":1616,"숍":1617,"숏":1618,"숑":1619,"숔":1620,"수":1621,"숙":1622,"순":1623,"숟":1624,"술":1625,"숨":1626,"숩":1627,"숫":1628,"숭":1629,"숮":1630,"숯":1631,"숱":1632,"숲":1633,"숳":1634,"숴":1635,"숵":1636,"숼":1637,"쉉":1638,"쉐":1639,"쉑":1640,"쉘":1641,"쉣":1642,"쉥":1643,"쉨":1644,"쉩":1645,"쉬":1646,"쉭":1647,"쉰":1648,"쉴":1649,"쉼":1650,"쉽":1651,"쉿":1652,"슁":1653,"슂":1654,"슈":1655,"슉":1656,"슌":1657,"슐":1658,"슘":1659,"슙":1660,"슝":1661,"슢":1662,"스":1663,"슥":1664,"슧":1665,"슨":1666,"슬":1667,"슴":1668,"습":1669,"슷":1670,"승":1671,"슺":1672,"슼":1673,"슽":1674,"슿":1675,"싀":1676,"싁":1677,"싄":1678,"싈":1679,"싐":1680,"싑":1681,"싕":1682,"싙":1683,"싚":1684,"시":1685,"식":1686,"신":1687,"싡":1688,"싣":1689,"실":1690,"싥":1691,"싪":1692,"싫":1693,"심":1694,"십":1695,"싮":1696,"싯":1697,"싰":1698,"싱":1699,"싲":1700,"싳":1701,"싴":1702,"싵":1703,"싶":1704,"싷":1705,"싸":1706,"싹":1707,"싺":1708,"싼":1709,"싿":1710,"쌀":1711,"쌈":1712,"쌉":1713,"쌋":1714,"쌌":1715,"쌍":1716,"쌓":1717,"쌔":1718,"쌤":1719,"쌩":1720,"쌰":1721,"썅":1722,"썌":1723,"썜":1724,"써":1725,"썩":1726,"썪":1727,"썬":1728,"썯":1729,"썰":1730,"썸":1731,"썹":1732,"썻":1733,"썼":1734,"썽":1735,"썾":1736,"쎄":1737,"쎈":1738,"쎌":1739,"쎔":1740,"쎙":1741,"쎵":1742,"쎼":1743,"쏀":1744,"쏘":1745,"쏙":1746,"쏟":1747,"쏠":1748,"쏨":1749,"쏩":1750,"쏭":1751,"쏴":1752,"쐬":1753,"쐴":1754,"쑈":1755,"쑐":1756,"쑤":1757,"쑥":1758,"쑦":1759,"쑬":1760,"쑴":1761,"쒀":1762,"쒄":1763,"쒈":1764,"쒕":1765,"쒠":1766,"쒬":1767,"쒯":1768,"쒸":1769,"쓔":1770,"쓰":1771,"쓱":1772,"쓲":1773,"쓴":1774,"쓸":1775,"씀":1776,"씁":1777,"씄":1778,"씅":1779,"씌":1780,"씐":1781,"씨":1782,"씩":1783,"씪":1784,"씬":1785,"씹":1786,"씻":1787,"씼":1788,"씽":1789,"씾":1790,"앀":1791,"아":1792,"악":1793,"앆":1794,"안":1795,"앉":1796,"않":1797,"앋":1798,"알":1799,"앍":1800,"앎":1801,"앓":1802,"암":1803,"압":1804,"앖":1805,"앗":1806,"았":1807,"앙":1808,"앚":1809,"앛":1810,"앜":1811,"앝":1812,"앞":1813,"앟":1814,"애":1815,"액":1816,"앤":1817,"앧":1818,"앨":1819,"앪":1820,"앰":1821,"앱":1822,"앳":1823,"앴":1824,"앵":1825,"앶":1826,"앷":1827,"앹":1828,"앺":1829,"앻":1830,"야":1831,"약":1832,"앿":1833,"얀":1834,"얂":1835,"얃":1836,"얄":1837,"얅":1838,"얇":1839,"얌":1840,"얍":1841,"얏":1842,"얐":1843,"양":1844,"얒":1845,"얔":1846,"얕":1847,"얖":1848,"얗":1849,"얘":1850,"얜":1851,"어":1852,"억":1853,"얶":1854,"언":1855,"얹":1856,"얻":1857,"얼":1858,"얽":1859,"얾":1860,"엄":1861,"업":1862,"없":1863,"엇":1864,"었":1865,"엉":1866,"엊":1867,"엋":1868,"엌":1869,"엍":1870,"엎":1871,"엏":1872,"에":1873,"엑":1874,"엔":1875,"엗":1876,"엘":1877,"엙":1878,"엠":1879,"엡":1880,"엣":1881,"엤":1882,"엥":1883,"엨":1884,"엩":1885,"엪":1886,"엫":1887,"여":1888,"역":1889,"엮":1890,"연":1891,"엱":1892,"엲":1893,"엳":1894,"열":1895,"엶":1896,"염":1897,"엽":1898,"엿":1899,"였":1900,"영":1901,"옂":1902,"옃":1903,"옄":1904,"옆":1905,"옇":1906,"예":1907,"옌":1908,"옘":1909,"옙":1910,"옛":1911,"옝":1912,"오":1913,"옥":1914,"온":1915,"옫":1916,"올":1917,"옭":1918,"옮":1919,"옳":1920,"옴":1921,"옵":1922,"옶":1923,"옷":1924,"옸":1925,"옹":1926,"옺":1927,"옼":1928,"옾":1929,"옿":1930,"와":1931,"왁":1932,"왂":1933,"완":1934,"왈":1935,"왉":1936,"왐":1937,"왑":1938,"왓":1939,"왔":1940,"왕":1941,"왘":1942,"왛":1943,"왜":1944,"왠":1945,"왤":1946,"왯":1947,"왱":1948,"왴":1949,"왷":1950,"외":1951,"왼":1952,"욀":1953,"욌":1954,"욎":1955,"욐":1956,"요":1957,"욕":1958,"욘":1959,"욜":1960,"욤":1961,"욥":1962,"욧":1963,"욨":1964,"용":1965,"욪":1966,"욬":1967,"욮":1968,"욯":1969,"우":1970,"욱":1971,"욲":1972,"욳":1973,"운":1974,"욷":1975,"울":1976,"욹":1977,"욺":1978,"욾":1979,"움":1980,"웁":1981,"웂":1982,"웃":1983,"웄":1984,"웅":1985,"웆":1986,"웇":1987,"웈":1988,"웉":1989,"웊":1990,"웋":1991,"워":1992,"웎":1993,"원":1994,"웒":1995,"월":1996,"웕":1997,"웜":1998,"웞":1999,"웠":2000,"웡":2001,"웢":2002,"웤":2003,"웥":2004,"웧":2005,"웨":2006,"웩":2007,"웬":2008,"웰":2009,"웱":2010,"웹":2011,"웽":2012,"윀":2013,"위":2014,"윅":2015,"윈":2016,"윌":2017,"윔":2018,"윕":2019,"윗":2020,"윙":2021,"윜":2022,"유":2023,"육":2024,"윤":2025,"율":2026,"윰":2027,"윳":2028,"융":2029,"윷":2030,"으":2031,"윽":2032,"윾":2033,"은":2034,"읂":2035,"읃":2036,"을":2037,"읅":2038,"읆":2039,"읈":2040,"읋":2041,"음":2042,"읍":2043,"읎":2044,"읏":2045,"읐":2046,"응":2047,"읒":2048,"읓":2049,"읔":2050,"읕":2051,"읗":2052,"의":2053,"읜":2054,"읫":2055,"읭":2056,"읰":2057,"읳":2058,"이":2059,"익":2060,"읶":2061,"인":2062,"읻":2063,"일":2064,"읽":2065,"읾":2066,"잃":2067,"임":2068,"입":2069,"잇":2070,"있":2071,"잉":2072,"잊":2073,"잌":2074,"잍":2075,"잎":2076,"잏":2077,"자":2078,"작":2079,"잒":2080,"잔":2081,"잖":2082,"잗":2083,"잘":2084,"잚":2085,"잠":2086,"잡":2087,"잣":2088,"잤":2089,"장":2090,"잦":2091,"잧":2092,"잨":2093,"잫":2094,"재":2095,"잭":2096,"잰":2097,"잴":2098,"잼":2099,"잽":2100,"잿":2101,"쟀":2102,"쟁":2103,"쟂":2104,"쟈":2105,"쟉":2106,"쟌":2107,"쟏":2108,"쟐":2109,"쟘":2110,"쟜":2111,"쟞":2112,"쟡":2113,"쟤":2114,"쟨":2115,"저":2116,"적":2117,"전":2118,"젆":2119,"젇":2120,"절":2121,"젊":2122,"젏":2123,"점":2124,"접":2125,"젓":2126,"젔":2127,"정":2128,"젖":2129,"젙":2130,"젛":2131,"제":2132,"젝":2133,"젠":2134,"젣":2135,"젤":2136,"젨":2137,"젬":2138,"젭":2139,"젯":2140,"젱":2141,"젶":2142,"져":2143,"젹":2144,"젼":2145,"젿":2146,"졀":2147,"졈":2148,"졋":2149,"졌":2150,"졍":2151,"졎":2152,"졒":2153,"졓":2154,"졔":2155,"졘":2156,"조":2157,"족":2158,"존":2159,"졷":2160,"졸":2161,"좀":2162,"좁":2163,"좃":2164,"종":2165,"좆":2166,"좉":2167,"좊":2168,"좋":2169,"좌":2170,"좍":2171,"좔":2172,"죄":2173,"죔":2174,"죠":2175,"죡":2176,"죤":2177,"죨":2178,"죰":2179,"죴":2180,"죵":2181,"주":2182,"죽":2183,"준":2184,"줃":2185,"줄":2186,"줅":2187,"줉":2188,"줌":2189,"줍":2190,"줏":2191,"줐":2192,"중":2193,"줒":2194,"줔":2195,"줖":2196,"줗":2197,"줘":2198,"줙":2199,"줚":2200,"줜":2201,"줬":2202,"줭":2203,"줲":2204,"줴":2205,"줼":2206,"쥄":2207,"쥐":2208,"쥑":2209,"쥔":2210,"쥠":2211,"쥥":2212,"쥦":2213,"쥬":2214,"쥭":2215,"쥰":2216,"쥴":2217,"쥼":2218,"쥽":2219,"쥿":2220,"즁":2221,"즇":2222,"즈":2223,"즉":2224,"즌":2225,"즐":2226,"즑":2227,"즘":2228,"즙":2229,"즛":2230,"증":2231,"즣":2232,"즨":2233,"즹":2234,"지":2235,"직":2236,"진":2237,"짆":2238,"짇":2239,"질":2240,"짉":2241,"짊":2242,"짌":2243,"짏":2244,"짐":2245,"집":2246,"짓":2247,"짔":2248,"징":2249,"짖":2250,"짗":2251,"짘":2252,"짙":2253,"짚":2254,"짛":2255,"짜":2256,"짝":2257,"짠":2258,"짢":2259,"짤":2260,"짧":2261,"짬":2262,"짭":2263,"짯":2264,"짰":2265,"짱":2266,"짲":2267,"째":2268,"짹":2269,"짼":2270,"쨈":2271,"쨋":2272,"쨌":2273,"쨍":2274,"쨔":2275,"쨕":2276,"쨖":2277,"쨜":2278,"쨩":2279,"쨰":2280,"쩄":2281,"쩊":2282,"쩌":2283,"쩍":2284,"쩐":2285,"쩔":2286,"쩜":2287,"쩡":2288,"쩨":2289,"쩰":2290,"쪄":2291,"쪔":2292,"쪗":2293,"쪘":2294,"쪙":2295,"쪼":2296,"쪽":2297,"쫀":2298,"쫃":2299,"쫄":2300,"쫌":2301,"쫏":2302,"쫑":2303,"쫒":2304,"쫓":2305,"쫘":2306,"쫙":2307,"쫨":2308,"쬐":2309,"쬬":2310,"쬼":2311,"쭈":2312,"쭉":2313,"쭘":2314,"쭤":2315,"쭬":2316,"쮜":2317,"쮸":2318,"쯈":2319,"쯉":2320,"쯔":2321,"쯜":2322,"쯤":2323,"쯩":2324,"쯰":2325,"찌":2326,"찍":2327,"찎":2328,"찐":2329,"찓":2330,"찔":2331,"찜":2332,"찝":2333,"찟":2334,"찡":2335,"찢":2336,"차":2337,"착":2338,"찬":2339,"찮":2340,"찯":2341,"찰":2342,"찱":2343,"참":2344,"찹":2345,"찻":2346,"찼":2347,"창":2348,"찾":2349,"찿":2350,"챃":2351,"채":2352,"책":2353,"챈":2354,"챌":2355,"챕":2356,"챗":2357,"챘":2358,"챙":2359,"챠":2360,"챡":2361,"챤":2362,"챱":2363,"챴":2364,"챵":2365,"챷":2366,"처":2367,"척":2368,"천":2369,"첝":2370,"첞":2371,"철":2372,"첢":2373,"첨":2374,"첩":2375,"첫":2376,"첬":2377,"청":2378,"첯":2379,"체":2380,"첵":2381,"첸":2382,"쳇":2383,"쳐":2384,"쳒":2385,"쳘":2386,"쳠":2387,"쳣":2388,"쳤":2389,"쳥":2390,"쳨":2391,"초":2392,"촉":2393,"촌":2394,"촐":2395,"촛":2396,"총":2397,"촠":2398,"촤":2399,"촥":2400,"촨":2401,"촬":2402,"촵":2403,"최":2404,"쵝":2405,"쵸":2406,"쵹":2407,"춉":2408,"춋":2409,"춌":2410,"추":2411,"축":2412,"춘":2413,"출":2414,"춤":2415,"춥":2416,"춧":2417,"충":2418,"춰":2419,"춱":2420,"췃":2421,"췄":2422,"췌":2423,"췤":2424,"취":2425,"췸":2426,"췹":2427,"츄":2428,"츅":2429,"츕":2430,"츠":2431,"측":2432,"츤":2433,"츦":2434,"츨":2435,"층":2436,"츷":2437,"츼":2438,"칍":2439,"치":2440,"칙":2441,"칛":2442,"친":2443,"칠":2444,"침":2445,"칩":2446,"칫":2447,"칭":2448,"칮":2449,"칯":2450,"칰":2451,"칱":2452,"카":2453,"칵":2454,"칸":2455,"칼":2456,"캄":2457,"캅":2458,"캉":2459,"캌":2460,"캍":2461,"캐":2462,"캔":2463,"캗":2464,"캠":2465,"캡":2466,"캣":2467,"캤":2468,"캥":2469,"캬":2470,"컀":2471,"컄":2472,"커":2473,"컨":2474,"컫":2475,"컬":2476,"컴":2477,"컵":2478,"컷":2479,"컸":2480,"컹":2481,"컼":2482,"케":2483,"켁":2484,"켄":2485,"켈":2486,"켓":2487,"켕":2488,"켘":2489,"켜":2490,"켠":2491,"켤":2492,"켬":2493,"켭":2494,"켯":2495,"켰":2496,"코":2497,"콕":2498,"콘":2499,"콜":2500,"콤":2501,"콧":2502,"콩":2503,"콬":2504,"콰":2505,"콱":2506,"콸":2507,"쾅":2508,"쾌":2509,"쿄":2510,"쿗":2511,"쿜":2512,"쿠":2513,"쿡":2514,"쿤":2515,"쿨":2516,"쿰":2517,"쿵":2518,"쿸":2519,"쿼":2520,"퀀":2521,"퀄":2522,"퀘":2523,"퀴":2524,"퀸":2525,"큐":2526,"큘":2527,"큥":2528,"큨":2529,"큩":2530,"크":2531,"큰":2532,"클":2533,"큼":2534,"큽":2535,"킁":2536,"킂":2537,"킄":2538,"킅":2539,"킇":2540,"킈":2541,"킠":2542,"키":2543,"킥":2544,"킨":2545,"킬":2546,"킴":2547,"킵":2548,"킷":2549,"킹":2550,"킼":2551,"타":2552,"탁":2553,"탄":2554,"탆":2555,"탈":2556,"탉":2557,"탍":2558,"탐":2559,"탑":2560,"탓":2561,"탔":2562,"탕":2563,"탗":2564,"탘":2565,"탙":2566,"탛":2567,"태":2568,"택":2569,"탠":2570,"탤":2571,"탬":2572,"탭":2573,"탯":2574,"탱":2575,"탸":2576,"턍":2577,"터":2578,"턱":2579,"턴":2580,"턷":2581,"털":2582,"텀":2583,"텂":2584,"텃":2585,"텄":2586,"텅":2587,"테":2588,"텍":2589,"텐":2590,"텔":2591,"템":2592,"텝":2593,"텥":2594,"텨":2595,"텻":2596,"텼":2597,"토":2598,"톡":2599,"톤":2600,"톨":2601,"톰":2602,"톱":2603,"통":2604,"톷":2605,"톹":2606,"톼":2607,"퇴":2608,"툐":2609,"툤":2610,"투":2611,"툭":2612,"툰":2613,"툴":2614,"툼":2615,"툽":2616,"퉁":2617,"퉅":2618,"퉆":2619,"퉈":2620,"퉛":2621,"퉤":2622,"퉵":2623,"퉷":2624,"튀":2625,"튄":2626,"튈":2627,"튐":2628,"튕":2629,"튜":2630,"튠":2631,"튤":2632,"튭":2633,"트":2634,"특":2635,"튼":2636,"틀":2637,"틈":2638,"틍":2639,"틐":2640,"틑":2641,"틓":2642,"틔":2643,"티":2644,"틱":2645,"틴":2646,"틸":2647,"팀":2648,"팁":2649,"팄":2650,"팅":2651,"파":2652,"팍":2653,"판":2654,"팓":2655,"팔":2656,"팜":2657,"팝":2658,"팟":2659,"팠":2660,"팡":2661,"팢":2662,"팤":2663,"팥":2664,"팦":2665,"팧":2666,"패":2667,"팩":2668,"팬":2669,"팰":2670,"팸":2671,"팹":2672,"팽":2673,"퍃":2674,"퍄":2675,"퍈":2676,"퍌":2677,"퍙":2678,"퍚":2679,"퍠":2680,"퍼":2681,"퍽":2682,"펀":2683,"펃":2684,"펄":2685,"펌":2686,"펏":2687,"펐":2688,"펑":2689,"펗":2690,"페":2691,"펙":2692,"펜":2693,"펠":2694,"펫":2695,"펭":2696,"펴":2697,"편":2698,"펼":2699,"폄":2700,"폈":2701,"평":2702,"폐":2703,"포":2704,"폭":2705,"폰":2706,"폴":2707,"폼":2708,"퐁":2709,"퐃":2710,"퐈":2711,"퐉":2712,"퐤":2713,"표":2714,"푝":2715,"푠":2716,"푤":2717,"푱":2718,"푶":2719,"푸":2720,"푹":2721,"푼":2722,"풀":2723,"품":2724,"풉":2725,"풋":2726,"풍":2727,"풒":2728,"풓":2729,"풔":2730,"풩":2731,"퓌":2732,"퓔":2733,"퓨":2734,"퓬":2735,"퓯":2736,"퓰":2737,"퓽":2738,"픂":2739,"픃":2740,"프":2741,"픅":2742,"픈":2743,"플":2744,"픔":2745,"픕":2746,"픗":2747,"픙":2748,"픞":2749,"픠":2750,"픨":2751,"픵":2752,"피":2753,"픽":2754,"핀":2755,"필":2756,"핋":2757,"핌":2758,"핍":2759,"핏":2760,"핑":2761,"핖":2762,"핗":2763,"하":2764,"학":2765,"핚":2766,"한":2767,"핟":2768,"할":2769,"핡":2770,"핢":2771,"핥":2772,"함":2773,"합":2774,"핫":2775,"핬":2776,"항":2777,"핮":2778,"핱":2779,"핳":2780,"해":2781,"핵":2782,"핶":2783,"핸":2784,"핻":2785,"핼":2786,"햃":2787,"햄":2788,"햅":2789,"햇":2790,"했":2791,"행":2792,"햋":2793,"햌":2794,"햎":2795,"햏":2796,"햐":2797,"햔":2798,"햘":2799,"햣":2800,"햤":2801,"향":2802,"햫":2803,"햿":2804,"헀":2805,"허":2806,"헉":2807,"헌":2808,"헐":2809,"헑":2810,"헗":2811,"험":2812,"헙":2813,"헛":2814,"헜":2815,"헝":2816,"헠":2817,"헣":2818,"헤":2819,"헥":2820,"헨":2821,"헬":2822,"헷":2823,"헸":2824,"헹":2825,"헽":2826,"헿":2827,"혀":2828,"혁":2829,"현":2830,"혆":2831,"혈":2832,"혐":2833,"협":2834,"혓":2835,"혔":2836,"형":2837,"혜":2838,"호":2839,"혹":2840,"혼":2841,"혿":2842,"홀":2843,"홈":2844,"홉":2845,"홋":2846,"홍":2847,"홓":2848,"화":2849,"확":2850,"홗":2851,"환":2852,"활":2853,"홤":2854,"홧":2855,"황":2856,"홰":2857,"횃":2858,"회":2859,"획":2860,"횟":2861,"횡":2862,"효":2863,"횻":2864,"횽":2865,"훃":2866,"후":2867,"훅":2868,"훈":2869,"훋":2870,"훌":2871,"훑":2872,"훔":2873,"훗":2874,"훙":2875,"훟":2876,"훠":2877,"훤":2878,"훨":2879,"훼":2880,"휄":2881,"휏":2882,"휑":2883,"휘":2884,"휠":2885,"휩":2886,"휳":2887,"휴":2888,"흉":2889,"흏":2890,"흐":2891,"흑":2892,"흒":2893,"흓":2894,"흔":2895,"흗":2896,"흘":2897,"흙":2898,"흟":2899,"흠":2900,"흡":2901,"흥":2902,"흩":2903,"흫":2904,"희":2905,"흭":2906,"흰":2907,"흼":2908,"힁":2909,"힇":2910,"히":2911,"힉":2912,"힌":2913,"힏":2914,"힐":2915,"힘":2916,"힙":2917,"힛":2918,"힝":2919,"힣":2920,"##색":2921,"##해":2922,"##놓":2923,"##도":2924,"##짝":2925,"##놀":2926,"##랐":2927,"##넹":2928,"##옥":2929,"##행":2930,"##이":2931,"##랑":2932,"##력":2933,"##운":2934,"##동":2935,"##재":2936,"##짜":2937,"##어":2938,"##지":2939,"##는":2940,"##데":2941,"##져":2942,"##부":2943,"##렀":2944,"##다":2945,"##복":2946,"##하":2947,"##니":2948,"##달":2949,"##0":2950,"##원":2951,"##씩":2952,"##은":2953,"##석":2954,"##티":2955,"##쳐":2956,"##와":2957,"##갔":2958,"##면":2959,"##서":2960,"##파":2961,"##렌":2962,"##시":2963,"##스":2964,"##개":2965,"##때":2966,"##잏":2967,"##고":2968,"##덕":2969,"##질":2970,"##게":2971,"##화":2972,"##할":2973,"##수":2974,"##잇":2975,"##거":2976,"##임":2977,"##호":2978,"##흡":2979,"##야":2980,"##쪽":2981,"##인":2982,"##가":2983,"##나":2984,"##장":2985,"##자":2986,"##를":2987,"##터":2988,"##구":2989,"##오":2990,"##징":2991,"##며":2992,"##안":2993,"##아":2994,"##갈":2995,"##볼":2996,"##돼":2997,"##짐":2998,"##로":2999,"##당":3000,"##능":3001,"##겠":3002,"##요":3003,"##났":3004,"##순":3005,"##없":3006,"##r":3007,"##g":3008,"##u":3009,"##m":3010,"##e":3011,"##n":3012,"##t":3013,"##s":3014,"##플":3015,"##1":3016,"##2":3017,"##기":3018,"##싫":3019,"##ㅓ":3020,"##설":3021,"##쓰":3022,"##주":3023,"##관":3024,"##차":3025,"##엉":3026,"##생":3027,"##각":3028,"##밖":3029,"##에":3030,"##싸":3031,"##음":3032,"##ㅎ":3033,"##리":3034,"##싶":3035,"##었":3036,"##던":3037,"##금":3038,"##준":3039,"##비":3040,"##버":3041,"##려":3042,"##쥐":3043,"##네":3044,"##건":3045,"##조":3046,"##증":3047,"##든":3048,"##있":3049,"##대":3050,"##성":3051,"##했":3052,"##찌":3053,"##셜":3054,"##단":3055,"##말":3056,"##사":3057,"##받":3058,"##라":3059,"##그":3060,"##래":3061,"##과":3062,"##물":3063,"##만":3064,"##으":3065,"##진":3066,"##된":3067,"##같":3068,"##일":3069,"##제":3070,"##함":3071,"##형":3072,"##ㄴ":3073,"##닭":3074,"##을":3075,"##혔":3076,"##ㅠ":3077,"##두":3078,"##명":3079,"##겻":3080,"##ㅋ":3081,"##한":3082,"##잖":3083,"##간":3084,"##둑":3085,"##셈":3086,"##쑈":3087,"##툰":3088,"##보":3089,"##마":3090,"##저":3091,"##겅":3092,"##짓":3093,"##키":3094,"##랭":3095,"##녀":3096,"##ㅏ":3097,"##ㄱ":3098,"##온":3099,"##겨":3100,"##봐":3101,"##베":3102,"##셔":3103,"##썽":3104,"##훼":3105,"##내":3106,"##놔":3107,"##떨":3108,"##린":3109,"##친":3110,"##뎅":3111,"##절":3112,"##ㅑ":3113,"##러":3114,"##드":3115,"##럽":3116,"##긴":3117,"##뻤":3118,"##깥":3119,"##왔":3120,"##신":3121,"##습":3122,"##식":3123,"##전":3124,"##됨":3125,"##경":3126,"##영":3127,"##씨":3128,"##되":3129,"##탈":3130,"##졌":3131,"##l":3132,"##빠":3133,"##치":3134,"##무":3135,"##것":3136,"##ㅛ":3137,"##른":3138,"##람":3139,"##였":3140,"##누":3141,"##중":3142,"##ㄹ":3143,"##쳤":3144,"##병":3145,"##셨":3146,"##픈":3147,"##댜":3148,"##연":3149,"##ㅜ":3150,"##ㅅ":3151,"##계":3152,"##워":3153,"##우":3154,"##엄":3155,"##써":3156,"##느":3157,"##날":3158,"##ㄲ":3159,"##ㄷ":3160,"##령":3161,"##않":3162,"##용":3163,"##범":3164,"##여":3165,"##텐":3166,"##눔":3167,"##끼":3168,"##런":3169,"##배":3170,"##본":3171,"##막":3172,"##혀":3173,"##십":3174,"##쇼":3175,"##혼":3176,"##쪄":3177,"##퍼":3178,"##또":3179,"##탄":3180,"##o":3181,"##업":3182,"##젛":3183,"##격":3184,"##냥":3185,"##퉤":3186,"##테":3187,"##빈":3188,"##트":3189,"##론":3190,"##공":3191,"##훈":3192,"##분":3193,"##들":3194,"##글":3195,"##듯":3196,"##롥":3197,"##미":3198,"##뺏":3199,"##닌":3200,"##3":3201,"##히":3202,"##겼":3203,"##군":3204,"##았":3205,"##틸":3206,"##산":3207,"##좀":3208,"##출":3209,"##올":3210,"##렸":3211,"##청":3212,"##렵":3213,"##천":3214,"##걸":3215,"##꾸":3216,"##ㅇ":3217,"##울":3218,"##례":3219,"##ㅂ":3220,"##따":3221,"##먹":3222,"##잘":3223,"##피":3224,"##끄":3225,"##디":3226,"##의":3227,"##링":3228,"##ㅌ":3229,"##후":3230,"##루":3231,"##노":3232,"##허":3233,"##애":3234,"##줘":3235,"##꺼":3236,"##번":3237,"##상":3238,"##못":3239,"##정":3240,"##료":3241,"##즈":3242,"##망":3243,"##억":3244,"##년":3245,"##z":3246,"##4":3247,"##d":3248,"##세":3249,"##녔":3250,"##9":3251,"##림":3252,"##뜨":3253,"##듢":3254,"##멘":3255,"##점":3256,"##털":3257,"##뭇":3258,"##얼":3259,"##월":3260,"##반":3261,"##브":3262,"##체":3263,"##작":3264,"##햇":3265,"##엇":3266,"##렇":3267,"##알":3268,"##눠":3269,"##옴":3270,"##편":3271,"##냈":3272,"##난":3273,"##문":3274,"##르":3275,"##모":3276,"##잔":3277,"##프":3278,"##감":3279,"##굴":3280,"##죽":3281,"##닦":3282,"##소":3283,"##목":3284,"##록":3285,"##종":3286,"##선":3287,"##더":3288,"##5":3289,"##ㅍ":3290,"##돠":3291,"##팟":3292,"##럴":3293,"##욮":3294,"##타":3295,"##옹":3296,"##킬":3297,"##땐":3298,"##줬":3299,"##냐":3300,"##멸":3301,"##ㅁ":3302,"##ㅣ":3303,"##찰":3304,"##송":3305,"##깐":3306,"##패":3307,"##컵":3308,"##캐":3309,"##ㅐ":3310,"##바":3311,"##닥":3312,"##찍":3313,"##새":3314,"##카":3315,"##텔":3316,"##낌":3317,"##살":3318,"##릴":3319,"##까":3320,"##근":3321,"##졸":3322,"##듕":3323,"##염":3324,"##곤":3325,"##심":3326,"##먼":3327,"##크":3328,"##류":3329,"##육":3330,"##통":3331,"##매":3332,"##읽":3333,"##회":3334,"##랬":3335,"##쌌":3336,"##추":3337,"##f":3338,"##퇴":3339,"##쓸":3340,"##뭐":3341,"##랄":3342,"##ㅈ":3343,"##민":3344,"##표":3345,"##킨":3346,"##방":3347,"##집":3348,"##위":3349,"##킵":3350,"##발":3351,"##째":3352,"##코":3353,"##v":3354,"##i":3355,"##옸":3356,"##북":3357,"##충":3358,"##뜀":3359,"##속":3360,"##법":3361,"##츠":3362,"##삿":3363,"##유":3364,"##샵":3365,"##길":3366,"##좋":3367,"##젝":3368,"##급":3369,"##샥":3370,"##껀":3371,"##토":3372,"##퍄":3373,"##란":3374,"##레":3375,"##칭":3376,"##처":3377,"##럼":3378,"##웅":3379,"##적":3380,"##밋":3381,"##롭":3382,"##뉴":3383,"##품":3384,"##헙":3385,"##핳":3386,"##합":3387,"##님":3388,"##홀":3389,"##ㅡ":3390,"##응":3391,"##딱":3392,"##8":3393,"##쪼":3394,"##밭":3395,"##줄":3396,"##랴":3397,"##태":3398,"##투":3399,"##섯":3400,"##머":3401,"##별":3402,"##a":3403,"##댓":3404,"##늘":3405,"##뒤":3406,"##ㅔ":3407,"##딨":3408,"##닝":3409,"##b":3410,"##빔":3411,"##봤":3412,"##교":3413,"##름":3414,"##낭":3415,"##떠":3416,"##완":3417,"##쌤":3418,"##양":3419,"##값":3420,"##앞":3421,"##닏":3422,"##켈":3423,"##케":3424,"##렠":3425,"##렉":3426,"##렬":3427,"##ㄻ":3428,"##큼":3429,"##박":3430,"##혹":3431,"##둔":3432,"##곳":3433,"##찾":3434,"##놈":3435,"##입":3436,"##뭉":3437,"##낟":3438,"##폰":3439,"##득":3440,"##렁":3441,"##돈":3442,"##얘":3443,"##담":3444,"##역":3445,"##벙":3446,"##뇨":3447,"##메":3448,"##벌":3449,"##풀":3450,"##퓨":3451,"##봄":3452,"##락":3453,"##킅":3454,"##련":3455,"##왉":3456,"##환":3457,"##콘":3458,"##륵":3459,"##p":3460,"##께":3461,"##변":3462,"##술":3463,"##촌":3464,"##c":3465,"##ㅆ":3466,"##척":3467,"##웠":3468,"##묵":3469,"##낳":3470,"##괴":3471,"##냔":3472,"##학":3473,"##몬":3474,"##현":3475,"##휴":3476,"##될":3477,"##깉":3478,"##샘":3479,"##탑":3480,"##포":3481,"##권":3482,"##죠":3483,"##탕":3484,"##맞":3485,"##궈":3486,"##팬":3487,"##넜":3488,"##눌":3489,"##찮":3490,"##쯤":3491,"##슷":3492,"##잍":3493,"##봅":3494,"##뷴":3495,"##강":3496,"##농":3497,"##꼬":3498,"##뒈":3499,"##움":3500,"##붜":3501,"##헤":3502,"##팅":3503,"##싼":3504,"##극":3505,"##잠":3506,"##엔":3507,"##앙":3508,"##얐":3509,"##깡":3510,"##웡":3511,"##잤":3512,"##뜻":3513,"##앤":3514,"##짤":3515,"##승":3516,"##덜":3517,"##뱔":3518,"##떻":3519,"##너":3520,"##활":3521,"##량":3522,"##탙":3523,"##닐":3524,"##밥":3525,"##불":3526,"##맥":3527,"##언":3528,"##솜":3529,"##덷":3530,"##깨":3531,"##겜":3532,"##폭":3533,"##침":3534,"##맙":3535,"##램":3536,"##멍":3537,"##힘":3538,"##헌":3539,"##남":3540,"##션":3541,"##ㅉ":3542,"##밌":3543,"##헐":3544,"##향":3545,"##놏":3546,"##컬":3547,"##옿":3548,"##풍":3549,"##엘":3550,"##헜":3551,"##욜":3552,"##앰":3553,"##띵":3554,"##덥":3555,"##읋":3556,"##ㅗ":3557,"##얀":3558,"##콜":3559,"##돔":3560,"##죵":3561,"##봏":3562,"##얏":3563,"##규":3564,"##줌":3565,"##깎":3566,"##늬":3567,"##확":3568,"##빡":3569,"##판":3570,"##벼":3571,"##률":3572,"##떤":3573,"##찢":3574,"##뷰":3575,"##귀":3576,"##쉨":3577,"##쟁":3578,"##얍":3579,"##씀":3580,"##폴":3581,"##맂":3582,"##왓":3583,"##턴":3584,"##귄":3585,"##낀":3586,"##앨":3587,"##놨":3588,"##쁘":3589,"##튼":3590,"##봉":3591,"##국":3592,"##꿨":3593,"##냄":3594,"##졍":3595,"##됫":3596,"##빤":3597,"##초":3598,"##렜":3599,"##몀":3600,"##ㅕ":3601,"##광":3602,"##뻔":3603,"##빼":3604,"##몇":3605,"##킹":3606,"##팔":3607,"##템":3608,"##됐":3609,"##씁":3610,"##칩":3611,"##델":3612,"##엽":3613,"##칸":3614,"##샛":3615,"##볶":3616,"##밀":3617,"##쉬":3618,"##릿":3619,"##뚱":3620,"##닁":3621,"##딩":3622,"##칠":3623,"##뚜":3624,"##효":3625,"##깄":3626,"##j":3627,"##k":3628,"##w":3629,"##직":3630,"##녹":3631,"##숙":3632,"##샸":3633,"##백":3634,"##뭔":3635,"##숭":3636,"##흐":3637,"##죤":3638,"##잼":3639,"##족":3640,"##햐":3641,"##쎵":3642,"##ㅊ":3643,"##뉘":3644,"##꽈":3645,"##슴":3646,"##쩌":3647,"##념":3648,"##층":3649,"##팀":3650,"##펑":3651,"##듣":3652,"##씹":3653,"##깝":3654,"##썜":3655,"##펄":3656,"##쩡":3657,"##쥬":3658,"##럈":3659,"##ㅝ":3660,"##즹":3661,"##렴":3662,"##뮬":3663,"##취":3664,"##썻":3665,"##굑":3666,"##렐":3667,"##솦":3668,"##웨":3669,"##황":3670,"##꿔":3671,"##끝":3672,"##겡":3673,"##쩔":3674,"##욕":3675,"##잡":3676,"##쫄":3677,"##햔":3678,"##악":3679,"##숵":3680,"##팠":3681,"##렝":3682,"##좌":3683,"##뒹":3684,"##쑴":3685,"##힣":3686,"##둘":3687,"##흔":3688,"##췸":3689,"##평":3690,"##밍":3691,"##첨":3692,"##왕":3693,"##탠":3694,"##셧":3695,"##켜":3696,"##돌":3697,"##접":3698,"##댕":3699,"##췄":3700,"##썼":3701,"##엲":3702,"##뤼":3703,"##혁":3704,"##샤":3705,"##춰":3706,"##욬":3707,"##꿀":3708,"##팁":3709,"##깼":3710,"##힝":3711,"##결":3712,"##쿤":3713,"##희":3714,"##롤":3715,"##쉽":3716,"##뿐":3717,"##헗":3718,"##참":3719,"##맘":3720,"##랜":3721,"##폼":3722,"##쁨":3723,"##핑":3724,"##커":3725,"##h":3726,"##룰":3727,"##엿":3728,"##겁":3729,"##예":3730,"##꽃":3731,"##봇":3732,"##햤":3733,"##등":3734,"##웃":3735,"##곡":3736,"##딴":3737,"##껴":3738,"##실":3739,"##찬":3740,"##왜":3741,"##넘":3742,"##엏":3743,"##6":3744,"##축":3745,"##떄":3746,"##엥":3747,"##빨":3748,"##뤠":3749,"##넷":3750,"##앍":3751,"##쏘":3752,"##끌":3753,"##팡":3754,"##톡":3755,"##낼":3756,"##싀":3757,"##옶":3758,"##켓":3759,"##롱":3760,"##쑤":3761,"##빌":3762,"##짠":3763,"##뻐":3764,"##찡":3765,"##혜":3766,"##항":3767,"##견":3768,"##딧":3769,"##블":3770,"##맺":3771,"##쾅":3772,"##찜":3773,"##탭":3774,"##홉":3775,"##벽":3776,"##총":3777,"##쉐":3778,"##잉":3779,"##앝":3780,"##덩":3781,"##창":3782,"##눙":3783,"##팍":3784,"##눈":3785,"##페":3786,"##뜬":3787,"##잌":3788,"##암":3789,"##외":3790,"##겟":3791,"##썅":3792,"##퍽":3793,"##랙":3794,"##깊":3795,"##낸":3796,"##삭":3797,"##칙":3798,"##봣":3799,"##걵":3800,"##떔":3801,"##땜":3802,"##쯔":3803,"##율":3804,"##켰":3805,"##클":3806,"##릭":3807,"##큐":3808,"##큨":3809,"##녜":3810,"##갖":3811,"##겄":3812,"##검":3813,"##험":3814,"##슨":3815,"##땡":3816,"##쿠":3817,"##y":3818,"##먀":3819,"##냠":3820,"##흑":3821,"##딜":3822,"##많":3823,"##눅":3824,"##읃":3825,"##톱":3826,"##센":3827,"##푸":3828,"##졋":3829,"##쉴":3830,"##깔":3831,"##뤄":3832,"##숲":3833,"##뎌":3834,"##립":3835,"##톤":3836,"##둬":3837,"##앉":3838,"##춘":3839,"##x":3840,"##땃":3841,"##끊":3842,"##읔":3843,"##썬":3844,"##삉":3845,"##혈":3846,"##앜":3847,"##끔":3848,"##싱":3849,"##쒀":3850,"##즐":3851,"##꼈":3852,"##쌈":3853,"##골":3854,"##홧":3855,"##롣":3856,"##넫":3857,"##룜":3858,"##존":3859,"##줗":3860,"##틴":3861,"##릇":3862,"##멋":3863,"##쩍":3864,"##낫":3865,"##뼈":3866,"##엊":3867,"##튜":3868,"##철":3869,"##ㄵ":3870,"##ㄺ":3871,"##맛":3872,"##ㅙ":3873,"##뒀":3874,"##욤":3875,"##렿":3876,"##샀":3877,"##튀":3878,"##윽":3879,"##룸":3880,"##묘":3881,"##븸":3882,"##7":3883,"##됬":3884,"##측":3885,"##닿":3886,"##둥":3887,"##약":3888,"##찐":3889,"##착":3890,"##칼":3891,"##빛":3892,"##넉":3893,"##밑":3894,"##푱":3895,"##죰":3896,"##ㄸ":3897,"##필":3898,"##꿈":3899,"##삼":3900,"##샨":3901,"##특":3902,"##괜":3903,"##탔":3904,"##샃":3905,"##균":3906,"##윤":3907,"##듦":3908,"##캬":3909,"##쿨":3910,"##녁":3911,"##랰":3912,"##q":3913,"##룹":3914,"##땬":3915,"##픽":3916,"##젔":3917,"##액":3918,"##탱":3919,"##촨":3920,"##엌":3921,"##숳":3922,"##앎":3923,"##똔":3924,"##랏":3925,"##샷":3926,"##택":3927,"##뽑":3928,"##슈":3929,"##빵":3930,"##텀":3931,"##꼽":3932,"##탐":3933,"##꺄":3934,"##섣":3935,"##씻":3936,"##ㅄ":3937,"##끗":3938,"##책":3939,"##겸":3940,"##틈":3941,"##냇":3942,"##룡":3943,"##띤":3944,"##륌":3945,"##갸":3946,"##챠":3947,"##헿":3948,"##쁜":3949,"##눼":3950,"##깜":3951,"##옝":3952,"##랻":3953,"##럿":3954,"##ㄿ":3955,"##칵":3956,"##싯":3957,"##븐":3958,"##끜":3959,"##셋":3960,"##힐":3961,"##픙":3962,"##칫":3963,"##슬":3964,"##떼":3965,"##늕":3966,"##독":3967,"##삽":3968,"##겹":3969,"##쟈":3970,"##팸":3971,"##녕":3972,"##뛰":3973,"##쓴":3974,"##틍":3975,"##랩":3976,"##몸":3977,"##잎":3978,"##촉":3979,"##욱":3980,"##썩":3981,"##싳":3982,"##쎄":3983,"##뀜":3984,"##섭":3985,"##흘":3986,"##탆":3987,"##롸":3988,"##펌":3989,"##옷":3990,"##셀":3991,"##늠":3992,"##묻":3993,"##랫":3994,"##덤":3995,"##싴":3996,"##꺠":3997,"##끈":3998,"##줭":3999,"##넝":4000,"##흉":4001,"##쿼":4002,"##뽕":4003,"##됌":4004,"##땅":4005,"##넣":4006,"##쪘":4007,"##쒸":4008,"##갱":4009,"##뎀":4010,"##푠":4011,"##쏭":4012,"##밤":4013,"##닫":4014,"##쭘":4015,"##닛":4016,"##큰":4017,"##답":4018,"##컨":4019,"##텨":4020,"##챴":4021,"##논":4022,"##열":4023,"##툼":4024,"##굽":4025,"##펴":4026,"##킴":4027,"##닽":4028,"##팝":4029,"##맴":4030,"##앗":4031,"##틀":4032,"##김":4033,"##헉":4034,"##맨":4035,"##텍":4036,"##븍":4037,"##쁀":4038,"##낙":4039,"##뵤":4040,"##힛":4041,"##믄":4042,"##띠":4043,"##똑":4044,"##턍":4045,"##춋":4046,"##뀌":4047,"##쇄":4048,"##씅":4049,"##캉":4050,"##릎":4051,"##벵":4052,"##뀐":4053,"##궁":4054,"##푼":4055,"##ㄾ":4056,"##벅":4057,"##걷":4058,"##랸":4059,"##핟":4060,"##퓬":4061,"##ㅘ":4062,"##떡":4063,"##뜯":4064,"##웁":4065,"##겤":4066,"##찔":4067,"##젠":4068,"##햌":4069,"##읍":4070,"##펙":4071,"##탘":4072,"##콰":4073,"##픔":4074,"##힌":4075,"##렂":4076,"##닷":4077,"##쁠":4078,"##잊":4079,"##붙":4080,"##손":4081,"##펀":4082,"##롬":4083,"##므":4084,"##햣":4085,"##춤":4086,"##곰":4087,"##탁":4088,"##갘":4089,"##벗":4090,"##톷":4091,"##획":4092,"##샣":4093,"##꾼":4094,"##껄":4095,"##납":4096,"##맡":4097,"##룽":4098,"##퀴":4099,"##쭤":4100,"##쩐":4101,"##욘":4102,"##궜":4103,"##왐":4104,"##댔":4105,"##익":4106,"##땀":4107,"##웤":4108,"##탸":4109,"##듬":4110,"##텼":4111,"##둡":4112,"##늴":4113,"##귬":4114,"##뇌":4115,"##컹":4116,"##덭":4117,"##삶":4118,"##뎋":4119,"##럭":4120,"##채":4121,"##헥":4122,"##챙":4123,"##듀":4124,"##뺌":4125,"##놧":4126,"##뮤":4127,"##갓":4128,"##컸":4129,"##돋":4130,"##갑":4131,"##쫏":4132,"##최":4133,"##ㅒ":4134,"##롹":4135,"##슐":4136,"##몰":4137,"##닮":4138,"##퐁":4139,"##댱":4140,"##붐":4141,"##훠":4142,"##앟":4143,"##쿗":4144,"##겔":4145,"##쌍":4146,"##넬":4147,"##짏":4148,"##얌":4149,"##팓":4150,"##객":4151,"##붛":4152,"##휘":4153,"##갯":4154,"##꼴":4155,"##갚":4156,"##왱":4157,"##펜":4158,"##웹":4159,"##쉿":4160,"##짰":4161,"##첵":4162,"##챵":4163,"##긍":4164,"##츄":4165,"##첝":4166,"##욧":4167,"##쭉":4168,"##룬":4169,"##뙈":4170,"##뤃":4171,"##쉘":4172,"##썹":4173,"##뎦":4174,"##챃":4175,"##끓":4176,"##싿":4177,"##떴":4178,"##깃":4179,"##헝":4180,"##걱":4181,"##삐":4182,"##윈":4183,"##갤":4184,"##럾":4185,"##헷":4186,"##긋":4187,"##훟":4188,"##널":4189,"##롲":4190,"##엎":4191,"##굶":4192,"##쨈":4193,"##쳥":4194,"##꼼":4195,"##끆":4196,"##슿":4197,"##솥":4198,"##숑":4199,"##됃":4200,"##싷":4201,"##낄":4202,"##겯":4203,"##짱":4204,"##쵸":4205,"##쁩":4206,"##뉑":4207,"##쟜":4208,"##쫀":4209,"##륀":4210,"##융":4211,"##셉":4212,"##쌀":4213,"##얻":4214,"##앵":4215,"##숴":4216,"##협":4217,"##넛":4218,"##흥":4219,"##쓱":4220,"##슥":4221,"##귿":4222,"##핶":4223,"##혐":4224,"##핸":4225,"##폐":4226,"##쳣":4227,"##섕":4228,"##훌":4229,"##옙":4230,"##썰":4231,"##톨":4232,"##뜩":4233,"##콧":4234,"##갗":4235,"##묜":4236,"##렆":4237,"##먄":4238,"##렙":4239,"##곱":4240,"##쯜":4241,"##욐":4242,"##찝":4243,"##밝":4244,"##엣":4245,"##숫":4246,"##긱":4247,"##얕":4248,"##럄":4249,"##냉":4250,"##넢":4251,"##똥":4252,"##컴":4253,"##닡":4254,"##킄":4255,"##볍":4256,"##쯰":4257,"##뎄":4258,"##냪":4259,"##덮":4260,"##ㅀ":4261,"##늊":4262,"##엤":4263,"##높":4264,"##뤙":4265,"##뚤":4266,"##둗":4267,"##룯":4268,"##뽀":4269,"##쨕":4270,"##쨖":4271,"##빋":4272,"##칮":4273,"##굔":4274,"##땨":4275,"##압":4276,"##탯":4277,"##헣":4278,"##팩":4279,"##꺽":4280,"##뉭":4281,"##맀":4282,"##짢":4283,"##랍":4284,"##웋":4285,"##벨":4286,"##짛":4287,"##빳":4288,"##앱":4289,"##읶":4290,"##헨":4291,"##껐":4292,"##찯":4293,"##뀔":4294,"##옮":4295,"##벫":4296,"##맜":4297,"##컷":4298,"##얽":4299,"##핱":4300,"##넟":4301,"##썸":4302,"##룔":4303,"##샌":4304,"##씪":4305,"##팢":4306,"##늙":4307,"##홓":4308,"##뱍":4309,"##슉":4310,"##흫":4311,"##롷":4312,"##핬":4313,"##뎉":4314,"##넙":4315,"##늦":4316,"##긁":4317,"##뻘":4318,"##숨":4319,"##랖":4320,"##쨰":4321,"##켄":4322,"##꼭":4323,"##읗":4324,"##츕":4325,"##죄":4326,"##잫":4327,"##홰":4328,"##쒕":4329,"##풩":4330,"##벋":4331,"##긔":4332,"##슙":4333,"##얒":4334,"##헬":4335,"##젹":4336,"##탬":4337,"##걌":4338,"##왁":4339,"##굳":4340,"##믿":4341,"##꼐":4342,"##딘":4343,"##럅":4344,"##덟":4345,"##뇽":4346,"##덧":4347,"##홍":4348,"##넴":4349,"##빙":4350,"##챗":4351,"##왈":4352,"##봥":4353,"##즌":4354,"##잃":4355,"##략":4356,"##핮":4357,"##풔":4358,"##깅":4359,"##벤":4360,"##셍":4361,"##댁":4362,"##ㅞ":4363,"##렛":4364,"##잭":4365,"##툽":4366,"##멀":4367,"##맠":4368,"##엑":4369,"##붕":4370,"##맷":4371,"##놘":4372,"##샇":4373,"##뻣":4374,"##렺":4375,"##엡":4376,"##즛":4377,"##킼":4378,"##샜":4379,"##즘":4380,"##샬":4381,"##뒙":4382,"##륑":4383,"##랔":4384,"##덯":4385,"##펏":4386,"##렘":4387,"##솝":4388,"##셩":4389,"##캄":4390,"##싑":4391,"##젬":4392,"##뉸":4393,"##뺴":4394,"##끽":4395,"##탓":4396,"##쳘":4397,"##곧":4398,"##덱":4399,"##쉉":4400,"##곸":4401,"##푝":4402,"##쵹":4403,"##겢":4404,"##왘":4405,"##햏":4406,"##샅":4407,"##즁":4408,"##츦":4409,"##켘":4410,"##ㅖ":4411,"##랕":4412,"##탍":4413,"##텥":4414,"##닜":4415,"##컄":4416,"##눕":4417,"##맣":4418,"##뮾":4419,"##짬":4420,"##귺":4421,"##댈":4422,"##훙":4423,"##싈":4424,"##웕":4425,"##쿰":4426,"##숟":4427,"##뿜":4428,"##랃":4429,"##윙":4430,"##캔":4431,"##쎈":4432,"##늌":4433,"##닉":4434,"##댯":4435,"##캠":4436,"##몹":4437,"##랅":4438,"##떵":4439,"##듈":4440,"##랳":4441,"##냏":4442,"##뵷":4443,"##랂":4444,"##늼":4445,"##됩":4446,"##픂":4447,"##쨜":4448,"##됑":4449,"##륜":4450,"##ㅃ":4451,"##칛":4452,"##윳":4453,"##빰":4454,"##뿌":4455,"##땠":4456,"##냊":4457,"##펐":4458,"##줐":4459,"##칍":4460,"##틱":4461,"##섲":4462,"##맹":4463,"##넌":4464,"##뎠":4465,"##뤘":4466,"##뉵":4467,"##둣":4468,"##꾹":4469,"##앖":4470,"##냤":4471,"##펠":4472,"##큽":4473,"##흙":4474,"##뚝":4475,"##녓":4476,"##쿄":4477,"##캣":4478,"##긓":4479,"##먐":4480,"##잚":4481,"##궐":4482,"##쟐":4483,"##깬":4484,"##ㄶ":4485,"##겐":4486,"##떳":4487,"##댣":4488,"##딸":4489,"##잰":4490,"##갠":4491,"##핏":4492,"##냅":4493,"##릅":4494,"##듭":4495,"##햫":4496,"##헸":4497,"##뎸":4498,"##넒":4499,"##퓯":4500,"##엠":4501,"##턱":4502,"##깸":4503,"##뱅":4504,"##얄":4505,"##돨":4506,"##렷":4507,"##쪙":4508,"##쾌":4509,"##튭":4510,"##샐":4511,"##굼":4512,"##갵":4513,"##킁":4514,"##잣":4515,"##웽":4516,"##텅":4517,"##옆":4518,"##뒁":4519,"##랗":4520,"##옭":4521,"##믓":4522,"##륭":4523,"##웆":4524,"##펫":4525,"##껍":4526,"##빕":4527,"##빅":4528,"##뭄":4529,"##솔":4530,"##씬":4531,"##몽":4532,"##륽":4533,"##샹":4534,"##뺐":4535,"##뤵":4536,"##늚":4537,"##쿡":4538,"##릉":4539,"##겆":4540,"##읭":4541,"##땄":4542,"##욥":4543,"##뚫":4544,"##낲":4545,"##ㅟ":4546,"##쉑":4547,"##좔":4548,"##뮫":4549,"##뉻":4550,"##볕":4551,"##뱃":4552,"##쬬":4553,"##걨":4554,"##섑":4555,"##댸":4556,"##옛":4557,"##떙":4558,"##풓":4559,"##큘":4560,"##짹":4561,"##긿":4562,"##콩":4563,"##쨋":4564,"##믇":4565,"##밧":4566,"##둠":4567,"##룩":4568,"##귗":4569,"##튤":4570,"##킥":4571,"##륨":4572,"##껨":4573,"##븃":4574,"##멈":4575,"##엩":4576,"##딈":4577,"##핵":4578,"##쟤":4579,"##팽":4580,"##윰":4581,"##셬":4582,"##뤈":4583,"##뗘":4584,"##쩊":4585,"##퍠":4586,"##궸":4587,"##툭":4588,"##쯈":4589,"##뢰":4590,"##걀":4591,"##츨":4592,"##걳":4593,"##벳":4594,"##힉":4595,"##릏":4596,"##앓":4597,"##ㄼ":4598,"##끕":4599,"##휏":4600,"##롯":4601,"##혓":4602,"##솨":4603,"##얗":4604,"##삘":4605,"##딯":4606,"##뎃":4607,"##핀":4608,"##낑":4609,"##꽉":4610,"##읅":4611,"##흗":4612,"##뵙":4613,"##퀄":4614,"##훅":4615,"##뻥":4616,"##눨":4617,"##됀":4618,"##낚":4619,"##갼":4620,"##싹":4621,"##뎨":4622,"##썾":4623,"##뉜":4624,"##떈":4625,"##엙":4626,"##얶":4627,"##밈":4628,"##팥":4629,"##웊":4630,"##뫄":4631,"##춧":4632,"##믕":4633,"##밟":4634,"##멎":4635,"##찼":4636,"##웢":4637,"##훃":4638,"##꺘":4639,"##읆":4640,"##퀘":4641,"##읎":4642,"##긌":4643,"##ㄳ":4644,"##빱":4645,"##솟":4646,"##듫":4647,"##젣":4648,"##귤":4649,"##댄":4650,"##줲":4651,"##늉":4652,"##듷":4653,"##쌔":4654,"##귈":4655,"##깈":4656,"##픞":4657,"##찱":4658,"##밨":4659,"##ㅢ":4660,"##퍌":4661,"##놑":4662,"##닊":4663,"##뺄":4664,"##맟":4665,"##푤":4666,"##엮":4667,"##쌓":4668,"##뮹":4669,"##뱌":4670,"##뱆":4671,"##렾":4672,"##딪":4673,"##옵":4674,"##갬":4675,"##핗":4676,"##놤":4677,"##줅":4678,"##띾":4679,"##죔":4680,"##뺑":4681,"##앋":4682,"##눜":4683,"##쿸":4684,"##촥":4685,"##퍈":4686,"##갰":4687,"##섬":4688,"##뇼":4689,"##폈":4690,"##쫌":4691,"##릐":4692,"##졒":4693,"##럳":4694,"##쉥":4695,"##넨":4696,"##멜":4697,"##둪":4698,"##퓰":4699,"##웉":4700,"##윗":4701,"##힙":4702,"##쮸":4703,"##냘":4704,"##똫":4705,"##긏":4706,"##츼":4707,"##읕":4708,"##삑":4709,"##줍":4710,"##댐":4711,"##쿜":4712,"##퉆":4713,"##닪":4714,"##싰":4715,"##밯":4716,"##잗":4717,"##싐":4718,"##쨍":4719,"##읜":4720,"##옄":4721,"##쨩":4722,"##멧":4723,"##앆":4724,"##쫓":4725,"##줜":4726,"##밠":4727,"##굿":4728,"##웞":4729,"##뚸":4730,"##켕":4731,"##픕":4732,"##솣":4733,"##엗":4734,"##딤":4735,"##껏":4736,"##칯":4737,"##늗":4738,"##햃":4739,"##렄":4740,"##빴":4741,"##꿧":4742,"##쒯":4743,"##퐉":4744,"##낱":4745,"##쳨":4746,"##넥":4747,"##녖":4748,"##쯩":4749,"##슼":4750,"##핡":4751,"##뻠":4752,"##홈":4753,"##댂":4754,"##숍":4755,"##겎":4756,"##웄":4757,"##뜰":4758,"##찟":4759,"##잧":4760,"##섵":4761,"##멤":4762,"##웜":4763,"##괄":4764,"##눞":4765,"##둿":4766,"##젤":4767,"##츷":4768,"##믤":4769,"##뵈":4770,"##됛":4771,"##뇬":4772,"##떘":4773,"##엪":4774,"##띄":4775,"##짼":4776,"##덴":4777,"##툤":4778,"##찹":4779,"##핚":4780,"##쉰":4781,"##먿":4782,"##맬":4783,"##욳":4784,"##멒":4785,"##옺":4786,"##엍":4787,"##샢":4788,"##벟":4789,"##쿵":4790,"##룻":4791,"##읓":4792,"##좁":4793,"##욪":4794,"##띨":4795,"##앻":4796,"##옌":4797,"##닙":4798,"##횽":4799,"##씌":4800,"##잦":4801,"##룾":4802,"##첞":4803,"##닠":4804,"##룠":4805,"##숼":4806,"##왂":4807,"##뷔":4808,"##굉":4809,"##믐":4810,"##겋":4811,"##냦":4812,"##껭":4813,"##뛔":4814,"##갹":4815,"##젿":4816,"##졷":4817,"##뱉":4818,"##븰":4819,"##냑":4820,"##뎁":4821,"##짖":4822,"##좉":4823,"##얃":4824,"##읻":4825,"##쪔":4826,"##싵":4827,"##럊":4828,"##뭎":4829,"##톼":4830,"##닢":4831,"##섹":4832,"##괘":4833,"##켯":4834,"##뉨":4835,"##뿔":4836,"##눚":4837,"##왛":4838,"##ㅚ":4839,"##핢":4840,"##껑":4841,"##럣":4842,"##겊":4843,"##떢":4844,"##춌":4845,"##짆":4846,"##돕":4847,"##갇":4848,"##쯉":4849,"##땁":4850,"##뭋":4851,"##멩":4852,"##뵐":4853,"##잿":4854,"##댲":4855,"##춥":4856,"##곺":4857,"##콤":4858,"##붓":4859,"##쟘":4860,"##밎":4861,"##랠":4862,"##툐":4863,"##샆":4864,"##쏠":4865,"##됮":4866,"##큩":4867,"##챈":4868,"##눴":4869,"##닞":4870,"##윔":4871,"##톹":4872,"##웬":4873,"##곈":4874,"##짚":4875,"##짙":4876,"##텝":4877,"##캗":4878,"##븜":4879,"##튠":4880,"##깇":4881,"##뜸":4882,"##얂":4883,"##뱁":4884,"##켁":4885,"##냬":4886,"##곻":4887,"##릍":4888,"##읒":4889,"##섴":4890,"##놰":4891,"##톰":4892,"##궞":4893,"##긒":4894,"##쥼":4895,"##뭘":4896,"##넓":4897,"##넵":4898,"##뿨":4899,"##헀":4900,"##밸":4901,"##욷":4902,"##퉵":4903,"##땟":4904,"##햄":4905,"##젖":4906,"##볽":4907,"##낮":4908,"##횻":4909,"##슂":4910,"##젏":4911,"##룐":4912,"##봬":4913,"##엋":4914,"##갥":4915,"##쥰":4916,"##쳠":4917,"##줏":4918,"##썯":4919,"##꼇":4920,"##낯":4921,"##뭏":4922,"##삔":4923,"##럻":4924,"##떰":4925,"##슺":4926,"##쑐":4927,"##묭":4928,"##엶":4929,"##낡":4930,"##깁":4931,"##윅":4932,"##뽈":4933,"##갉":4934,"##깠":4935,"##싺":4936,"##핫":4937,"##탉":4938,"##룫":4939,"##쭈":4940,"##늰":4941,"##갛":4942,"##륙":4943,"##깋":4944,"##읫":4945,"##뮁":4946,"##릳":4947,"##둦":4948,"##젓":4949,"##묶":4950,"##퉁":4951,"##옃":4952,"##솓":4953,"##풋":4954,"##뢀":4955,"##쟀":4956,"##솩":4957,"##뻑":4958,"##흓":4959,"##렼":4960,"##곃":4961,"##챡":4962,"##겪":4963,"##및":4964,"##땔":4965,"##툴":4966,"##쳒":4967,"##꺔":4968,"##픃":4969,"##맵":4970,"##셰":4971,"##믹":4972,"##뺀":4973,"##븡":4974,"##앳":4975,"##빗":4976,"##퉅":4977,"##빆":4978,"##똒":4979,"##빽":4980,"##뚭":4981,"##졈":4982,"##뷸":4983,"##숔":4984,"##꿍":4985,"##럇":4986,"##뿡":4987,"##픠":4988,"##읐":4989,"##겍":4990,"##녘":4991,"##뗀":4992,"##냨":4993,"##맢":4994,"##텃":4995,"##붸":4996,"##뤫":4997,"##눟":4998,"##쥥":4999,"##렫":5000,"##캌":5001,"##퐃":5002,"##겈":5003,"##늑":5004,"##읏":5005,"##쒄":5006,"##렓":5007,"##빚":5008,"##냡":5009,"##좃":5010,"##샂":5011,"##궤":5012,"##킇":5013,"##깍":5014,"##슁":5015,"##숩":5016,"##숯":5017,"##훗":5018,"##쎌":5019,"##앧":5020,"##뎡":5021,"##앺":5022,"##킷":5023,"##밓":5024,"##쒈":5025,"##콬":5026,"##끠":5027,"##붑":5028,"##줔":5029,"##냫":5030,"##넿":5031,"##렦":5032,"##싁":5033,"##붗":5034,"##릠":5035,"##챘":5036,"##댇":5037,"##훔":5038,"##겧":5039,"##좆":5040,"##휄":5041,"##쨌":5042,"##됳":5043,"##놐":5044,"##쉭":5045,"##췌":5046,"##쥄":5047,"##끅":5048,"##싣":5049,"##픵":5050,"##컼":5051,"##욺":5052,"##핼":5053,"##늨":5054,"##똘":5055,"##짗":5056,"##쫘":5057,"##옫":5058,"##궝":5059,"##뮨":5060,"##륹":5061,"##웎":5062,"##듸":5063,"##겓":5064,"##쟉":5065,"##캅":5066,"##궂":5067,"##댛":5068,"##럐":5069,"##뭥":5070,"##딬":5071,"##칰":5072,"##뵀":5073,"##맸":5074,"##곦":5075,"##딖":5076,"##됔":5077,"##븗":5078,"##쥑":5079,"##맇":5080,"##틓":5081,"##쎔":5082,"##꿑":5083,"##젼":5084,"##곷":5085,"##웥":5086,"##귱":5087,"##쥭":5088,"##갂":5089,"##딕":5090,"##줖":5091,"##핻":5092,"##밒":5093,"##꽂":5094,"##쎙":5095,"##옂":5096,"##껫":5097,"##헑":5098,"##샊":5099,"##첩":5100,"##늫":5101,"##롼":5102,"##엱":5103,"##젯":5104,"##쟞":5105,"##딲":5106,"##밴":5107,"##겉":5108,"##횃":5109,"##밬":5110,"##욹":5111,"##괵":5112,"##잒":5113,"##뚐":5114,"##넼":5115,"##뤱":5116,"##듁":5117,"##캥":5118,"##븋":5119,"##욨":5120,"##컀":5121,"##짯":5122,"##뀨":5123,"##젶":5124,"##핖":5125,"##촵":5126,"##흠":5127,"##짇":5128,"##힇":5129,"##걍":5130,"##젇":5131,"##붘":5132,"##렏":5133,"##킈":5134,"##킠":5135,"##쟏":5136,"##A":5137,"##M":5138,"##E":5139,"##늪":5140,"##틔":5141,"##쇠":5142,"##쌋":5143,"##괼":5144,"##꺈":5145,"##붋":5146,"##씄":5147,"##짌":5148,"##챷":5149,"##뺠":5150,"##몫":5151,"##줙":5152,"##춱":5153,"##빻":5154,"##윌":5155,"##싡":5156,"##럎":5157,"##쫙":5158,"##뵜":5159,"##엳":5160,"##젆":5161,"##냣":5162,"##돗":5163,"##뚯":5164,"##엨":5165,"##퓽":5166,"##즙":5167,"##묹":5168,"##힁":5169,"##럯":5170,"##낗":5171,"##닼":5172,"##딥":5173,"##뭍":5174,"##쨔":5175,"##흏":5176,"##랼":5177,"##첫":5178,"##꼥":5179,"##즨":5180,"##욲":5181,"##줴":5182,"##썌":5183,"##츤":5184,"##쌩":5185,"##늄":5186,"##헽":5187,"##둴":5188,"##슢":5189,"##튕":5190,"##먕":5191,"##멇":5192,"##퍚":5193,"##쟌":5194,"##겿":5195,"##싄":5196,"##햋":5197,"##웈":5198,"##넞":5199,"##뽄":5200,"##탗":5201,"##꾺":5202,"##냎":5203,"##줉":5204,"##밙":5205,"##갿":5206,"##쌉":5207,"##닸":5208,"##깻":5209,"##쩄":5210,"##맑":5211,"##앶":5212,"##뾰":5213,"##벱":5214,"##낞":5215,"##싕":5216,"##맿":5217,"##잽":5218,"##쉼":5219,"##뢴":5220,"##횡":5221,"##걹":5222,"##뵘":5223,"##쟡":5224,"##풒":5225,"##쀠":5226,"##햅":5227,"##볐":5228,"##눋":5229,"##뚠":5230,"##줼":5231,"##댬":5232,"##뀡":5233,"##곘":5234,"##렑":5235,"##팤":5236,"##뛴":5237,"##슘":5238,"##졎":5239,"##옼":5240,"##윀":5241,"##윜":5242,"##ㄽ":5243,"##짧":5244,"##핌":5245,"##깩":5246,"##촐":5247,"##켬":5248,"##퀀":5249,"##짉":5250,"##뜽":5251,"##읾":5252,"##꺌":5253,"##챱":5254,"##혆":5255,"##뷱":5256,"##픗":5257,"##랱":5258,"##즉":5259,"##늶":5260,"##깰":5261,"##숀":5262,"##붇":5263,"##줃":5264,"##닣":5265,"##맫":5266,"##밞":5267,"##퉈":5268,"##쓔":5269,"##졀":5270,"##욾":5271,"##꽊":5272,"##헠":5273,"##죴":5274,"##탛":5275,"##앛":5276,"##앚":5277,"##뤕":5278,"##쬼":5279,"##찓":5280,"##앴":5281,"##옾":5282,"##돰":5283,"##댤":5284,"##웩":5285,"##뫃":5286,"##웇":5287,"##붤":5288,"##렣":5289,"##믛":5290,"##펃":5291,"##똪":5292,"##륏":5293,"##휑":5294,"##틑":5295,"##엫":5296,"##갅":5297,"##얖":5298,"##닳":5299,"##곁":5300,"##싚":5301,"##꼰":5302,"##띃":5303,"##싪":5304,"##돵":5305,"##얇":5306,"##깢":5307,"##캤":5308,"##틐":5309,"##뻗":5310,"##랮":5311,"##꺾":5312,"##퐈":5313,"##힏":5314,"##텂":5315,"##퉛":5316,"##갷":5317,"##겾":5318,"##굤":5319,"##왼":5320,"##꿉":5321,"##덢":5322,"##컫":5323,"##찿":5324,"##넚":5325,"##뽜":5326,"##얾":5327,"##녛":5328,"##첯":5329,"##깧":5330,"##슽":5331,"##슧":5332,"##뻡":5333,"##욌":5334,"##죡":5335,"##둫":5336,"##훋":5337,"##맏":5338,"##왑":5339,"##콕":5340,"##긑":5341,"##쮜":5342,"##눤":5343,"##앀":5344,"##쥽":5345,"##댝":5346,"##뫀":5347,"##릯":5348,"##랉":5349,"##댑":5350,"##웰":5351,"##뷉":5352,"##얔":5353,"##챤":5354,"##긇":5355,"##듶":5356,"##넏":5357,"##햘":5358,"##콸":5359,"##둉":5360,"##텻":5361,"##쉣":5362,"##멓":5363,"##셌":5364,"##곗":5365,"##깟":5366,"##됴":5367,"##끵":5368,"##쥴":5369,"##뚬":5370,"##숱":5371,"##팦":5372,"##룝":5373,"##뗄":5374,"##쑦":5375,"##풉":5376,"##앿":5377,"##덛":5378,"##굘":5379,"##믈":5380,"##괨":5381,"##줚":5382,"##낵":5383,"##곕":5384,"##앷":5385,"##쐬":5386,"##벏":5387,"##웱":5388,"##믁":5389,"##딮":5390,"##긝":5391,"##롄":5392,"##졓":5393,"##굨":5394,"##즣":5395,"##앹":5396,"##팧":5397,"##낰":5398,"##됰":5399,"##쩜":5400,"##젙":5401,"##씾":5402,"##뿽":5403,"##쎼":5404,"##첬":5405,"##뻨":5406,"##럵":5407,"##돟":5408,"##셤":5409,"##듄":5410,"##궷":5411,"##붖":5412,"##벚":5413,"##핥":5414,"##잴":5415,"##뚣":5416,"##삥":5417,"##푹":5418,"##웧":5419,"##헹":5420,"##칱":5421,"##쥠":5422,"##웒":5423,"##굥":5424,"##굮":5425,"##륻":5426,"##셭":5427,"##겇":5428,"##넡":5429,"##턷":5430,"##쑥":5431,"##퐤":5432,"##쇽":5433,"##뛸":5434,"##굄":5435,"##닾":5436,"##묨":5437,"##쟂":5438,"##꺳":5439,"##췃":5440,"##곶":5441,"##읈":5442,"##븱":5443,"##싮":5444,"##쓲":5445,"##륟":5446,"##ㅋㅋ":5447,"##ㅋㅋㅋ":5448,"##는데":5449,"아니":5450,"ㅋㅋㅋ":5451,"진짜":5452,"##는거":5453,"NA":5454,"##ME":5455,"NAME":5456,"너무":5457,"내가":5458,"나도":5459,"그냥":5460,"##으로":5461,"근데":5462,"##야지":5463,"그래":5464,"##니까":5465,"오늘":5466,"##고싶":5467,"그런":5468,"##에서":5469,"지금":5470,"##렇게":5471,"이제":5472,"##니다":5473,"##하고":5474,"##으면":5475,"##이야":5476,"어떻":5477,"어떻게":5478,"##다고":5479,"##거야":5480,"##ㅎㅎ":5481,"그거":5482,"우리":5483,"##어서":5484,"그럼":5485,"##하는":5486,"##하면":5487,"##인데":5488,"##라고":5489,"그러":5490,"이거":5491,"##다가":5492,"##아아":5493,"##겠다":5494,"생각":5495,"운동":5496,"학교":5497,"##거같":5498,"##해서":5499,"하고":5500,"##구나":5501,"##까지":5502,"##시간":5503,"##은데":5504,"##이라":5505,"내일":5506,"##ㄱㅋ":5507,"아무":5508,"##들어":5509,"모르":5510,"##하지":5511,"미친":5512,"그래서":5513,"##ㅠㅠ":5514,"##한테":5515,"사람":5516,"##세요":5517,"많이":5518,"##리고":5519,"아직":5520,"##것도":5521,"존나":5522,"##는게":5523,"##이랑":5524,"뭐야":5525,"##이지":5526,"##00":5527,"하면":5528,"##는중":5529,"##는거야":5530,"친구":5531,"들어":5532,"하나":5533,"##아서":5534,"##고있":5535,"그럴":5536,"##부터":5537,"해야":5538,"그건":5539,"##해야":5540,"이런":5541,"##자기":5542,"ㄹㅇ":5543,"이게":5544,"##잖아":5545,"ㅋㅋㅋㅋㅋ":5546,"##인가":5547,"그게":5548,"얼른":5549,"다시":5550,"하지":5551,"##려고":5552,"갑자기":5553,"##는건":5554,"##었어":5555,"##하게":5556,"왜이":5557,"이미":5558,"시간":5559,"그렇게":5560,"언제":5561,"너가":5562,"##고싶다":5563,"애들":5564,"##어어":5565,"어디":5566,"그런거":5567,"나는":5568,"이렇게":5569,"아이":5570,"한번":5571,"##것은":5572,"어제":5573,"좋아":5574,"다른":5575,"##아ㅏ":5576,"너도":5577,"##정도":5578,"##ㅅㅋ":5579,"##을까":5580,"머리":5581,"수업":5582,"##했어":5583,"##더라":5584,"괜찮":5585,"##하는데":5586,"##수있":5587,"공부":5588,"##겠지":5589,"##었는데":5590,"##한다":5591,"##이나":5592,"사실":5593,"미쳤":5594,"10":5595,"바로":5596,"##심히":5597,"##시에":5598,"##습니다":5599,"ㅋㅋ":5600,"무슨":5601,"사진":5602,"몰라":5603,"저거":5604,"빨리":5605,"##하다":5606,"ㅅㅂ":5607,"##대로":5608,"정신":5609,"##면서":5610,"있어":5611,"재밌":5612,"같이":5613,"##입니다":5614,"아니야":5615,"ㅎㅎ":5616,"##거든":5617,"하기":5618,"그렇":5619,"열심히":5620,"##그래":5621,"문제":5622,"힘들":5623,"기분":5624,"##구만":5625,"하자":5626,"##소리":5627,"##한거":5628,"그리고":5629,"이상":5630,"원래":5631,"없어":5632,"안되":5633,"그래도":5634,"보내":5635,"##은거":5636,"##이다":5637,"일단":5638,"여기":5639,"계속":5640,"시발":5641,"##지고":5642,"##겠어":5643,"맛있":5644,"##했는데":5645,"##길래":5646,"귀찮":5647,"안돼":5648,"응원":5649,"에바":5650,"다음":5651,"하는":5652,"##어야":5653,"얼마":5654,"##시지":5655,"##가서":5656,"요즘":5657,"피곤":5658,"##지게":5659,"진정":5660,"뭐가":5661,"##거같아":5662,"##ㄱㅋㄱ":5663,"이번":5664,"삭제":5665,"일어":5666,"대충":5667,"보고":5668,"##하네":5669,"##이네":5670,"##요일":5671,"게임":5672,"소설":5673,"오늘은":5674,"이것은":5675,"엄청":5676,"##사람":5677,"안해":5678,"밥먹":5679,"##지는":5680,"##지만":5681,"##보다":5682,"아침":5683,"##이터":5684,"##0분":5685,"메시지":5686,"왜이렇게":5687,"아닌":5688,"##는거지":5689,"엄마":5690,"##수도":5691,"죽을":5692,"취업":5693,"파일":5694,"##밖에":5695,"싫어":5696,"##새끼":5697,"눈물":5698,"뭐라":5699,"좋은":5700,"##겠네":5701,"##보고":5702,"누나":5703,"이러":5704,"고생":5705,"방금":5706,"##해야지":5707,"##ㅜㅜ":5708,"##냐고":5709,"했는데":5710,"##그러":5711,"전화":5712,"나가":5713,"##것으로":5714,"##하자":5715,"##있어":5716,"뭔가":5717,"일찍":5718,"삭제된":5719,"이걸":5720,"가능":5721,"물어":5722,"##것같":5723,"##되는데":5724,"##중에":5725,"메시지입니다":5726,"처음":5727,"인생":5728,"하루":5729,"##으니까":5730,"나오":5731,"안나":5732,"힘들어":5733,"##이면":5734,"##학교":5735,"거기":5736,"##했다":5737,"##았어":5738,"##더니":5739,"이해":5740,"프로":5741,"##아니":5742,"##고싶어":5743,"알아":5744,"해야지":5745,"잘못":5746,"##네ㅋㅋㅋ":5747,"먹어":5748,"##버리":5749,"카톡":5750,"혼자":5751,"##거임":5752,"아니라":5753,"지금은":5754,"안좋":5755,"##하는거":5756,"##기가":5757,"##간다":5758,"아마":5759,"##인지":5760,"아니면":5761,"##하나":5762,"뭐야ㅋㅋㅋ":5763,"아무것도":5764,"시작":5765,"말고":5766,"찾아":5767,"##ㅎㅋ":5768,"##던데":5769,"##버렸":5770,"##해보":5771,"##어ㅓ":5772,"##들이":5773,"기억":5774,"만들":5775,"##지마":5776,"##나서":5777,"누구":5778,"없다":5779,"조금":5780,"##스크":5781,"##리가":5782,"얼마나":5783,"느낌":5784,"않아":5785,"고민":5786,"##와서":5787,"그러면":5788,"12":5789,"자살":5790,"##었다":5791,"가서":5792,"그럴수있":5793,"집에":5794,"##하기":5795,"개웃":5796,"먹고":5797,"##라는":5798,"안보":5799,"얘기":5800,"##려서":5801,"##았는데":5802,"고양":5803,"다행":5804,"별로":5805,"오지게":5806,"아무튼":5807,"맘에":5808,"##지도":5809,"만들어":5810,"아주":5811,"이따":5812,"화이":5813,"노래":5814,"##는다":5815,"##자나":5816,"##아아ㅏ":5817,"##한데":5818,"누가":5819,"아니ㅋㅋㅋ":5820,"버스":5821,"집가":5822,"이름":5823,"##이고":5824,"그때":5825,"##이가":5826,"##리는":5827,"##같은":5828,"시험":5829,"거의":5830,"노트":5831,"먼저":5832,"##어요":5833,"ㅇㅇ":5834,"귀여":5835,"아까":5836,"과제":5837,"살아":5838,"저녁":5839,"##전에":5840,"##볼게":5841,"##ㄴㅇ":5842,"웹툰":5843,"있는":5844,"##을때":5845,"##검색":5846,"늦게":5847,"샵검색":5848,"##젝트":5849,"아직도":5850,"졸려":5851,"##ㅠㅜ":5852,"그랬":5853,"가져":5854,"전에":5855,"##합니다":5856,"대체":5857,"아파":5858,"##거같은데":5859,"너네":5860,"씻고":5861,"얼굴":5862,"##가는":5863,"##려주":5864,"##ㅎㅎㅎ":5865,"사람이":5866,"##ㄱㅋㄱㅋ":5867,"미친ㅋㅋㅋ":5868,"발표":5869,"##하하":5870,"##건가":5871,"##야겠다":5872,"연락":5873,"해서":5874,"되게":5875,"맨날":5876,"안먹":5877,"##할게":5878,"##워서":5879,"##이스":5880,"##자너":5881,"그걸":5882,"행복":5883,"기다":5884,"개발":5885,"제일":5886,"##거나":5887,"아님":5888,"않을까":5889,"점심":5890,"##가지":5891,"##만에":5892,"노트북":5893,"미치":5894,"영화":5895,"필요":5896,"그만":5897,"정말":5898,"코드":5899,"##에요":5900,"##난다":5901,"모르겠":5902,"완전":5903,"있는데":5904,"##았다":5905,"프로젝트":5906,"##교시":5907,"보면":5908,"##해도":5909,"##해주":5910,"##마다":5911,"끝나":5912,"##일이":5913,"##문에":5914,"미쳐":5915,"##에는":5916,"당신":5917,"저번":5918,"할게":5919,"##er":5920,"##ㅠㅠㅠ":5921,"화이팅":5922,"짜증":5923,"치킨":5924,"소리":5925,"하지만":5926,"11":5927,"데이터":5928,"##동안":5929,"있음":5930,"돌아":5931,"해보":5932,"고양이":5933,"있으면":5934,"조져":5935,"##로나":5936,"동생":5937,"한다":5938,"겁나":5939,"##놓고":5940,"##하세요":5941,"##단다":5942,"##라이":5943,"스트":5944,"우린":5945,"있었":5946,"했어":5947,"이모":5948,"죽어":5949,"나랑":5950,"대단":5951,"한데":5952,"##거지":5953,"##생각":5954,"##적으로":5955,"##라도":5956,"벌써":5957,"##이었":5958,"하는데":5959,"##처럼":5960,"ㅋㅅㅋ":5961,"선물":5962,"##에에":5963,"##학년":5964,"사라":5965,"##해ㅋㅋㅋ":5966,"##명이":5967,"##텐데":5968,"##다니":5969,"##스트":5970,"##으니":5971,"나만":5972,"미안":5973,"##다는":5974,"##할까":5975,"##기도":5976,"##디어":5977,"ㅋㄱㅋㄱ":5978,"개학":5979,"파이":5980,"##가면":5981,"##가야":5982,"##000":5983,"그럴수있지":5984,"세상":5985,"최고":5986,"해봐":5987,"##지막":5988,"##리면":5989,"오늘도":5990,"놀아":5991,"영상":5992,"자야지":5993,"##애들":5994,"##레이":5995,"##하고있":5996,"디코":5997,"20":5998,"못해":5999}}}