{
    "version": "1.0",
    "truncation": null,
    "padding": null,
    "added_tokens": [
        {
            "id": 0,
            "special": true,
            "content": "[PAD]",
            "single_word": false,
            "lstrip": false,
            "rstrip": false,
            "normalized": false
        },
        {
            "id": 1,
            "special": true,
            "content": "[UNK]",
            "single_word": false,
            "lstrip": false,
            "rstrip": false,
            "normalized": false
        },
        {
            "id": 2,
            "special": true,
            "content": "[CLS]",
            "single_word": false,
            "lstrip": false,
            "rstrip": false,
            "normalized": false
        },
        {
            "id": 3,
            "special": true,
            "content": "[SEP]",
            "single_word": false,
            "lstrip": false,
            "rstrip": false,
            "normalized": false
        },
        {
            "id": 4,
            "special": true,
            "content": "[MASK]",
            "single_word": false,
            "lstrip": false,
            "rstrip": false,
            "normalized": false
        },
        {
            "id": 5,
            "special": true,
            "content": "[SEPT]",
            "single_word": false,
            "lstrip": false,
            "rstrip": false,
            "normalized": false
        },
        {
            "id": 6,
            "special": true,
            "content": "[NAME]",
            "single_word": false,
            "lstrip": false,
            "rstrip": false,
            "normalized": false
        },
        {
            "id": 7,
            "special": true,
            "content": "[BOS]",
            "single_word": false,
            "lstrip": false,
            "rstrip": false,
            "normalized": false
        },
        {
            "id": 8,
            "special": true,
            "content": "[EOS]",
            "single_word": false,
            "lstrip": false,
            "rstrip": false,
            "normalized": false
        },
        {
            "id": 9,
            "special": true,
            "content": "[UNK0]",
            "single_word": false,
            "lstrip": false,
            "rstrip": false,
            "normalized": false
        },
        {
            "id": 10,
            "special": true,
            "content": "[UNK1]",
            "single_word": false,
            "lstrip": false,
            "rstrip": false,
            "normalized": false
        },
        {
            "id": 11,
            "special": true,
            "content": "[UNK2]",
            "single_word": false,
            "lstrip": false,
            "rstrip": false,
            "normalized": false
        },
        {
            "id": 12,
            "special": true,
            "content": "[UNK3]",
            "single_word": false,
            "lstrip": false,
            "rstrip": false,
            "normalized": false
        },
        {
            "id": 13,
            "special": true,
            "content": "[UNK4]",
            "single_word": false,
            "lstrip": false,
            "rstrip": false,
            "normalized": false
        },
        {
            "id": 14,
            "special": true,
            "content": "[UNK5]",
            "single_word": false,
            "lstrip": false,
            "rstrip": false,
            "normalized": false
        },
        {
            "id": 15,
            "special": true,
            "content": "[UNK6]",
            "single_word": false,
            "lstrip": false,
            "rstrip": false,
            "normalized": false
        },
        {
            "id": 16,
            "special": true,
            "content": "[UNK7]",
            "single_word": false,
            "lstrip": false,
            "rstrip": false,
            "normalized": false
        },
        {
            "id": 17,
            "special": true,
            "content": "[UNK8]",
            "single_word": false,
            "lstrip": false,
            "rstrip": false,
            "normalized": false
        },
        {
            "id": 18,
            "special": true,
            "content": "[UNK9]",
            "single_word": false,
            "lstrip": false,
            "rstrip": false,
            "normalized": false
        },
        {
            "id": 19,
            "special": true,
            "content": "[unused0]",
            "single_word": false,
            "lstrip": false,
            "rstrip": false,
            "normalized": false
        },
        {
            "id": 20,
            "special": true,
            "content": "[unused1]",
            "single_word": false,
            "lstrip": false,
            "rstrip": false,
            "normalized": false
        },
        {
            "id": 21,
            "special": true,
            "content": "[unused2]",
            "single_word": false,
            "lstrip": false,
            "rstrip": false,
            "normalized": false
        },
        {
            "id": 22,
            "special": true,
            "content": "[unused3]",
            "single_word": false,
            "lstrip": false,
            "rstrip": false,
            "normalized": false
        },
        {
            "id": 23,
            "special": true,
            "content": "[unused4]",
            "single_word": false,
            "lstrip": false,
            "rstrip": false,
            "normalized": false
        },
        {
            "id": 24,
            "special": true,
            "content": "[unused5]",
            "single_word": false,
            "lstrip": false,
            "rstrip": false,
            "normalized": false
        },
        {
            "id": 25,
            "special": true,
            "content": "[unused6]",
            "single_word": false,
            "lstrip": false,
            "rstrip": false,
            "normalized": false
        },
        {
            "id": 26,
            "special": true,
            "content": "[unused7]",
            "single_word": false,
            "lstrip": false,
            "rstrip": false,
            "normalized": false
        },
        {
            "id": 27,
            "special": true,
            "content": "[unused8]",
            "single_word": false,
            "lstrip": false,
            "rstrip": false,
            "normalized": false
        },
        {
            "id": 28,
            "special": true,
            "content": "[unused9]",
            "single_word": false,
            "lstrip": false,
            "rstrip": false,
            "normalized": false
        },
        {
            "id": 29,
            "special": true,
            "content": "[unused10]",
            "single_word": false,
            "lstrip": false,
            "rstrip": false,
            "normalized": false
        },
        {
            "id": 30,
            "special": true,
            "content": "[unused11]",
            "single_word": false,
            "lstrip": false,
            "rstrip": false,
            "normalized": false
        },
        {
            "id": 31,
            "special": true,
            "content": "[unused12]",
            "single_word": false,
            "lstrip": false,
            "rstrip": false,
            "normalized": false
        },
        {
            "id": 32,
            "special": true,
            "content": "[unused13]",
            "single_word": false,
            "lstrip": false,
            "rstrip": false,
            "normalized": false
        },
        {
            "id": 33,
            "special": true,
            "content": "[unused14]",
            "single_word": false,
            "lstrip": false,
            "rstrip": false,
            "normalized": false
        },
        {
            "id": 34,
            "special": true,
            "content": "[unused15]",
            "single_word": false,
            "lstrip": false,
            "rstrip": false,
            "normalized": false
        },
        {
            "id": 35,
            "special": true,
            "content": "[unused16]",
            "single_word": false,
            "lstrip": false,
            "rstrip": false,
            "normalized": false
        },
        {
            "id": 36,
            "special": true,
            "content": "[unused17]",
            "single_word": false,
            "lstrip": false,
            "rstrip": false,
            "normalized": false
        },
        {
            "id": 37,
            "special": true,
            "content": "[unused18]",
            "single_word": false,
            "lstrip": false,
            "rstrip": false,
            "normalized": false
        },
        {
            "id": 38,
            "special": true,
            "content": "[unused19]",
            "single_word": false,
            "lstrip": false,
            "rstrip": false,
            "normalized": false
        },
        {
            "id": 39,
            "special": true,
            "content": "[unused20]",
            "single_word": false,
            "lstrip": false,
            "rstrip": false,
            "normalized": false
        },
        {
            "id": 40,
            "special": true,
            "content": "[unused21]",
            "single_word": false,
            "lstrip": false,
            "rstrip": false,
            "normalized": false
        },
        {
            "id": 41,
            "special": true,
            "content": "[unused22]",
            "single_word": false,
            "lstrip": false,
            "rstrip": false,
            "normalized": false
        },
        {
            "id": 42,
            "special": true,
            "content": "[unused23]",
            "single_word": false,
            "lstrip": false,
            "rstrip": false,
            "normalized": false
        },
        {
            "id": 43,
            "special": true,
            "content": "[unused24]",
            "single_word": false,
            "lstrip": false,
            "rstrip": false,
            "normalized": false
        },
        {
            "id": 44,
            "special": true,
            "content": "[unused25]",
            "single_word": false,
            "lstrip": false,
            "rstrip": false,
            "normalized": false
        },
        {
            "id": 45,
            "special": true,
            "content": "[unused26]",
            "single_word": false,
            "lstrip": false,
            "rstrip": false,
            "normalized": false
        },
        {
            "id": 46,
            "special": true,
            "content": "[unused27]",
            "single_word": false,
            "lstrip": false,
            "rstrip": false,
            "normalized": false
        },
        {
            "id": 47,
            "special": true,
            "content": "[unused28]",
            "single_word": false,
            "lstrip": false,
            "rstrip": false,
            "normalized": false
        },
        {
            "id": 48,
            "special": true,
            "content": "[unused29]",
            "single_word": false,
            "lstrip": false,
            "rstrip": false,
            "normalized": false
        },
        {
            "id": 49,
            "special": true,
            "content": "[unused30]",
            "single_word": false,
            "lstrip": false,
            "rstrip": false,
            "normalized": false
        },
        {
            "id": 50,
            "special": true,
            "content": "[unused31]",
            "single_word": false,
            "lstrip": false,
            "rstrip": false,
            "normalized": false
        },
        {
            "id": 51,
            "special": true,
            "content": "[unused32]",
            "single_word": false,
            "lstrip": false,
            "rstrip": false,
            "normalized": false
        },
        {
            "id": 52,
            "special": true,
            "content": "[unused33]",
            "single_word": false,
            "lstrip": false,
            "rstrip": false,
            "normalized": false
        },
        {
            "id": 53,
            "special": true,
            "content": "[unused34]",
            "single_word": false,
            "lstrip": false,
            "rstrip": false,
            "normalized": false
        },
        {
            "id": 54,
            "special": true,
            "content": "[unused35]",
            "single_word": false,
            "lstrip": false,
            "rstrip": false,
            "normalized": false
        },
        {
            "id": 55,
            "special": true,
            "content": "[unused36]",
            "single_word": false,
            "lstrip": false,
            "rstrip": false,
            "normalized": false
        },
        {
            "id": 56,
            "special": true,
            "content": "[unused37]",
            "single_word": false,
            "lstrip": false,
            "rstrip": false,
            "normalized": false
        },
        {
            "id": 57,
            "special": true,
            "content": "[unused38]",
            "single_word": false,
            "lstrip": false,
            "rstrip": false,
            "normalized": false
        },
        {
            "id": 58,
            "special": true,
            "content": "[unused39]",
            "single_word": false,
            "lstrip": false,
            "rstrip": false,
            "normalized": false
        },
        {
            "id": 59,
            "special": true,
            "content": "[unused40]",
            "single_word": false,
            "lstrip": false,
            "rstrip": false,
            "normalized": false
        },
        {
            "id": 60,
            "special": true,
            "content": "[unused41]",
            "single_word": false,
            "lstrip": false,
            "rstrip": false,
            "normalized": false
        },
        {
            "id": 61,
            "special": true,
            "content": "[unused42]",
            "single_word": false,
            "lstrip": false,
            "rstrip": false,
            "normalized": false
        },
        {
            "id": 62,
            "special": true,
            "content": "[unused43]",
            "single_word": false,
            "lstrip": false,
            "rstrip": false,
            "normalized": false
        },
        {
            "id": 63,
            "special": true,
            "content": "[unused44]",
            "single_word": false,
            "lstrip": false,
            "rstrip": false,
            "normalized": false
        },
        {
            "id": 64,
            "special": true,
            "content": "[unused45]",
            "single_word": false,
            "lstrip": false,
            "rstrip": false,
            "normalized": false
        },
        {
            "id": 65,
            "special": true,
            "content": "[unused46]",
            "single_word": false,
            "lstrip": false,
            "rstrip": false,
            "normalized": false
        },
        {
            "id": 66,
            "special": true,
            "content": "[unused47]",
            "single_word": false,
            "lstrip": false,
            "rstrip": false,
            "normalized": false
        },
        {
            "id": 67,
            "special": true,
            "content": "[unused48]",
            "single_word": false,
            "lstrip": false,
            "rstrip": false,
            "normalized": false
        },
        {
            "id": 68,
            "special": true,
            "content": "[unused49]",
            "single_word": false,
            "lstrip": false,
            "rstrip": false,
            "normalized": false
        },
        {
            "id": 69,
            "special": true,
            "content": "[unused50]",
            "single_word": false,
            "lstrip": false,
            "rstrip": false,
            "normalized": false
        },
        {
            "id": 70,
            "special": true,
            "content": "[unused51]",
            "single_word": false,
            "lstrip": false,
            "rstrip": false,
            "normalized": false
        },
        {
            "id": 71,
            "special": true,
            "content": "[unused52]",
            "single_word": false,
            "lstrip": false,
            "rstrip": false,
            "normalized": false
        },
        {
            "id": 72,
            "special": true,
            "content": "[unused53]",
            "single_word": false,
            "lstrip": false,
            "rstrip": false,
            "normalized": false
        },
        {
            "id": 73,
            "special": true,
            "content": "[unused54]",
            "single_word": false,
            "lstrip": false,
            "rstrip": false,
            "normalized": false
        },
        {
            "id": 74,
            "special": true,
            "content": "[unused55]",
            "single_word": false,
            "lstrip": false,
            "rstrip": false,
            "normalized": false
        },
        {
            "id": 75,
            "special": true,
            "content": "[unused56]",
            "single_word": false,
            "lstrip": false,
            "rstrip": false,
            "normalized": false
        },
        {
            "id": 76,
            "special": true,
            "content": "[unused57]",
            "single_word": false,
            "lstrip": false,
            "rstrip": false,
            "normalized": false
        },
        {
            "id": 77,
            "special": true,
            "content": "[unused58]",
            "single_word": false,
            "lstrip": false,
            "rstrip": false,
            "normalized": false
        },
        {
            "id": 78,
            "special": true,
            "content": "[unused59]",
            "single_word": false,
            "lstrip": false,
            "rstrip": false,
            "normalized": false
        },
        {
            "id": 79,
            "special": true,
            "content": "[unused60]",
            "single_word": false,
            "lstrip": false,
            "rstrip": false,
            "normalized": false
        },
        {
            "id": 80,
            "special": true,
            "content": "[unused61]",
            "single_word": false,
            "lstrip": false,
            "rstrip": false,
            "normalized": false
        },
        {
            "id": 81,
            "special": true,
            "content": "[unused62]",
            "single_word": false,
            "lstrip": false,
            "rstrip": false,
            "normalized": false
        },
        {
            "id": 82,
            "special": true,
            "content": "[unused63]",
            "single_word": false,
            "lstrip": false,
            "rstrip": false,
            "normalized": false
        },
        {
            "id": 83,
            "special": true,
            "content": "[unused64]",
            "single_word": false,
            "lstrip": false,
            "rstrip": false,
            "normalized": false
        },
        {
            "id": 84,
            "special": true,
            "content": "[unused65]",
            "single_word": false,
            "lstrip": false,
            "rstrip": false,
            "normalized": false
        },
        {
            "id": 85,
            "special": true,
            "content": "[unused66]",
            "single_word": false,
            "lstrip": false,
            "rstrip": false,
            "normalized": false
        },
        {
            "id": 86,
            "special": true,
            "content": "[unused67]",
            "single_word": false,
            "lstrip": false,
            "rstrip": false,
            "normalized": false
        },
        {
            "id": 87,
            "special": true,
            "content": "[unused68]",
            "single_word": false,
            "lstrip": false,
            "rstrip": false,
            "normalized": false
        },
        {
            "id": 88,
            "special": true,
            "content": "[unused69]",
            "single_word": false,
            "lstrip": false,
            "rstrip": false,
            "normalized": false
        },
        {
            "id": 89,
            "special": true,
            "content": "[unused70]",
            "single_word": false,
            "lstrip": false,
            "rstrip": false,
            "normalized": false
        },
        {
            "id": 90,
            "special": true,
            "content": "[unused71]",
            "single_word": false,
            "lstrip": false,
            "rstrip": false,
            "normalized": false
        },
        {
            "id": 91,
            "special": true,
            "content": "[unused72]",
            "single_word": false,
            "lstrip": false,
            "rstrip": false,
            "normalized": false
        },
        {
            "id": 92,
            "special": true,
            "content": "[unused73]",
            "single_word": false,
            "lstrip": false,
            "rstrip": false,
            "normalized": false
        },
        {
            "id": 93,
            "special": true,
            "content": "[unused74]",
            "single_word": false,
            "lstrip": false,
            "rstrip": false,
            "normalized": false
        },
        {
            "id": 94,
            "special": true,
            "content": "[unused75]",
            "single_word": false,
            "lstrip": false,
            "rstrip": false,
            "normalized": false
        },
        {
            "id": 95,
            "special": true,
            "content": "[unused76]",
            "single_word": false,
            "lstrip": false,
            "rstrip": false,
            "normalized": false
        },
        {
            "id": 96,
            "special": true,
            "content": "[unused77]",
            "single_word": false,
            "lstrip": false,
            "rstrip": false,
            "normalized": false
        },
        {
            "id": 97,
            "special": true,
            "content": "[unused78]",
            "single_word": false,
            "lstrip": false,
            "rstrip": false,
            "normalized": false
        },
        {
            "id": 98,
            "special": true,
            "content": "[unused79]",
            "single_word": false,
            "lstrip": false,
            "rstrip": false,
            "normalized": false
        },
        {
            "id": 99,
            "special": true,
            "content": "[unused80]",
            "single_word": false,
            "lstrip": false,
            "rstrip": false,
            "normalized": false
        },
        {
            "id": 100,
            "special": true,
            "content": "[unused81]",
            "single_word": false,
            "lstrip": false,
            "rstrip": false,
            "normalized": false
        },
        {
            "id": 101,
            "special": true,
            "content": "[unused82]",
            "single_word": false,
            "lstrip": false,
            "rstrip": false,
            "normalized": false
        },
        {
            "id": 102,
            "special": true,
            "content": "[unused83]",
            "single_word": false,
            "lstrip": false,
            "rstrip": false,
            "normalized": false
        },
        {
            "id": 103,
            "special": true,
            "content": "[unused84]",
            "single_word": false,
            "lstrip": false,
            "rstrip": false,
            "normalized": false
        },
        {
            "id": 104,
            "special": true,
            "content": "[unused85]",
            "single_word": false,
            "lstrip": false,
            "rstrip": false,
            "normalized": false
        },
        {
            "id": 105,
            "special": true,
            "content": "[unused86]",
            "single_word": false,
            "lstrip": false,
            "rstrip": false,
            "normalized": false
        },
        {
            "id": 106,
            "special": true,
            "content": "[unused87]",
            "single_word": false,
            "lstrip": false,
            "rstrip": false,
            "normalized": false
        },
        {
            "id": 107,
            "special": true,
            "content": "[unused88]",
            "single_word": false,
            "lstrip": false,
            "rstrip": false,
            "normalized": false
        },
        {
            "id": 108,
            "special": true,
            "content": "[unused89]",
            "single_word": false,
            "lstrip": false,
            "rstrip": false,
            "normalized": false
        },
        {
            "id": 109,
            "special": true,
            "content": "[unused90]",
            "single_word": false,
            "lstrip": false,
            "rstrip": false,
            "normalized": false
        },
        {
            "id": 110,
            "special": true,
            "content": "[unused91]",
            "single_word": false,
            "lstrip": false,
            "rstrip": false,
            "normalized": false
        },
        {
            "id": 111,
            "special": true,
            "content": "[unused92]",
            "single_word": false,
            "lstrip": false,
            "rstrip": false,
            "normalized": false
        },
        {
            "id": 112,
            "special": true,
            "content": "[unused93]",
            "single_word": false,
            "lstrip": false,
            "rstrip": false,
            "normalized": false
        },
        {
            "id": 113,
            "special": true,
            "content": "[unused94]",
            "single_word": false,
            "lstrip": false,
            "rstrip": false,
            "normalized": false
        },
        {
            "id": 114,
            "special": true,
            "content": "[unused95]",
            "single_word": false,
            "lstrip": false,
            "rstrip": false,
            "normalized": false
        },
        {
            "id": 115,
            "special": true,
            "content": "[unused96]",
            "single_word": false,
            "lstrip": false,
            "rstrip": false,
            "normalized": false
        },
        {
            "id": 116,
            "special": true,
            "content": "[unused97]",
            "single_word": false,
            "lstrip": false,
            "rstrip": false,
            "normalized": false
        },
        {
            "id": 117,
            "special": true,
            "content": "[unused98]",
            "single_word": false,
            "lstrip": false,
            "rstrip": false,
            "normalized": false
        },
        {
            "id": 118,
            "special": true,
            "content": "[unused99]",
            "single_word": false,
            "lstrip": false,
            "rstrip": false,
            "normalized": false
        }
    ],
    "normalizer": {
        "type": "BertNormalizer",
        "clean_text": true,
        "handle_chinese_chars": true,
        "strip_accents": false,
        "lowercase": false
    },
    "pre_tokenizer": {
        "type": "BertPreTokenizer"
    },
    "post_processor": null,
    "decoder": {
        "type": "WordPiece",
        "prefix": "##",
        "cleanup": true
    },
    "model": {
        "unk_token": "[UNK]",
        "continuing_subword_prefix": "##",
        "max_input_chars_per_word": 100,
        "vocab": {
            "[PAD]": 0,
            "[UNK]": 1,
            "[CLS]": 2,
            "[SEP]": 3,
            "[MASK]": 4,
            "[SEPT]": 5,
            "[NAME]": 6,
            "[BOS]": 7,
            "[EOS]": 8,
            "[UNK0]": 9,
            "[UNK1]": 10,
            "[UNK2]": 11,
            "[UNK3]": 12,
            "[UNK4]": 13,
            "[UNK5]": 14,
            "[UNK6]": 15,
            "[UNK7]": 16,
            "[UNK8]": 17,
            "[UNK9]": 18,
            "[unused0]": 19,
            "[unused1]": 20,
            "[unused2]": 21,
            "[unused3]": 22,
            "[unused4]": 23,
            "[unused5]": 24,
            "[unused6]": 25,
            "[unused7]": 26,
            "[unused8]": 27,
            "[unused9]": 28,
            "[unused10]": 29,
            "[unused11]": 30,
            "[unused12]": 31,
            "[unused13]": 32,
            "[unused14]": 33,
            "[unused15]": 34,
            "[unused16]": 35,
            "[unused17]": 36,
            "[unused18]": 37,
            "[unused19]": 38,
            "[unused20]": 39,
            "[unused21]": 40,
            "[unused22]": 41,
            "[unused23]": 42,
            "[unused24]": 43,
            "[unused25]": 44,
            "[unused26]": 45,
            "[unused27]": 46,
            "[unused28]": 47,
            "[unused29]": 48,
            "[unused30]": 49,
            "[unused31]": 50,
            "[unused32]": 51,
            "[unused33]": 52,
            "[unused34]": 53,
            "[unused35]": 54,
            "[unused36]": 55,
            "[unused37]": 56,
            "[unused38]": 57,
            "[unused39]": 58,
            "[unused40]": 59,
            "[unused41]": 60,
            "[unused42]": 61,
            "[unused43]": 62,
            "[unused44]": 63,
            "[unused45]": 64,
            "[unused46]": 65,
            "[unused47]": 66,
            "[unused48]": 67,
            "[unused49]": 68,
            "[unused50]": 69,
            "[unused51]": 70,
            "[unused52]": 71,
            "[unused53]": 72,
            "[unused54]": 73,
            "[unused55]": 74,
            "[unused56]": 75,
            "[unused57]": 76,
            "[unused58]": 77,
            "[unused59]": 78,
            "[unused60]": 79,
            "[unused61]": 80,
            "[unused62]": 81,
            "[unused63]": 82,
            "[unused64]": 83,
            "[unused65]": 84,
            "[unused66]": 85,
            "[unused67]": 86,
            "[unused68]": 87,
            "[unused69]": 88,
            "[unused70]": 89,
            "[unused71]": 90,
            "[unused72]": 91,
            "[unused73]": 92,
            "[unused74]": 93,
            "[unused75]": 94,
            "[unused76]": 95,
            "[unused77]": 96,
            "[unused78]": 97,
            "[unused79]": 98,
            "[unused80]": 99,
            "[unused81]": 100,
            "[unused82]": 101,
            "[unused83]": 102,
            "[unused84]": 103,
            "[unused85]": 104,
            "[unused86]": 105,
            "[unused87]": 106,
            "[unused88]": 107,
            "[unused89]": 108,
            "[unused90]": 109,
            "[unused91]": 110,
            "[unused92]": 111,
            "[unused93]": 112,
            "[unused94]": 113,
            "[unused95]": 114,
            "[unused96]": 115,
            "[unused97]": 116,
            "[unused98]": 117,
            "[unused99]": 118,
            "!": 119,
            "%": 120,
            ",": 121,
            "-": 122,
            ".": 123,
            "0": 124,
            "1": 125,
            "2": 126,
            "3": 127,
            "4": 128,
            "5": 129,
            "6": 130,
            "7": 131,
            "8": 132,
            "9": 133,
            "?": 134,
            "A": 135,
            "E": 136,
            "M": 137,
            "N": 138,
            "[": 139,
            "]": 140,
            "^": 141,
            "_": 142,
            "a": 143,
            "b": 144,
            "c": 145,
            "d": 146,
            "e": 147,
            "f": 148,
            "g": 149,
            "h": 150,
            "i": 151,
            "j": 152,
            "k": 153,
            "l": 154,
            "m": 155,
            "n": 156,
            "o": 157,
            "p": 158,
            "q": 159,
            "r": 160,
            "s": 161,
            "t": 162,
            "u": 163,
            "v": 164,
            "w": 165,
            "x": 166,
            "y": 167,
            "z": 168,
            "~": 169,
            "ㄱ": 170,
            "ㄲ": 171,
            "ㄳ": 172,
            "ㄴ": 173,
            "ㄵ": 174,
            "ㄶ": 175,
            "ㄷ": 176,
            "ㄸ": 177,
            "ㄹ": 178,
            "ㄺ": 179,
            "ㄻ": 180,
            "ㄼ": 181,
            "ㄽ": 182,
            "ㄾ": 183,
            "ㄿ": 184,
            "ㅀ": 185,
            "ㅁ": 186,
            "ㅂ": 187,
            "ㅃ": 188,
            "ㅄ": 189,
            "ㅅ": 190,
            "ㅆ": 191,
            "ㅇ": 192,
            "ㅈ": 193,
            "ㅉ": 194,
            "ㅊ": 195,
            "ㅋ": 196,
            "ㅌ": 197,
            "ㅍ": 198,
            "ㅎ": 199,
            "ㅏ": 200,
            "ㅐ": 201,
            "ㅑ": 202,
            "ㅒ": 203,
            "ㅓ": 204,
            "ㅔ": 205,
            "ㅕ": 206,
            "ㅖ": 207,
            "ㅗ": 208,
            "ㅘ": 209,
            "ㅙ": 210,
            "ㅚ": 211,
            "ㅛ": 212,
            "ㅜ": 213,
            "ㅝ": 214,
            "ㅞ": 215,
            "ㅟ": 216,
            "ㅠ": 217,
            "ㅡ": 218,
            "ㅢ": 219,
            "ㅣ": 220,
            "가": 221,
            "각": 222,
            "갂": 223,
            "간": 224,
            "갅": 225,
            "갇": 226,
            "갈": 227,
            "갉": 228,
            "감": 229,
            "갑": 230,
            "값": 231,
            "갓": 232,
            "갔": 233,
            "강": 234,
            "갖": 235,
            "갗": 236,
            "갘": 237,
            "같": 238,
            "갚": 239,
            "갛": 240,
            "개": 241,
            "객": 242,
            "갠": 243,
            "갤": 244,
            "갥": 245,
            "갬": 246,
            "갭": 247,
            "갮": 248,
            "갯": 249,
            "갰": 250,
            "갱": 251,
            "갵": 252,
            "갷": 253,
            "갸": 254,
            "갹": 255,
            "갼": 256,
            "갿": 257,
            "걀": 258,
            "걌": 259,
            "걍": 260,
            "걔": 261,
            "걘": 262,
            "걜": 263,
            "걨": 264,
            "거": 265,
            "걱": 266,
            "걳": 267,
            "건": 268,
            "걵": 269,
            "걷": 270,
            "걸": 271,
            "걹": 272,
            "검": 273,
            "겁": 274,
            "것": 275,
            "겄": 276,
            "겅": 277,
            "겆": 278,
            "겇": 279,
            "겈": 280,
            "겉": 281,
            "겊": 282,
            "겋": 283,
            "게": 284,
            "겍": 285,
            "겎": 286,
            "겐": 287,
            "겓": 288,
            "겔": 289,
            "겜": 290,
            "겟": 291,
            "겠": 292,
            "겡": 293,
            "겢": 294,
            "겤": 295,
            "겧": 296,
            "겨": 297,
            "격": 298,
            "겪": 299,
            "견": 300,
            "겯": 301,
            "결": 302,
            "겸": 303,
            "겹": 304,
            "겻": 305,
            "겼": 306,
            "경": 307,
            "겾": 308,
            "겿": 309,
            "곁": 310,
            "곃": 311,
            "계": 312,
            "곈": 313,
            "곕": 314,
            "곗": 315,
            "곘": 316,
            "고": 317,
            "곡": 318,
            "곤": 319,
            "곦": 320,
            "곧": 321,
            "골": 322,
            "곰": 323,
            "곱": 324,
            "곳": 325,
            "공": 326,
            "곶": 327,
            "곷": 328,
            "곸": 329,
            "곺": 330,
            "곻": 331,
            "과": 332,
            "곽": 333,
            "관": 334,
            "괄": 335,
            "광": 336,
            "괘": 337,
            "괜": 338,
            "괨": 339,
            "괴": 340,
            "괵": 341,
            "괼": 342,
            "굄": 343,
            "굇": 344,
            "굉": 345,
            "굊": 346,
            "교": 347,
            "굑": 348,
            "굔": 349,
            "굘": 350,
            "굠": 351,
            "굤": 352,
            "굥": 353,
            "굨": 354,
            "구": 355,
            "국": 356,
            "굮": 357,
            "군": 358,
            "굳": 359,
            "굴": 360,
            "굵": 361,
            "굶": 362,
            "굼": 363,
            "굽": 364,
            "굿": 365,
            "궁": 366,
            "궂": 367,
            "궈": 368,
            "권": 369,
            "궐": 370,
            "궜": 371,
            "궝": 372,
            "궞": 373,
            "궤": 374,
            "궷": 375,
            "궸": 376,
            "귀": 377,
            "귄": 378,
            "귈": 379,
            "귓": 380,
            "귕": 381,
            "귗": 382,
            "규": 383,
            "균": 384,
            "귤": 385,
            "귬": 386,
            "귱": 387,
            "그": 388,
            "극": 389,
            "귺": 390,
            "근": 391,
            "귿": 392,
            "글": 393,
            "긁": 394,
            "긇": 395,
            "금": 396,
            "급": 397,
            "긋": 398,
            "긌": 399,
            "긍": 400,
            "긏": 401,
            "긑": 402,
            "긒": 403,
            "긓": 404,
            "긔": 405,
            "긘": 406,
            "긝": 407,
            "기": 408,
            "긱": 409,
            "긴": 410,
            "길": 411,
            "긿": 412,
            "김": 413,
            "깁": 414,
            "깃": 415,
            "깄": 416,
            "깅": 417,
            "깇": 418,
            "깈": 419,
            "깉": 420,
            "깊": 421,
            "깋": 422,
            "까": 423,
            "깍": 424,
            "깎": 425,
            "깐": 426,
            "깔": 427,
            "깜": 428,
            "깝": 429,
            "깟": 430,
            "깠": 431,
            "깡": 432,
            "깢": 433,
            "깥": 434,
            "깧": 435,
            "깨": 436,
            "깩": 437,
            "깬": 438,
            "깰": 439,
            "깸": 440,
            "깻": 441,
            "깼": 442,
            "깽": 443,
            "꺄": 444,
            "꺅": 445,
            "꺈": 446,
            "꺌": 447,
            "꺍": 448,
            "꺔": 449,
            "꺘": 450,
            "꺙": 451,
            "꺟": 452,
            "꺠": 453,
            "꺳": 454,
            "꺴": 455,
            "꺼": 456,
            "꺽": 457,
            "꺾": 458,
            "껀": 459,
            "껄": 460,
            "껌": 461,
            "껍": 462,
            "껏": 463,
            "껐": 464,
            "껑": 465,
            "께": 466,
            "껨": 467,
            "껫": 468,
            "껭": 469,
            "껴": 470,
            "꼇": 471,
            "꼈": 472,
            "꼐": 473,
            "꼥": 474,
            "꼬": 475,
            "꼭": 476,
            "꼮": 477,
            "꼰": 478,
            "꼴": 479,
            "꼼": 480,
            "꼽": 481,
            "꽁": 482,
            "꽂": 483,
            "꽃": 484,
            "꽈": 485,
            "꽉": 486,
            "꽊": 487,
            "꽓": 488,
            "꽝": 489,
            "꽤": 490,
            "꽥": 491,
            "꽹": 492,
            "꾸": 493,
            "꾹": 494,
            "꾺": 495,
            "꾼": 496,
            "꿀": 497,
            "꿇": 498,
            "꿈": 499,
            "꿉": 500,
            "꿍": 501,
            "꿑": 502,
            "꿔": 503,
            "꿧": 504,
            "꿨": 505,
            "뀌": 506,
            "뀐": 507,
            "뀔": 508,
            "뀜": 509,
            "뀡": 510,
            "뀨": 511,
            "뀰": 512,
            "뀽": 513,
            "끄": 514,
            "끅": 515,
            "끆": 516,
            "끈": 517,
            "끊": 518,
            "끌": 519,
            "끓": 520,
            "끔": 521,
            "끕": 522,
            "끗": 523,
            "끛": 524,
            "끜": 525,
            "끝": 526,
            "끠": 527,
            "끵": 528,
            "끼": 529,
            "끽": 530,
            "낀": 531,
            "낄": 532,
            "낌": 533,
            "낑": 534,
            "낗": 535,
            "나": 536,
            "낙": 537,
            "낚": 538,
            "난": 539,
            "낞": 540,
            "낟": 541,
            "날": 542,
            "낡": 543,
            "남": 544,
            "납": 545,
            "낫": 546,
            "났": 547,
            "낭": 548,
            "낮": 549,
            "낯": 550,
            "낰": 551,
            "낱": 552,
            "낲": 553,
            "낳": 554,
            "내": 555,
            "낵": 556,
            "낸": 557,
            "낼": 558,
            "냄": 559,
            "냅": 560,
            "냇": 561,
            "냈": 562,
            "냉": 563,
            "냊": 564,
            "냎": 565,
            "냏": 566,
            "냐": 567,
            "냑": 568,
            "냔": 569,
            "냘": 570,
            "냠": 571,
            "냡": 572,
            "냣": 573,
            "냤": 574,
            "냥": 575,
            "냦": 576,
            "냨": 577,
            "냪": 578,
            "냫": 579,
            "냬": 580,
            "너": 581,
            "넉": 582,
            "넋": 583,
            "넌": 584,
            "넏": 585,
            "널": 586,
            "넒": 587,
            "넓": 588,
            "넘": 589,
            "넙": 590,
            "넚": 591,
            "넛": 592,
            "넜": 593,
            "넝": 594,
            "넞": 595,
            "넟": 596,
            "넡": 597,
            "넢": 598,
            "넣": 599,
            "네": 600,
            "넥": 601,
            "넨": 602,
            "넫": 603,
            "넬": 604,
            "넴": 605,
            "넵": 606,
            "넷": 607,
            "넹": 608,
            "넺": 609,
            "넼": 610,
            "넿": 611,
            "녀": 612,
            "녁": 613,
            "년": 614,
            "녅": 615,
            "념": 616,
            "녓": 617,
            "녔": 618,
            "녕": 619,
            "녖": 620,
            "녘": 621,
            "녛": 622,
            "녜": 623,
            "녬": 624,
            "녱": 625,
            "노": 626,
            "녹": 627,
            "논": 628,
            "놀": 629,
            "놁": 630,
            "놈": 631,
            "놉": 632,
            "놋": 633,
            "농": 634,
            "놏": 635,
            "놐": 636,
            "놑": 637,
            "높": 638,
            "놓": 639,
            "놔": 640,
            "놘": 641,
            "놜": 642,
            "놤": 643,
            "놧": 644,
            "놨": 645,
            "놰": 646,
            "뇌": 647,
            "뇨": 648,
            "뇬": 649,
            "뇸": 650,
            "뇹": 651,
            "뇼": 652,
            "뇽": 653,
            "누": 654,
            "눅": 655,
            "눈": 656,
            "눋": 657,
            "눌": 658,
            "눔": 659,
            "눕": 660,
            "눙": 661,
            "눚": 662,
            "눜": 663,
            "눞": 664,
            "눟": 665,
            "눠": 666,
            "눤": 667,
            "눨": 668,
            "눴": 669,
            "눼": 670,
            "뉇": 671,
            "뉑": 672,
            "뉘": 673,
            "뉜": 674,
            "뉨": 675,
            "뉭": 676,
            "뉴": 677,
            "뉵": 678,
            "뉸": 679,
            "뉻": 680,
            "뉼": 681,
            "늄": 682,
            "늉": 683,
            "늊": 684,
            "늌": 685,
            "느": 686,
            "늑": 687,
            "늒": 688,
            "는": 689,
            "늕": 690,
            "늗": 691,
            "늘": 692,
            "늙": 693,
            "늚": 694,
            "늠": 695,
            "능": 696,
            "늦": 697,
            "늨": 698,
            "늪": 699,
            "늫": 700,
            "늬": 701,
            "늰": 702,
            "늴": 703,
            "늶": 704,
            "늼": 705,
            "닁": 706,
            "니": 707,
            "닉": 708,
            "닊": 709,
            "닌": 710,
            "닏": 711,
            "닐": 712,
            "님": 713,
            "닙": 714,
            "닛": 715,
            "닜": 716,
            "닝": 717,
            "닞": 718,
            "닠": 719,
            "닡": 720,
            "닢": 721,
            "닣": 722,
            "다": 723,
            "닥": 724,
            "닦": 725,
            "단": 726,
            "닪": 727,
            "닫": 728,
            "달": 729,
            "닭": 730,
            "닮": 731,
            "닳": 732,
            "담": 733,
            "답": 734,
            "닷": 735,
            "닸": 736,
            "당": 737,
            "닻": 738,
            "닼": 739,
            "닽": 740,
            "닾": 741,
            "닿": 742,
            "대": 743,
            "댁": 744,
            "댂": 745,
            "댄": 746,
            "댇": 747,
            "댈": 748,
            "댐": 749,
            "댑": 750,
            "댓": 751,
            "댔": 752,
            "댕": 753,
            "댛": 754,
            "댜": 755,
            "댝": 756,
            "댣": 757,
            "댤": 758,
            "댬": 759,
            "댯": 760,
            "댱": 761,
            "댲": 762,
            "댸": 763,
            "더": 764,
            "덕": 765,
            "던": 766,
            "덙": 767,
            "덛": 768,
            "덜": 769,
            "덟": 770,
            "덢": 771,
            "덤": 772,
            "덥": 773,
            "덧": 774,
            "덩": 775,
            "덭": 776,
            "덮": 777,
            "덯": 778,
            "데": 779,
            "덱": 780,
            "덴": 781,
            "덷": 782,
            "델": 783,
            "뎀": 784,
            "뎁": 785,
            "뎃": 786,
            "뎄": 787,
            "뎅": 788,
            "뎉": 789,
            "뎋": 790,
            "뎌": 791,
            "뎠": 792,
            "뎡": 793,
            "뎦": 794,
            "뎨": 795,
            "뎸": 796,
            "도": 797,
            "독": 798,
            "돈": 799,
            "돋": 800,
            "돌": 801,
            "돔": 802,
            "돕": 803,
            "돗": 804,
            "동": 805,
            "돟": 806,
            "돠": 807,
            "돨": 808,
            "돰": 809,
            "돵": 810,
            "돼": 811,
            "됀": 812,
            "됃": 813,
            "됌": 814,
            "됐": 815,
            "됑": 816,
            "됔": 817,
            "되": 818,
            "됛": 819,
            "된": 820,
            "될": 821,
            "됨": 822,
            "됩": 823,
            "됫": 824,
            "됬": 825,
            "됭": 826,
            "됮": 827,
            "됰": 828,
            "됳": 829,
            "됴": 830,
            "둉": 831,
            "두": 832,
            "둑": 833,
            "둔": 834,
            "둗": 835,
            "둘": 836,
            "둠": 837,
            "둡": 838,
            "둣": 839,
            "둥": 840,
            "둦": 841,
            "둪": 842,
            "둫": 843,
            "둬": 844,
            "둴": 845,
            "둿": 846,
            "뒀": 847,
            "뒁": 848,
            "뒈": 849,
            "뒓": 850,
            "뒙": 851,
            "뒤": 852,
            "뒨": 853,
            "뒷": 854,
            "뒹": 855,
            "듀": 856,
            "듁": 857,
            "듄": 858,
            "듈": 859,
            "듕": 860,
            "드": 861,
            "득": 862,
            "든": 863,
            "듢": 864,
            "듣": 865,
            "들": 866,
            "듦": 867,
            "듫": 868,
            "듬": 869,
            "듭": 870,
            "듯": 871,
            "등": 872,
            "듶": 873,
            "듷": 874,
            "듸": 875,
            "딈": 876,
            "디": 877,
            "딕": 878,
            "딖": 879,
            "딘": 880,
            "딛": 881,
            "딜": 882,
            "딤": 883,
            "딥": 884,
            "딧": 885,
            "딨": 886,
            "딩": 887,
            "딪": 888,
            "딬": 889,
            "딮": 890,
            "딯": 891,
            "따": 892,
            "딱": 893,
            "딲": 894,
            "딴": 895,
            "딸": 896,
            "땀": 897,
            "땁": 898,
            "땃": 899,
            "땄": 900,
            "땅": 901,
            "땋": 902,
            "때": 903,
            "땐": 904,
            "땔": 905,
            "땜": 906,
            "땟": 907,
            "땠": 908,
            "땡": 909,
            "땨": 910,
            "땬": 911,
            "떄": 912,
            "떈": 913,
            "떔": 914,
            "떘": 915,
            "떙": 916,
            "떠": 917,
            "떡": 918,
            "떢": 919,
            "떤": 920,
            "떨": 921,
            "떫": 922,
            "떰": 923,
            "떱": 924,
            "떳": 925,
            "떴": 926,
            "떵": 927,
            "떻": 928,
            "떼": 929,
            "뗀": 930,
            "뗄": 931,
            "뗏": 932,
            "뗐": 933,
            "뗘": 934,
            "또": 935,
            "똑": 936,
            "똒": 937,
            "똔": 938,
            "똘": 939,
            "똥": 940,
            "똪": 941,
            "똫": 942,
            "똬": 943,
            "똭": 944,
            "뙇": 945,
            "뙈": 946,
            "뚐": 947,
            "뚕": 948,
            "뚜": 949,
            "뚝": 950,
            "뚞": 951,
            "뚠": 952,
            "뚣": 953,
            "뚤": 954,
            "뚫": 955,
            "뚬": 956,
            "뚭": 957,
            "뚯": 958,
            "뚱": 959,
            "뚸": 960,
            "뛔": 961,
            "뛟": 962,
            "뛰": 963,
            "뛴": 964,
            "뛸": 965,
            "뜀": 966,
            "뜨": 967,
            "뜩": 968,
            "뜬": 969,
            "뜯": 970,
            "뜰": 971,
            "뜸": 972,
            "뜻": 973,
            "뜽": 974,
            "띃": 975,
            "띄": 976,
            "띠": 977,
            "띡": 978,
            "띤": 979,
            "띨": 980,
            "띵": 981,
            "라": 982,
            "락": 983,
            "띾": 984,
            "란": 985,
            "랂": 986,
            "랃": 987,
            "랄": 988,
            "랅": 989,
            "랉": 990,
            "람": 991,
            "랍": 992,
            "랏": 993,
            "랐": 994,
            "랑": 995,
            "랔": 996,
            "랕": 997,
            "랖": 998,
            "랗": 999,
            "래": 1000,
            "랙": 1001,
            "랜": 1002,
            "랠": 1003,
            "램": 1004,
            "랩": 1005,
            "랫": 1006,
            "랬": 1007,
            "랭": 1008,
            "랮": 1009,
            "랰": 1010,
            "랱": 1011,
            "랳": 1012,
            "랴": 1013,
            "략": 1014,
            "랸": 1015,
            "랻": 1016,
            "랼": 1017,
            "럄": 1018,
            "럅": 1019,
            "럇": 1020,
            "럈": 1021,
            "량": 1022,
            "럊": 1023,
            "럎": 1024,
            "럐": 1025,
            "럣": 1026,
            "러": 1027,
            "럭": 1028,
            "럯": 1029,
            "런": 1030,
            "럳": 1031,
            "럴": 1032,
            "럵": 1033,
            "럻": 1034,
            "럼": 1035,
            "럽": 1036,
            "럾": 1037,
            "럿": 1038,
            "렀": 1039,
            "렁": 1040,
            "렂": 1041,
            "렄": 1042,
            "렆": 1043,
            "렇": 1044,
            "레": 1045,
            "렉": 1046,
            "렌": 1047,
            "렏": 1048,
            "렐": 1049,
            "렑": 1050,
            "렓": 1051,
            "렘": 1052,
            "렙": 1053,
            "렛": 1054,
            "렜": 1055,
            "렝": 1056,
            "렠": 1057,
            "렣": 1058,
            "려": 1059,
            "력": 1060,
            "렦": 1061,
            "련": 1062,
            "렫": 1063,
            "렬": 1064,
            "렴": 1065,
            "렵": 1066,
            "렷": 1067,
            "렸": 1068,
            "령": 1069,
            "렺": 1070,
            "렼": 1071,
            "렾": 1072,
            "렿": 1073,
            "례": 1074,
            "롄": 1075,
            "로": 1076,
            "록": 1077,
            "론": 1078,
            "롣": 1079,
            "롤": 1080,
            "롥": 1081,
            "롬": 1082,
            "롭": 1083,
            "롯": 1084,
            "롱": 1085,
            "롲": 1086,
            "롷": 1087,
            "롸": 1088,
            "롹": 1089,
            "롼": 1090,
            "뢀": 1091,
            "뢔": 1092,
            "뢰": 1093,
            "뢴": 1094,
            "료": 1095,
            "룐": 1096,
            "룔": 1097,
            "룜": 1098,
            "룝": 1099,
            "룠": 1100,
            "룡": 1101,
            "루": 1102,
            "룩": 1103,
            "룫": 1104,
            "룬": 1105,
            "룯": 1106,
            "룰": 1107,
            "룸": 1108,
            "룹": 1109,
            "룻": 1110,
            "룽": 1111,
            "룾": 1112,
            "뤃": 1113,
            "뤄": 1114,
            "뤈": 1115,
            "뤕": 1116,
            "뤘": 1117,
            "뤙": 1118,
            "뤠": 1119,
            "뤫": 1120,
            "뤱": 1121,
            "뤵": 1122,
            "뤼": 1123,
            "륀": 1124,
            "륌": 1125,
            "륏": 1126,
            "륑": 1127,
            "류": 1128,
            "륙": 1129,
            "륜": 1130,
            "륟": 1131,
            "률": 1132,
            "륨": 1133,
            "륭": 1134,
            "르": 1135,
            "륵": 1136,
            "른": 1137,
            "륹": 1138,
            "륻": 1139,
            "를": 1140,
            "륽": 1141,
            "름": 1142,
            "릅": 1143,
            "릇": 1144,
            "릉": 1145,
            "릍": 1146,
            "릎": 1147,
            "릏": 1148,
            "릐": 1149,
            "릠": 1150,
            "리": 1151,
            "릭": 1152,
            "릯": 1153,
            "린": 1154,
            "릳": 1155,
            "릴": 1156,
            "림": 1157,
            "립": 1158,
            "릿": 1159,
            "맀": 1160,
            "링": 1161,
            "맂": 1162,
            "맇": 1163,
            "마": 1164,
            "막": 1165,
            "만": 1166,
            "많": 1167,
            "맏": 1168,
            "말": 1169,
            "맑": 1170,
            "맘": 1171,
            "맙": 1172,
            "맛": 1173,
            "맜": 1174,
            "망": 1175,
            "맞": 1176,
            "맟": 1177,
            "맠": 1178,
            "맡": 1179,
            "맢": 1180,
            "맣": 1181,
            "매": 1182,
            "맥": 1183,
            "맨": 1184,
            "맫": 1185,
            "맬": 1186,
            "맴": 1187,
            "맵": 1188,
            "맷": 1189,
            "맸": 1190,
            "맹": 1191,
            "맺": 1192,
            "맿": 1193,
            "먀": 1194,
            "먄": 1195,
            "먆": 1196,
            "먐": 1197,
            "먕": 1198,
            "먗": 1199,
            "머": 1200,
            "먹": 1201,
            "먼": 1202,
            "먾": 1203,
            "먿": 1204,
            "멀": 1205,
            "멂": 1206,
            "멇": 1207,
            "멈": 1208,
            "멉": 1209,
            "멋": 1210,
            "멍": 1211,
            "멎": 1212,
            "멏": 1213,
            "멒": 1214,
            "멓": 1215,
            "메": 1216,
            "멕": 1217,
            "멘": 1218,
            "멜": 1219,
            "멤": 1220,
            "멧": 1221,
            "멩": 1222,
            "며": 1223,
            "멱": 1224,
            "면": 1225,
            "멸": 1226,
            "몀": 1227,
            "명": 1228,
            "몇": 1229,
            "몌": 1230,
            "모": 1231,
            "목": 1232,
            "몫": 1233,
            "몬": 1234,
            "몯": 1235,
            "몰": 1236,
            "몸": 1237,
            "몹": 1238,
            "못": 1239,
            "몼": 1240,
            "몽": 1241,
            "뫀": 1242,
            "뫃": 1243,
            "뫄": 1244,
            "묘": 1245,
            "묜": 1246,
            "묠": 1247,
            "묨": 1248,
            "묭": 1249,
            "묯": 1250,
            "무": 1251,
            "묵": 1252,
            "묶": 1253,
            "문": 1254,
            "묹": 1255,
            "묻": 1256,
            "물": 1257,
            "묽": 1258,
            "뭄": 1259,
            "뭇": 1260,
            "뭉": 1261,
            "뭊": 1262,
            "뭋": 1263,
            "뭍": 1264,
            "뭎": 1265,
            "뭏": 1266,
            "뭐": 1267,
            "뭔": 1268,
            "뭘": 1269,
            "뭡": 1270,
            "뭣": 1271,
            "뭥": 1272,
            "뭦": 1273,
            "뭬": 1274,
            "뮁": 1275,
            "뮤": 1276,
            "뮨": 1277,
            "뮫": 1278,
            "뮬": 1279,
            "뮷": 1280,
            "뮹": 1281,
            "뮽": 1282,
            "뮾": 1283,
            "므": 1284,
            "믁": 1285,
            "믄": 1286,
            "믇": 1287,
            "믈": 1288,
            "믐": 1289,
            "믓": 1290,
            "믕": 1291,
            "믛": 1292,
            "믜": 1293,
            "믤": 1294,
            "미": 1295,
            "믹": 1296,
            "민": 1297,
            "믾": 1298,
            "믿": 1299,
            "밀": 1300,
            "밈": 1301,
            "밉": 1302,
            "밋": 1303,
            "밌": 1304,
            "밍": 1305,
            "밎": 1306,
            "및": 1307,
            "밑": 1308,
            "밒": 1309,
            "밓": 1310,
            "바": 1311,
            "박": 1312,
            "밖": 1313,
            "반": 1314,
            "밙": 1315,
            "받": 1316,
            "발": 1317,
            "밝": 1318,
            "밞": 1319,
            "밟": 1320,
            "밠": 1321,
            "밤": 1322,
            "밥": 1323,
            "밧": 1324,
            "밨": 1325,
            "방": 1326,
            "밬": 1327,
            "밭": 1328,
            "밯": 1329,
            "배": 1330,
            "백": 1331,
            "밴": 1332,
            "밸": 1333,
            "뱀": 1334,
            "뱁": 1335,
            "뱃": 1336,
            "뱅": 1337,
            "뱆": 1338,
            "뱉": 1339,
            "뱌": 1340,
            "뱍": 1341,
            "뱔": 1342,
            "뱧": 1343,
            "버": 1344,
            "벅": 1345,
            "번": 1346,
            "벋": 1347,
            "벌": 1348,
            "벏": 1349,
            "범": 1350,
            "법": 1351,
            "벗": 1352,
            "벙": 1353,
            "벚": 1354,
            "벟": 1355,
            "베": 1356,
            "벡": 1357,
            "벤": 1358,
            "벨": 1359,
            "벫": 1360,
            "벱": 1361,
            "벳": 1362,
            "벵": 1363,
            "벼": 1364,
            "벽": 1365,
            "변": 1366,
            "별": 1367,
            "볍": 1368,
            "볐": 1369,
            "병": 1370,
            "볕": 1371,
            "보": 1372,
            "복": 1373,
            "볶": 1374,
            "본": 1375,
            "볼": 1376,
            "볽": 1377,
            "봄": 1378,
            "봅": 1379,
            "봇": 1380,
            "봉": 1381,
            "봏": 1382,
            "봐": 1383,
            "봘": 1384,
            "봙": 1385,
            "봣": 1386,
            "봤": 1387,
            "봥": 1388,
            "봬": 1389,
            "뵀": 1390,
            "뵈": 1391,
            "뵌": 1392,
            "뵐": 1393,
            "뵘": 1394,
            "뵙": 1395,
            "뵜": 1396,
            "뵤": 1397,
            "뵷": 1398,
            "부": 1399,
            "북": 1400,
            "분": 1401,
            "붇": 1402,
            "불": 1403,
            "붉": 1404,
            "붋": 1405,
            "붐": 1406,
            "붑": 1407,
            "붓": 1408,
            "붕": 1409,
            "붖": 1410,
            "붗": 1411,
            "붘": 1412,
            "붙": 1413,
            "붛": 1414,
            "붜": 1415,
            "붤": 1416,
            "붸": 1417,
            "뷉": 1418,
            "뷔": 1419,
            "뷰": 1420,
            "뷱": 1421,
            "뷴": 1422,
            "뷸": 1423,
            "븃": 1424,
            "븅": 1425,
            "븋": 1426,
            "브": 1427,
            "븍": 1428,
            "븐": 1429,
            "블": 1430,
            "븗": 1431,
            "븘": 1432,
            "븜": 1433,
            "븡": 1434,
            "븰": 1435,
            "븱": 1436,
            "븸": 1437,
            "비": 1438,
            "빅": 1439,
            "빆": 1440,
            "빈": 1441,
            "빋": 1442,
            "빌": 1443,
            "빔": 1444,
            "빕": 1445,
            "빗": 1446,
            "빙": 1447,
            "빚": 1448,
            "빛": 1449,
            "빠": 1450,
            "빡": 1451,
            "빢": 1452,
            "빤": 1453,
            "빧": 1454,
            "빨": 1455,
            "빰": 1456,
            "빱": 1457,
            "빳": 1458,
            "빴": 1459,
            "빵": 1460,
            "빻": 1461,
            "빼": 1462,
            "빽": 1463,
            "뺀": 1464,
            "뺄": 1465,
            "뺌": 1466,
            "뺏": 1467,
            "뺐": 1468,
            "뺑": 1469,
            "뺘": 1470,
            "뺠": 1471,
            "뺨": 1472,
            "뺴": 1473,
            "뺸": 1474,
            "뻄": 1475,
            "뻇": 1476,
            "뻐": 1477,
            "뻑": 1478,
            "뻔": 1479,
            "뻗": 1480,
            "뻘": 1481,
            "뻠": 1482,
            "뻡": 1483,
            "뻣": 1484,
            "뻤": 1485,
            "뻥": 1486,
            "뻨": 1487,
            "뻬": 1488,
            "뼈": 1489,
            "뼛": 1490,
            "뼜": 1491,
            "뼝": 1492,
            "뽀": 1493,
            "뽄": 1494,
            "뽈": 1495,
            "뽐": 1496,
            "뽑": 1497,
            "뽕": 1498,
            "뽜": 1499,
            "뽝": 1500,
            "뽷": 1501,
            "뾰": 1502,
            "뿅": 1503,
            "뿌": 1504,
            "뿐": 1505,
            "뿔": 1506,
            "뿜": 1507,
            "뿡": 1508,
            "뿨": 1509,
            "뿽": 1510,
            "쀠": 1511,
            "쀼": 1512,
            "쁀": 1513,
            "쁘": 1514,
            "쁜": 1515,
            "쁠": 1516,
            "쁨": 1517,
            "쁩": 1518,
            "삉": 1519,
            "삐": 1520,
            "삑": 1521,
            "삔": 1522,
            "삘": 1523,
            "삥": 1524,
            "사": 1525,
            "삭": 1526,
            "산": 1527,
            "살": 1528,
            "삵": 1529,
            "삶": 1530,
            "삼": 1531,
            "삽": 1532,
            "삿": 1533,
            "샀": 1534,
            "상": 1535,
            "샂": 1536,
            "샃": 1537,
            "샅": 1538,
            "샆": 1539,
            "샇": 1540,
            "새": 1541,
            "색": 1542,
            "샊": 1543,
            "샌": 1544,
            "샐": 1545,
            "샘": 1546,
            "샛": 1547,
            "샜": 1548,
            "생": 1549,
            "샢": 1550,
            "샣": 1551,
            "샤": 1552,
            "샥": 1553,
            "샨": 1554,
            "샬": 1555,
            "샴": 1556,
            "샵": 1557,
            "샷": 1558,
            "샸": 1559,
            "샹": 1560,
            "섑": 1561,
            "섕": 1562,
            "서": 1563,
            "석": 1564,
            "섞": 1565,
            "선": 1566,
            "섣": 1567,
            "설": 1568,
            "섥": 1569,
            "섬": 1570,
            "섭": 1571,
            "섯": 1572,
            "성": 1573,
            "섲": 1574,
            "섴": 1575,
            "섵": 1576,
            "세": 1577,
            "섹": 1578,
            "센": 1579,
            "셀": 1580,
            "셈": 1581,
            "셉": 1582,
            "셋": 1583,
            "셌": 1584,
            "셍": 1585,
            "셔": 1586,
            "션": 1587,
            "셜": 1588,
            "셤": 1589,
            "셧": 1590,
            "셨": 1591,
            "셩": 1592,
            "셬": 1593,
            "셭": 1594,
            "셰": 1595,
            "소": 1596,
            "속": 1597,
            "손": 1598,
            "솓": 1599,
            "솔": 1600,
            "솜": 1601,
            "솝": 1602,
            "솟": 1603,
            "송": 1604,
            "솣": 1605,
            "솥": 1606,
            "솦": 1607,
            "솨": 1608,
            "솩": 1609,
            "쇄": 1610,
            "쇠": 1611,
            "쇳": 1612,
            "쇼": 1613,
            "쇽": 1614,
            "숀": 1615,
            "숄": 1616,
            "숍": 1617,
            "숏": 1618,
            "숑": 1619,
            "숔": 1620,
            "수": 1621,
            "숙": 1622,
            "순": 1623,
            "숟": 1624,
            "술": 1625,
            "숨": 1626,
            "숩": 1627,
            "숫": 1628,
            "숭": 1629,
            "숮": 1630,
            "숯": 1631,
            "숱": 1632,
            "숲": 1633,
            "숳": 1634,
            "숴": 1635,
            "숵": 1636,
            "숼": 1637,
            "쉉": 1638,
            "쉐": 1639,
            "쉑": 1640,
            "쉘": 1641,
            "쉣": 1642,
            "쉥": 1643,
            "쉨": 1644,
            "쉩": 1645,
            "쉬": 1646,
            "쉭": 1647,
            "쉰": 1648,
            "쉴": 1649,
            "쉼": 1650,
            "쉽": 1651,
            "쉿": 1652,
            "슁": 1653,
            "슂": 1654,
            "슈": 1655,
            "슉": 1656,
            "슌": 1657,
            "슐": 1658,
            "슘": 1659,
            "슙": 1660,
            "슝": 1661,
            "슢": 1662,
            "스": 1663,
            "슥": 1664,
            "슧": 1665,
            "슨": 1666,
            "슬": 1667,
            "슴": 1668,
            "습": 1669,
            "슷": 1670,
            "승": 1671,
            "슺": 1672,
            "슼": 1673,
            "슽": 1674,
            "슿": 1675,
            "싀": 1676,
            "싁": 1677,
            "싄": 1678,
            "싈": 1679,
            "싐": 1680,
            "싑": 1681,
            "싕": 1682,
            "싙": 1683,
            "싚": 1684,
            "시": 1685,
            "식": 1686,
            "신": 1687,
            "싡": 1688,
            "싣": 1689,
            "실": 1690,
            "싥": 1691,
            "싪": 1692,
            "싫": 1693,
            "심": 1694,
            "십": 1695,
            "싮": 1696,
            "싯": 1697,
            "싰": 1698,
            "싱": 1699,
            "싲": 1700,
            "싳": 1701,
            "싴": 1702,
            "싵": 1703,
            "싶": 1704,
            "싷": 1705,
            "싸": 1706,
            "싹": 1707,
            "싺": 1708,
            "싼": 1709,
            "싿": 1710,
            "쌀": 1711,
            "쌈": 1712,
            "쌉": 1713,
            "쌋": 1714,
            "쌌": 1715,
            "쌍": 1716,
            "쌓": 1717,
            "쌔": 1718,
            "쌤": 1719,
            "쌩": 1720,
            "쌰": 1721,
            "썅": 1722,
            "썌": 1723,
            "썜": 1724,
            "써": 1725,
            "썩": 1726,
            "썪": 1727,
            "썬": 1728,
            "썯": 1729,
            "썰": 1730,
            "썸": 1731,
            "썹": 1732,
            "썻": 1733,
            "썼": 1734,
            "썽": 1735,
            "썾": 1736,
            "쎄": 1737,
            "쎈": 1738,
            "쎌": 1739,
            "쎔": 1740,
            "쎙": 1741,
            "쎵": 1742,
            "쎼": 1743,
            "쏀": 1744,
            "쏘": 1745,
            "쏙": 1746,
            "쏟": 1747,
            "쏠": 1748,
            "쏨": 1749,
            "쏩": 1750,
            "쏭": 1751,
            "쏴": 1752,
            "쐬": 1753,
            "쐴": 1754,
            "쑈": 1755,
            "쑐": 1756,
            "쑤": 1757,
            "쑥": 1758,
            "쑦": 1759,
            "쑬": 1760,
            "쑴": 1761,
            "쒀": 1762,
            "쒄": 1763,
            "쒈": 1764,
            "쒕": 1765,
            "쒠": 1766,
            "쒬": 1767,
            "쒯": 1768,
            "쒸": 1769,
            "쓔": 1770,
            "쓰": 1771,
            "쓱": 1772,
            "쓲": 1773,
            "쓴": 1774,
            "쓸": 1775,
            "씀": 1776,
            "씁": 1777,
            "씄": 1778,
            "씅": 1779,
            "씌": 1780,
            "씐": 1781,
            "씨": 1782,
            "씩": 1783,
            "씪": 1784,
            "씬": 1785,
            "씹": 1786,
            "씻": 1787,
            "씼": 1788,
            "씽": 1789,
            "씾": 1790,
            "앀": 1791,
            "아": 1792,
            "악": 1793,
            "앆": 1794,
            "안": 1795,
            "앉": 1796,
            "않": 1797,
            "앋": 1798,
            "알": 1799,
            "앍": 1800,
            "앎": 1801,
            "앓": 1802,
            "암": 1803,
            "압": 1804,
            "앖": 1805,
            "앗": 1806,
            "았": 1807,
            "앙": 1808,
            "앚": 1809,
            "앛": 1810,
            "앜": 1811,
            "앝": 1812,
            "앞": 1813,
            "앟": 1814,
            "애": 1815,
            "액": 1816,
            "앤": 1817,
            "앧": 1818,
            "앨": 1819,
            "앪": 1820,
            "앰": 1821,
            "앱": 1822,
            "앳": 1823,
            "앴": 1824,
            "앵": 1825,
            "앶": 1826,
            "앷": 1827,
            "앹": 1828,
            "앺": 1829,
            "앻": 1830,
            "야": 1831,
            "약": 1832,
            "앿": 1833,
            "얀": 1834,
            "얂": 1835,
            "얃": 1836,
            "얄": 1837,
            "얅": 1838,
            "얇": 1839,
            "얌": 1840,
            "얍": 1841,
            "얏": 1842,
            "얐": 1843,
            "양": 1844,
            "얒": 1845,
            "얔": 1846,
            "얕": 1847,
            "얖": 1848,
            "얗": 1849,
            "얘": 1850,
            "얜": 1851,
            "어": 1852,
            "억": 1853,
            "얶": 1854,
            "언": 1855,
            "얹": 1856,
            "얻": 1857,
            "얼": 1858,
            "얽": 1859,
            "얾": 1860,
            "엄": 1861,
            "업": 1862,
            "없": 1863,
            "엇": 1864,
            "었": 1865,
            "엉": 1866,
            "엊": 1867,
            "엋": 1868,
            "엌": 1869,
            "엍": 1870,
            "엎": 1871,
            "엏": 1872,
            "에": 1873,
            "엑": 1874,
            "엔": 1875,
            "엗": 1876,
            "엘": 1877,
            "엙": 1878,
            "엠": 1879,
            "엡": 1880,
            "엣": 1881,
            "엤": 1882,
            "엥": 1883,
            "엨": 1884,
            "엩": 1885,
            "엪": 1886,
            "엫": 1887,
            "여": 1888,
            "역": 1889,
            "엮": 1890,
            "연": 1891,
            "엱": 1892,
            "엲": 1893,
            "엳": 1894,
            "열": 1895,
            "엶": 1896,
            "염": 1897,
            "엽": 1898,
            "엿": 1899,
            "였": 1900,
            "영": 1901,
            "옂": 1902,
            "옃": 1903,
            "옄": 1904,
            "옆": 1905,
            "옇": 1906,
            "예": 1907,
            "옌": 1908,
            "옘": 1909,
            "옙": 1910,
            "옛": 1911,
            "옝": 1912,
            "오": 1913,
            "옥": 1914,
            "온": 1915,
            "옫": 1916,
            "올": 1917,
            "옭": 1918,
            "옮": 1919,
            "옳": 1920,
            "옴": 1921,
            "옵": 1922,
            "옶": 1923,
            "옷": 1924,
            "옸": 1925,
            "옹": 1926,
            "옺": 1927,
            "옼": 1928,
            "옾": 1929,
            "옿": 1930,
            "와": 1931,
            "왁": 1932,
            "왂": 1933,
            "완": 1934,
            "왈": 1935,
            "왉": 1936,
            "왐": 1937,
            "왑": 1938,
            "왓": 1939,
            "왔": 1940,
            "왕": 1941,
            "왘": 1942,
            "왛": 1943,
            "왜": 1944,
            "왠": 1945,
            "왤": 1946,
            "왯": 1947,
            "왱": 1948,
            "왴": 1949,
            "왷": 1950,
            "외": 1951,
            "왼": 1952,
            "욀": 1953,
            "욌": 1954,
            "욎": 1955,
            "욐": 1956,
            "요": 1957,
            "욕": 1958,
            "욘": 1959,
            "욜": 1960,
            "욤": 1961,
            "욥": 1962,
            "욧": 1963,
            "욨": 1964,
            "용": 1965,
            "욪": 1966,
            "욬": 1967,
            "욮": 1968,
            "욯": 1969,
            "우": 1970,
            "욱": 1971,
            "욲": 1972,
            "욳": 1973,
            "운": 1974,
            "욷": 1975,
            "울": 1976,
            "욹": 1977,
            "욺": 1978,
            "욾": 1979,
            "움": 1980,
            "웁": 1981,
            "웂": 1982,
            "웃": 1983,
            "웄": 1984,
            "웅": 1985,
            "웆": 1986,
            "웇": 1987,
            "웈": 1988,
            "웉": 1989,
            "웊": 1990,
            "웋": 1991,
            "워": 1992,
            "웎": 1993,
            "원": 1994,
            "웒": 1995,
            "월": 1996,
            "웕": 1997,
            "웜": 1998,
            "웞": 1999,
            "웠": 2000,
            "웡": 2001,
            "웢": 2002,
            "웤": 2003,
            "웥": 2004,
            "웧": 2005,
            "웨": 2006,
            "웩": 2007,
            "웬": 2008,
            "웰": 2009,
            "웱": 2010,
            "웹": 2011,
            "웽": 2012,
            "윀": 2013,
            "위": 2014,
            "윅": 2015,
            "윈": 2016,
            "윌": 2017,
            "윔": 2018,
            "윕": 2019,
            "윗": 2020,
            "윙": 2021,
            "윜": 2022,
            "유": 2023,
            "육": 2024,
            "윤": 2025,
            "율": 2026,
            "윰": 2027,
            "윳": 2028,
            "융": 2029,
            "윷": 2030,
            "으": 2031,
            "윽": 2032,
            "윾": 2033,
            "은": 2034,
            "읂": 2035,
            "읃": 2036,
            "을": 2037,
            "읅": 2038,
            "읆": 2039,
            "읈": 2040,
            "읋": 2041,
            "음": 2042,
            "읍": 2043,
            "읎": 2044,
            "읏": 2045,
            "읐": 2046,
            "응": 2047,
            "읒": 2048,
            "읓": 2049,
            "읔": 2050,
            "읕": 2051,
            "읗": 2052,
            "의": 2053,
            "읜": 2054,
            "읫": 2055,
            "읭": 2056,
            "읰": 2057,
            "읳": 2058,
            "이": 2059,
            "익": 2060,
            "읶": 2061,
            "인": 2062,
            "읻": 2063,
            "일": 2064,
            "읽": 2065,
            "읾": 2066,
            "잃": 2067,
            "임": 2068,
            "입": 2069,
            "잇": 2070,
            "있": 2071,
            "잉": 2072,
            "잊": 2073,
            "잌": 2074,
            "잍": 2075,
            "잎": 2076,
            "잏": 2077,
            "자": 2078,
            "작": 2079,
            "잒": 2080,
            "잔": 2081,
            "잖": 2082,
            "잗": 2083,
            "잘": 2084,
            "잚": 2085,
            "잠": 2086,
            "잡": 2087,
            "잣": 2088,
            "잤": 2089,
            "장": 2090,
            "잦": 2091,
            "잧": 2092,
            "잨": 2093,
            "잫": 2094,
            "재": 2095,
            "잭": 2096,
            "잰": 2097,
            "잴": 2098,
            "잼": 2099,
            "잽": 2100,
            "잿": 2101,
            "쟀": 2102,
            "쟁": 2103,
            "쟂": 2104,
            "쟈": 2105,
            "쟉": 2106,
            "쟌": 2107,
            "쟏": 2108,
            "쟐": 2109,
            "쟘": 2110,
            "쟜": 2111,
            "쟞": 2112,
            "쟡": 2113,
            "쟤": 2114,
            "쟨": 2115,
            "저": 2116,
            "적": 2117,
            "전": 2118,
            "젆": 2119,
            "젇": 2120,
            "절": 2121,
            "젊": 2122,
            "젏": 2123,
            "점": 2124,
            "접": 2125,
            "젓": 2126,
            "젔": 2127,
            "정": 2128,
            "젖": 2129,
            "젙": 2130,
            "젛": 2131,
            "제": 2132,
            "젝": 2133,
            "젠": 2134,
            "젣": 2135,
            "젤": 2136,
            "젨": 2137,
            "젬": 2138,
            "젭": 2139,
            "젯": 2140,
            "젱": 2141,
            "젶": 2142,
            "져": 2143,
            "젹": 2144,
            "젼": 2145,
            "젿": 2146,
            "졀": 2147,
            "졈": 2148,
            "졋": 2149,
            "졌": 2150,
            "졍": 2151,
            "졎": 2152,
            "졒": 2153,
            "졓": 2154,
            "졔": 2155,
            "졘": 2156,
            "조": 2157,
            "족": 2158,
            "존": 2159,
            "졷": 2160,
            "졸": 2161,
            "좀": 2162,
            "좁": 2163,
            "좃": 2164,
            "종": 2165,
            "좆": 2166,
            "좉": 2167,
            "좊": 2168,
            "좋": 2169,
            "좌": 2170,
            "좍": 2171,
            "좔": 2172,
            "죄": 2173,
            "죔": 2174,
            "죠": 2175,
            "죡": 2176,
            "죤": 2177,
            "죨": 2178,
            "죰": 2179,
            "죴": 2180,
            "죵": 2181,
            "주": 2182,
            "죽": 2183,
            "준": 2184,
            "줃": 2185,
            "줄": 2186,
            "줅": 2187,
            "줉": 2188,
            "줌": 2189,
            "줍": 2190,
            "줏": 2191,
            "줐": 2192,
            "중": 2193,
            "줒": 2194,
            "줔": 2195,
            "줖": 2196,
            "줗": 2197,
            "줘": 2198,
            "줙": 2199,
            "줚": 2200,
            "줜": 2201,
            "줬": 2202,
            "줭": 2203,
            "줲": 2204,
            "줴": 2205,
            "줼": 2206,
            "쥄": 2207,
            "쥐": 2208,
            "쥑": 2209,
            "쥔": 2210,
            "쥠": 2211,
            "쥥": 2212,
            "쥦": 2213,
            "쥬": 2214,
            "쥭": 2215,
            "쥰": 2216,
            "쥴": 2217,
            "쥼": 2218,
            "쥽": 2219,
            "쥿": 2220,
            "즁": 2221,
            "즇": 2222,
            "즈": 2223,
            "즉": 2224,
            "즌": 2225,
            "즐": 2226,
            "즑": 2227,
            "즘": 2228,
            "즙": 2229,
            "즛": 2230,
            "증": 2231,
            "즣": 2232,
            "즨": 2233,
            "즹": 2234,
            "지": 2235,
            "직": 2236,
            "진": 2237,
            "짆": 2238,
            "짇": 2239,
            "질": 2240,
            "짉": 2241,
            "짊": 2242,
            "짌": 2243,
            "짏": 2244,
            "짐": 2245,
            "집": 2246,
            "짓": 2247,
            "짔": 2248,
            "징": 2249,
            "짖": 2250,
            "짗": 2251,
            "짘": 2252,
            "짙": 2253,
            "짚": 2254,
            "짛": 2255,
            "짜": 2256,
            "짝": 2257,
            "짠": 2258,
            "짢": 2259,
            "짤": 2260,
            "짧": 2261,
            "짬": 2262,
            "짭": 2263,
            "짯": 2264,
            "짰": 2265,
            "짱": 2266,
            "짲": 2267,
            "째": 2268,
            "짹": 2269,
            "짼": 2270,
            "쨈": 2271,
            "쨋": 2272,
            "쨌": 2273,
            "쨍": 2274,
            "쨔": 2275,
            "쨕": 2276,
            "쨖": 2277,
            "쨜": 2278,
            "쨩": 2279,
            "쨰": 2280,
            "쩄": 2281,
            "쩊": 2282,
            "쩌": 2283,
            "쩍": 2284,
            "쩐": 2285,
            "쩔": 2286,
            "쩜": 2287,
            "쩡": 2288,
            "쩨": 2289,
            "쩰": 2290,
            "쪄": 2291,
            "쪔": 2292,
            "쪗": 2293,
            "쪘": 2294,
            "쪙": 2295,
            "쪼": 2296,
            "쪽": 2297,
            "쫀": 2298,
            "쫃": 2299,
            "쫄": 2300,
            "쫌": 2301,
            "쫏": 2302,
            "쫑": 2303,
            "쫒": 2304,
            "쫓": 2305,
            "쫘": 2306,
            "쫙": 2307,
            "쫨": 2308,
            "쬐": 2309,
            "쬬": 2310,
            "쬼": 2311,
            "쭈": 2312,
            "쭉": 2313,
            "쭘": 2314,
            "쭤": 2315,
            "쭬": 2316,
            "쮜": 2317,
            "쮸": 2318,
            "쯈": 2319,
            "쯉": 2320,
            "쯔": 2321,
            "쯜": 2322,
            "쯤": 2323,
            "쯩": 2324,
            "쯰": 2325,
            "찌": 2326,
            "찍": 2327,
            "찎": 2328,
            "찐": 2329,
            "찓": 2330,
            "찔": 2331,
            "찜": 2332,
            "찝": 2333,
            "찟": 2334,
            "찡": 2335,
            "찢": 2336,
            "차": 2337,
            "착": 2338,
            "찬": 2339,
            "찮": 2340,
            "찯": 2341,
            "찰": 2342,
            "찱": 2343,
            "참": 2344,
            "찹": 2345,
            "찻": 2346,
            "찼": 2347,
            "창": 2348,
            "찾": 2349,
            "찿": 2350,
            "챃": 2351,
            "채": 2352,
            "책": 2353,
            "챈": 2354,
            "챌": 2355,
            "챕": 2356,
            "챗": 2357,
            "챘": 2358,
            "챙": 2359,
            "챠": 2360,
            "챡": 2361,
            "챤": 2362,
            "챱": 2363,
            "챴": 2364,
            "챵": 2365,
            "챷": 2366,
            "처": 2367,
            "척": 2368,
            "천": 2369,
            "첝": 2370,
            "첞": 2371,
            "철": 2372,
            "첢": 2373,
            "첨": 2374,
            "첩": 2375,
            "첫": 2376,
            "첬": 2377,
            "청": 2378,
            "첯": 2379,
            "체": 2380,
            "첵": 2381,
            "첸": 2382,
            "쳇": 2383,
            "쳐": 2384,
            "쳒": 2385,
            "쳘": 2386,
            "쳠": 2387,
            "쳣": 2388,
            "쳤": 2389,
            "쳥": 2390,
            "쳨": 2391,
            "초": 2392,
            "촉": 2393,
            "촌": 2394,
            "촐": 2395,
            "촛": 2396,
            "총": 2397,
            "촠": 2398,
            "촤": 2399,
            "촥": 2400,
            "촨": 2401,
            "촬": 2402,
            "촵": 2403,
            "최": 2404,
            "쵝": 2405,
            "쵸": 2406,
            "쵹": 2407,
            "춉": 2408,
            "춋": 2409,
            "춌": 2410,
            "추": 2411,
            "축": 2412,
            "춘": 2413,
            "출": 2414,
            "춤": 2415,
            "춥": 2416,
            "춧": 2417,
            "충": 2418,
            "춰": 2419,
            "춱": 2420,
            "췃": 2421,
            "췄": 2422,
            "췌": 2423,
            "췤": 2424,
            "취": 2425,
            "췸": 2426,
            "췹": 2427,
            "츄": 2428,
            "츅": 2429,
            "츕": 2430,
            "츠": 2431,
            "측": 2432,
            "츤": 2433,
            "츦": 2434,
            "츨": 2435,
            "층": 2436,
            "츷": 2437,
            "츼": 2438,
            "칍": 2439,
            "치": 2440,
            "칙": 2441,
            "칛": 2442,
            "친": 2443,
            "칠": 2444,
            "침": 2445,
            "칩": 2446,
            "칫": 2447,
            "칭": 2448,
            "칮": 2449,
            "칯": 2450,
            "칰": 2451,
            "칱": 2452,
            "카": 2453,
            "칵": 2454,
            "칸": 2455,
            "칼": 2456,
            "캄": 2457,
            "캅": 2458,
            "캉": 2459,
            "캌": 2460,
            "캍": 2461,
            "캐": 2462,
            "캔": 2463,
            "캗": 2464,
            "캠": 2465,
            "캡": 2466,
            "캣": 2467,
            "캤": 2468,
            "캥": 2469,
            "캬": 2470,
            "컀": 2471,
            "컄": 2472,
            "커": 2473,
            "컨": 2474,
            "컫": 2475,
            "컬": 2476,
            "컴": 2477,
            "컵": 2478,
            "컷": 2479,
            "컸": 2480,
            "컹": 2481,
            "컼": 2482,
            "케": 2483,
            "켁": 2484,
            "켄": 2485,
            "켈": 2486,
            "켓": 2487,
            "켕": 2488,
            "켘": 2489,
            "켜": 2490,
            "켠": 2491,
            "켤": 2492,
            "켬": 2493,
            "켭": 2494,
            "켯": 2495,
            "켰": 2496,
            "코": 2497,
            "콕": 2498,
            "콘": 2499,
            "콜": 2500,
            "콤": 2501,
            "콧": 2502,
            "콩": 2503,
            "콬": 2504,
            "콰": 2505,
            "콱": 2506,
            "콸": 2507,
            "쾅": 2508,
            "쾌": 2509,
            "쿄": 2510,
            "쿗": 2511,
            "쿜": 2512,
            "쿠": 2513,
            "쿡": 2514,
            "쿤": 2515,
            "쿨": 2516,
            "쿰": 2517,
            "쿵": 2518,
            "쿸": 2519,
            "쿼": 2520,
            "퀀": 2521,
            "퀄": 2522,
            "퀘": 2523,
            "퀴": 2524,
            "퀸": 2525,
            "큐": 2526,
            "큘": 2527,
            "큥": 2528,
            "큨": 2529,
            "큩": 2530,
            "크": 2531,
            "큰": 2532,
            "클": 2533,
            "큼": 2534,
            "큽": 2535,
            "킁": 2536,
            "킂": 2537,
            "킄": 2538,
            "킅": 2539,
            "킇": 2540,
            "킈": 2541,
            "킠": 2542,
            "키": 2543,
            "킥": 2544,
            "킨": 2545,
            "킬": 2546,
            "킴": 2547,
            "킵": 2548,
            "킷": 2549,
            "킹": 2550,
            "킼": 2551,
            "타": 2552,
            "탁": 2553,
            "탄": 2554,
            "탆": 2555,
            "탈": 2556,
            "탉": 2557,
            "탍": 2558,
            "탐": 2559,
            "탑": 2560,
            "탓": 2561,
            "탔": 2562,
            "탕": 2563,
            "탗": 2564,
            "탘": 2565,
            "탙": 2566,
            "탛": 2567,
            "태": 2568,
            "택": 2569,
            "탠": 2570,
            "탤": 2571,
            "탬": 2572,
            "탭": 2573,
            "탯": 2574,
            "탱": 2575,
            "탸": 2576,
            "턍": 2577,
            "터": 2578,
            "턱": 2579,
            "턴": 2580,
            "턷": 2581,
            "털": 2582,
            "텀": 2583,
            "텂": 2584,
            "텃": 2585,
            "텄": 2586,
            "텅": 2587,
            "테": 2588,
            "텍": 2589,
            "텐": 2590,
            "텔": 2591,
            "템": 2592,
            "텝": 2593,
            "텥": 2594,
            "텨": 2595,
            "텻": 2596,
            "텼": 2597,
            "토": 2598,
            "톡": 2599,
            "톤": 2600,
            "톨": 2601,
            "톰": 2602,
            "톱": 2603,
            "통": 2604,
            "톷": 2605,
            "톹": 2606,
            "톼": 2607,
            "퇴": 2608,
            "툐": 2609,
            "툤": 2610,
            "투": 2611,
            "툭": 2612,
            "툰": 2613,
            "툴": 2614,
            "툼": 2615,
            "툽": 2616,
            "퉁": 2617,
            "퉅": 2618,
            "퉆": 2619,
            "퉈": 2620,
            "퉛": 2621,
            "퉤": 2622,
            "퉵": 2623,
            "퉷": 2624,
            "튀": 2625,
            "튄": 2626,
            "튈": 2627,
            "튐": 2628,
            "튕": 2629,
            "튜": 2630,
            "튠": 2631,
            "튤": 2632,
            "튭": 2633,
            "트": 2634,
            "특": 2635,
            "튼": 2636,
            "틀": 2637,
            "틈": 2638,
            "틍": 2639,
            "틐": 2640,
            "틑": 2641,
            "틓": 2642,
            "틔": 2643,
            "티": 2644,
            "틱": 2645,
            "틴": 2646,
            "틸": 2647,
            "팀": 2648,
            "팁": 2649,
            "팄": 2650,
            "팅": 2651,
            "파": 2652,
            "팍": 2653,
            "판": 2654,
            "팓": 2655,
            "팔": 2656,
            "팜": 2657,
            "팝": 2658,
            "팟": 2659,
            "팠": 2660,
            "팡": 2661,
            "팢": 2662,
            "팤": 2663,
            "팥": 2664,
            "팦": 2665,
            "팧": 2666,
            "패": 2667,
            "팩": 2668,
            "팬": 2669,
            "팰": 2670,
            "팸": 2671,
            "팹": 2672,
            "팽": 2673,
            "퍃": 2674,
            "퍄": 2675,
            "퍈": 2676,
            "퍌": 2677,
            "퍙": 2678,
            "퍚": 2679,
            "퍠": 2680,
            "퍼": 2681,
            "퍽": 2682,
            "펀": 2683,
            "펃": 2684,
            "펄": 2685,
            "펌": 2686,
            "펏": 2687,
            "펐": 2688,
            "펑": 2689,
            "펗": 2690,
            "페": 2691,
            "펙": 2692,
            "펜": 2693,
            "펠": 2694,
            "펫": 2695,
            "펭": 2696,
            "펴": 2697,
            "편": 2698,
            "펼": 2699,
            "폄": 2700,
            "폈": 2701,
            "평": 2702,
            "폐": 2703,
            "포": 2704,
            "폭": 2705,
            "폰": 2706,
            "폴": 2707,
            "폼": 2708,
            "퐁": 2709,
            "퐃": 2710,
            "퐈": 2711,
            "퐉": 2712,
            "퐤": 2713,
            "표": 2714,
            "푝": 2715,
            "푠": 2716,
            "푤": 2717,
            "푱": 2718,
            "푶": 2719,
            "푸": 2720,
            "푹": 2721,
            "푼": 2722,
            "풀": 2723,
            "품": 2724,
            "풉": 2725,
            "풋": 2726,
            "풍": 2727,
            "풒": 2728,
            "풓": 2729,
            "풔": 2730,
            "풩": 2731,
            "퓌": 2732,
            "퓔": 2733,
            "퓨": 2734,
            "퓬": 2735,
            "퓯": 2736,
            "퓰": 2737,
            "퓽": 2738,
            "픂": 2739,
            "픃": 2740,
            "프": 2741,
            "픅": 2742,
            "픈": 2743,
            "플": 2744,
            "픔": 2745,
            "픕": 2746,
            "픗": 2747,
            "픙": 2748,
            "픞": 2749,
            "픠": 2750,
            "픨": 2751,
            "픵": 2752,
            "피": 2753,
            "픽": 2754,
            "핀": 2755,
            "필": 2756,
            "핋": 2757,
            "핌": 2758,
            "핍": 2759,
            "핏": 2760,
            "핑": 2761,
            "핖": 2762,
            "핗": 2763,
            "하": 2764,
            "학": 2765,
            "핚": 2766,
            "한": 2767,
            "핟": 2768,
            "할": 2769,
            "핡": 2770,
            "핢": 2771,
            "핥": 2772,
            "함": 2773,
            "합": 2774,
            "핫": 2775,
            "핬": 2776,
            "항": 2777,
            "핮": 2778,
            "핱": 2779,
            "핳": 2780,
            "해": 2781,
            "핵": 2782,
            "핶": 2783,
            "핸": 2784,
            "핻": 2785,
            "핼": 2786,
            "햃": 2787,
            "햄": 2788,
            "햅": 2789,
            "햇": 2790,
            "했": 2791,
            "행": 2792,
            "햋": 2793,
            "햌": 2794,
            "햎": 2795,
            "햏": 2796,
            "햐": 2797,
            "햔": 2798,
            "햘": 2799,
            "햣": 2800,
            "햤": 2801,
            "향": 2802,
            "햫": 2803,
            "햿": 2804,
            "헀": 2805,
            "허": 2806,
            "헉": 2807,
            "헌": 2808,
            "헐": 2809,
            "헑": 2810,
            "헗": 2811,
            "험": 2812,
            "헙": 2813,
            "헛": 2814,
            "헜": 2815,
            "헝": 2816,
            "헠": 2817,
            "헣": 2818,
            "헤": 2819,
            "헥": 2820,
            "헨": 2821,
            "헬": 2822,
            "헷": 2823,
            "헸": 2824,
            "헹": 2825,
            "헽": 2826,
            "헿": 2827,
            "혀": 2828,
            "혁": 2829,
            "현": 2830,
            "혆": 2831,
            "혈": 2832,
            "혐": 2833,
            "협": 2834,
            "혓": 2835,
            "혔": 2836,
            "형": 2837,
            "혜": 2838,
            "호": 2839,
            "혹": 2840,
            "혼": 2841,
            "혿": 2842,
            "홀": 2843,
            "홈": 2844,
            "홉": 2845,
            "홋": 2846,
            "홍": 2847,
            "홓": 2848,
            "화": 2849,
            "확": 2850,
            "홗": 2851,
            "환": 2852,
            "활": 2853,
            "홤": 2854,
            "홧": 2855,
            "황": 2856,
            "홰": 2857,
            "횃": 2858,
            "회": 2859,
            "획": 2860,
            "횟": 2861,
            "횡": 2862,
            "효": 2863,
            "횻": 2864,
            "횽": 2865,
            "훃": 2866,
            "후": 2867,
            "훅": 2868,
            "훈": 2869,
            "훋": 2870,
            "훌": 2871,
            "훑": 2872,
            "훔": 2873,
            "훗": 2874,
            "훙": 2875,
            "훟": 2876,
            "훠": 2877,
            "훤": 2878,
            "훨": 2879,
            "훼": 2880,
            "휄": 2881,
            "휏": 2882,
            "휑": 2883,
            "휘": 2884,
            "휠": 2885,
            "휩": 2886,
            "휳": 2887,
            "휴": 2888,
            "흉": 2889,
            "흏": 2890,
            "흐": 2891,
            "흑": 2892,
            "흒": 2893,
            "흓": 2894,
            "흔": 2895,
            "흗": 2896,
            "흘": 2897,
            "흙": 2898,
            "흟": 2899,
            "흠": 2900,
            "흡": 2901,
            "흥": 2902,
            "흩": 2903,
            "흫": 2904,
            "희": 2905,
            "흭": 2906,
            "흰": 2907,
            "흼": 2908,
            "힁": 2909,
            "힇": 2910,
            "히": 2911,
            "힉": 2912,
            "힌": 2913,
            "힏": 2914,
            "힐": 2915,
            "힘": 2916,
            "힙": 2917,
            "힛": 2918,
            "힝": 2919,
            "힣": 2920,
            "##면": 2921,
            "##인": 2922,
            "##데": 2923,
            "##신": 2924,
            "##대": 2925,
            "##욘": 2926,
            "##스": 2927,
            "##러": 2928,
            "##워": 2929,
            "##서": 2930,
            "##취": 2931,
            "##한": 2932,
            "##다": 2933,
            "##감": 2934,
            "##하": 2935,
            "##구": 2936,
            "##기": 2937,
            "##도": 2938,
            "##단": 2939,
            "##ㅇ": 2940,
            "##아": 2941,
            "##볼": 2942,
            "##런": 2943,
            "##애": 2944,
            "##들": 2945,
            "##있": 2946,
            "##었": 2947,
            "##던": 2948,
            "##듯": 2949,
            "##누": 2950,
            "##나": 2951,
            "##해": 2952,
            "##ㅑ": 2953,
            "##노": 2954,
            "##퍄": 2955,
            "##ㅐ": 2956,
            "##ㅜ": 2957,
            "##지": 2958,
            "##는": 2959,
            "##헤": 2960,
            "##ㅎ": 2961,
            "##친": 2962,
            "##계": 2963,
            "##어": 2964,
            "##래": 2965,
            "##였": 2966,
            "##네": 2967,
            "##긴": 2968,
            "##놈": 2969,
            "##로": 2970,
            "##곤": 2971,
            "##했": 2972,
            "##으": 2973,
            "##만": 2974,
            "##원": 2975,
            "##밖": 2976,
            "##에": 2977,
            "##안": 2978,
            "##되": 2979,
            "##테": 2980,
            "##우": 2981,
            "##크": 2982,
            "##여": 2983,
            "##명": 2984,
            "##소": 2985,
            "##리": 2986,
            "##가": 2987,
            "##느": 2988,
            "##거": 2989,
            "##쓰": 2990,
            "##고": 2991,
            "##니": 2992,
            "##개": 2993,
            "##길": 2994,
            "##버": 2995,
            "##렸": 2996,
            "##매": 2997,
            "##줄": 2998,
            "##의": 2999,
            "##랑": 3000,
            "##국": 3001,
            "##짝": 3002,
            "##뻑": 3003,
            "##t": 3004,
            "##a": 3005,
            "##c": 3006,
            "##이": 3007,
            "##심": 3008,
            "##싶": 3009,
            "##은": 3010,
            "##것": 3011,
            "##과": 3012,
            "##두": 3013,
            "##근": 3014,
            "##줘": 3015,
            "##체": 3016,
            "##야": 3017,
            "##정": 3018,
            "##적": 3019,
            "##목": 3020,
            "##보": 3021,
            "##같": 3022,
            "##습": 3023,
            "##랄": 3024,
            "##을": 3025,
            "##라": 3026,
            "##메": 3027,
            "##션": 3028,
            "##올": 3029,
            "##옴": 3030,
            "##말": 3031,
            "##엔": 3032,
            "##먹": 3033,
            "##음": 3034,
            "##산": 3035,
            "##모": 3036,
            "##예": 3037,
            "##드": 3038,
            "##마": 3039,
            "##ㅣ": 3040,
            "##럼": 3041,
            "##ㄴ": 3042,
            "##ㅏ": 3043,
            "##ㄹ": 3044,
            "##ㅗ": 3045,
            "##봐": 3046,
            "##사": 3047,
            "##ㅡ": 3048,
            "##자": 3049,
            "##건": 3050,
            "##동": 3051,
            "##할": 3052,
            "##때": 3053,
            "##까": 3054,
            "##h": 3055,
            "##교": 3056,
            "##좀": 3057,
            "##l": 3058,
            "##o": 3059,
            "##1": 3060,
            "##6": 3061,
            "##약": 3062,
            "##저": 3063,
            "##께": 3064,
            "##절": 3065,
            "##광": 3066,
            "##9": 3067,
            "##j": 3068,
            "##요": 3069,
            "##일": 3070,
            "##걸": 3071,
            "##춘": 3072,
            "##치": 3073,
            "##브": 3074,
            "##유": 3075,
            "##려": 3076,
            "##침": 3077,
            "##반": 3078,
            "##응": 3079,
            "##를": 3080,
            "##5": 3081,
            "##점": 3082,
            "##ㅋ": 3083,
            "##겠": 3084,
            "##묜": 3085,
            "##와": 3086,
            "##전": 3087,
            "##d": 3088,
            "##m": 3089,
            "##슨": 3090,
            "##햇": 3091,
            "##든": 3092,
            "##행": 3093,
            "##위": 3094,
            "##양": 3095,
            "##합": 3096,
            "##엄": 3097,
            "##제": 3098,
            "##입": 3099,
            "##작": 3100,
            "##껄": 3101,
            "##잎": 3102,
            "##날": 3103,
            "##풀": 3104,
            "##게": 3105,
            "##답": 3106,
            "##잖": 3107,
            "##됐": 3108,
            "##임": 3109,
            "##았": 3110,
            "##상": 3111,
            "##중": 3112,
            "##시": 3113,
            "##주": 3114,
            "##능": 3115,
            "##찍": 3116,
            "##닌": 3117,
            "##꺼": 3118,
            "##업": 3119,
            "##함": 3120,
            "##택": 3121,
            "##찌": 3122,
            "##료": 3123,
            "##써": 3124,
            "##터": 3125,
            "##므": 3126,
            "##부": 3127,
            "##카": 3128,
            "##페": 3129,
            "##선": 3130,
            "##갈": 3131,
            "##짱": 3132,
            "##뜨": 3133,
            "##p": 3134,
            "##i": 3135,
            "##학": 3136,
            "##년": 3137,
            "##텅": 3138,
            "##뎃": 3139,
            "##될": 3140,
            "##얌": 3141,
            "##진": 3142,
            "##각": 3143,
            "##알": 3144,
            "##줬": 3145,
            "##빼": 3146,
            "##0": 3147,
            "##퍼": 3148,
            "##성": 3149,
            "##쁜": 3150,
            "##수": 3151,
            "##냥": 3152,
            "##굶": 3153,
            "##머": 3154,
            "##트": 3155,
            "##탄": 3156,
            "##ㅓ": 3157,
            "##범": 3158,
            "##군": 3159,
            "##없": 3160,
            "##오": 3161,
            "##ㅁ": 3162,
            "##ㄿ": 3163,
            "##그": 3164,
            "##극": 3165,
            "##ㄱ": 3166,
            "##층": 3167,
            "##난": 3168,
            "##냐": 3169,
            "##줌": 3170,
            "##파": 3171,
            "##썰": 3172,
            "##내": 3173,
            "##쇼": 3174,
            "##르": 3175,
            "##화": 3176,
            "##ㅠ": 3177,
            "##꾸": 3178,
            "##레": 3179,
            "##따": 3180,
            "##잼": 3181,
            "##벌": 3182,
            "##더": 3183,
            "##럴": 3184,
            "##싫": 3185,
            "##랻": 3186,
            "##장": 3187,
            "##뿐": 3188,
            "##멍": 3189,
            "##품": 3190,
            "##찮": 3191,
            "##꿔": 3192,
            "##멈": 3193,
            "##며": 3194,
            "##물": 3195,
            "##너": 3196,
            "##무": 3197,
            "##춰": 3198,
            "##린": 3199,
            "##포": 3200,
            "##칼": 3201,
            "##립": 3202,
            "##높": 3203,
            "##왔": 3204,
            "##닐": 3205,
            "##e": 3206,
            "##디": 3207,
            "##퓨": 3208,
            "##바": 3209,
            "##랍": 3210,
            "##님": 3211,
            "##겁": 3212,
            "##권": 3213,
            "##렉": 3214,
            "##깝": 3215,
            "##r": 3216,
            "##미": 3217,
            "##통": 3218,
            "##닥": 3219,
            "##덕": 3220,
            "##찬": 3221,
            "##압": 3222,
            "##s": 3223,
            "##났": 3224,
            "##뤄": 3225,
            "##질": 3226,
            "##청": 3227,
            "##ㅊ": 3228,
            "##싱": 3229,
            "##공": 3230,
            "##타": 3231,
            "##백": 3232,
            "##홍": 3233,
            "##븐": 3234,
            "##겨": 3235,
            "##록": 3236,
            "##남": 3237,
            "##프": 3238,
            "##편": 3239,
            "##달": 3240,
            "##당": 3241,
            "##ㅛ": 3242,
            "##쩡": 3243,
            "##히": 3244,
            "##잤": 3245,
            "##걷": 3246,
            "##쩍": 3247,
            "##번": 3248,
            "##f": 3249,
            "##완": 3250,
            "##살": 3251,
            "##플": 3252,
            "##발": 3253,
            "##졌": 3254,
            "##결": 3255,
            "##색": 3256,
            "##꼇": 3257,
            "##댐": 3258,
            "##배": 3259,
            "##채": 3260,
            "##ㅅ": 3261,
            "##겼": 3262,
            "##않": 3263,
            "##생": 3264,
            "##넹": 3265,
            "##먄": 3266,
            "##역": 3267,
            "##딴": 3268,
            "##돼": 3269,
            "##징": 3270,
            "##캬": 3271,
            "##컄": 3272,
            "##죠": 3273,
            "##쉬": 3274,
            "##울": 3275,
            "##잘": 3276,
            "##딱": 3277,
            "##깔": 3278,
            "##센": 3279,
            "##분": 3280,
            "##꼬": 3281,
            "##루": 3282,
            "##악": 3283,
            "##돔": 3284,
            "##십": 3285,
            "##폰": 3286,
            "##져": 3287,
            "##뻔": 3288,
            "##탱": 3289,
            "##땃": 3290,
            "##재": 3291,
            "##밌": 3292,
            "##귀": 3293,
            "##굴": 3294,
            "##곡": 3295,
            "##ㄷ": 3296,
            "##켜": 3297,
            "##넉": 3298,
            "##꼴": 3299,
            "##복": 3300,
            "##멸": 3301,
            "##망": 3302,
            "##싯": 3303,
            "##억": 3304,
            "##앵": 3305,
            "##용": 3306,
            "##즈": 3307,
            "##힣": 3308,
            "##뎅": 3309,
            "##좆": 3310,
            "##댔": 3311,
            "##커": 3312,
            "##톤": 3313,
            "##팀": 3314,
            "##박": 3315,
            "##랙": 3316,
            "##엽": 3317,
            "##직": 3318,
            "##쯔": 3319,
            "##썼": 3320,
            "##돌": 3321,
            "##빠": 3322,
            "##3": 3323,
            "##좋": 3324,
            "##또": 3325,
            "##른": 3326,
            "##종": 3327,
            "##례": 3328,
            "##맥": 3329,
            "##승": 3330,
            "##새": 3331,
            "##끼": 3332,
            "##럽": 3333,
            "##깁": 3334,
            "##쌤": 3335,
            "##금": 3336,
            "##괴": 3337,
            "##격": 3338,
            "##실": 3339,
            "##웡": 3340,
            "##렜": 3341,
            "##영": 3342,
            "##된": 3343,
            "##잰": 3344,
            "##놓": 3345,
            "##줲": 3346,
            "##움": 3347,
            "##쿠": 3348,
            "##씀": 3349,
            "##손": 3350,
            "##간": 3351,
            "##댜": 3352,
            "##표": 3353,
            "##납": 3354,
            "##녁": 3355,
            "##샐": 3356,
            "##썽": 3357,
            "##름": 3358,
            "##쌀": 3359,
            "##뛰": 3360,
            "##픈": 3361,
            "##럄": 3362,
            "##널": 3363,
            "##류": 3364,
            "##연": 3365,
            "##문": 3366,
            "##급": 3367,
            "##북": 3368,
            "##렁": 3369,
            "##림": 3370,
            "##숭": 3371,
            "##특": 3372,
            "##담": 3373,
            "##릴": 3374,
            "##깐": 3375,
            "##처": 3376,
            "##죽": 3377,
            "##핳": 3378,
            "##후": 3379,
            "##세": 3380,
            "##씨": 3381,
            "##형": 3382,
            "##읍": 3383,
            "##쥐": 3384,
            "##됨": 3385,
            "##늘": 3386,
            "##웃": 3387,
            "##졈": 3388,
            "##ㅍ": 3389,
            "##ㄻ": 3390,
            "##험": 3391,
            "##훈": 3392,
            "##등": 3393,
            "##잔": 3394,
            "##녀": 3395,
            "##집": 3396,
            "##컴": 3397,
            "##뒤": 3398,
            "##ㄺ": 3399,
            "##쌓": 3400,
            "##잇": 3401,
            "##긔": 3402,
            "##갑": 3403,
            "##롸": 3404,
            "##ㅆ": 3405,
            "##샘": 3406,
            "##킨": 3407,
            "##폐": 3408,
            "##깨": 3409,
            "##봤": 3410,
            "##녔": 3411,
            "##접": 3412,
            "##퇴": 3413,
            "##본": 3414,
            "##촌": 3415,
            "##출": 3416,
            "##활": 3417,
            "##밥": 3418,
            "##싸": 3419,
            "##육": 3420,
            "##쉐": 3421,
            "##쳐": 3422,
            "##관": 3423,
            "##죵": 3424,
            "##렇": 3425,
            "##삼": 3426,
            "##켰": 3427,
            "##외": 3428,
            "##식": 3429,
            "##롬": 3430,
            "##랴": 3431,
            "##민": 3432,
            "##황": 3433,
            "##럭": 3434,
            "##엉": 3435,
            "##째": 3436,
            "##쭤": 3437,
            "##조": 3438,
            "##속": 3439,
            "##칠": 3440,
            "##u": 3441,
            "##n": 3442,
            "##밝": 3443,
            "##쁘": 3444,
            "##쳤": 3445,
            "##란": 3446,
            "##햌": 3447,
            "##력": 3448,
            "##호": 3449,
            "##봅": 3450,
            "##찾": 3451,
            "##족": 3452,
            "##염": 3453,
            "##슬": 3454,
            "##증": 3455,
            "##낌": 3456,
            "##혀": 3457,
            "##략": 3458,
            "##2": 3459,
            "##떄": 3460,
            "##셨": 3461,
            "##놨": 3462,
            "##온": 3463,
            "##졍": 3464,
            "##못": 3465,
            "##락": 3466,
            "##받": 3467,
            "##툰": 3468,
            "##렴": 3469,
            "##베": 3470,
            "##엿": 3471,
            "##밀": 3472,
            "##창": 3473,
            "##순": 3474,
            "##환": 3475,
            "##낭": 3476,
            "##텐": 3477,
            "##준": 3478,
            "##찝": 3479,
            "##확": 3480,
            "##삭": 3481,
            "##멧": 3482,
            "##끝": 3483,
            "##글": 3484,
            "##비": 3485,
            "##늠": 3486,
            "##릭": 3487,
            "##먐": 3488,
            "##짐": 3489,
            "##궁": 3490,
            "##넝": 3491,
            "##힘": 3492,
            "##랬": 3493,
            "##항": 3494,
            "##잉": 3495,
            "##엇": 3496,
            "##방": 3497,
            "##ㅌ": 3498,
            "##닛": 3499,
            "##곳": 3500,
            "##토": 3501,
            "##놔": 3502,
            "##앙": 3503,
            "##ㅔ": 3504,
            "##허": 3505,
            "##헣": 3506,
            "##휴": 3507,
            "##뀌": 3508,
            "##4": 3509,
            "##키": 3510,
            "##잌": 3511,
            "##셈": 3512,
            "##불": 3513,
            "##렀": 3514,
            "##댱": 3515,
            "##쒀": 3516,
            "##람": 3517,
            "##킴": 3518,
            "##쟈": 3519,
            "##ㅈ": 3520,
            "##맛": 3521,
            "##설": 3522,
            "##톡": 3523,
            "##핫": 3524,
            "##8": 3525,
            "##떤": 3526,
            "##웅": 3527,
            "##착": 3528,
            "##짓": 3529,
            "##암": 3530,
            "##롱": 3531,
            "##떡": 3532,
            "##천": 3533,
            "##녕": 3534,
            "##듀": 3535,
            "##엠": 3536,
            "##경": 3537,
            "##축": 3538,
            "##쿄": 3539,
            "##쿜": 3540,
            "##섯": 3541,
            "##꿀": 3542,
            "##겟": 3543,
            "##멋": 3544,
            "##존": 3545,
            "##룬": 3546,
            "##뒙": 3547,
            "##얼": 3548,
            "##듣": 3549,
            "##엑": 3550,
            "##얀": 3551,
            "##딩": 3552,
            "##닿": 3553,
            "##봉": 3554,
            "##량": 3555,
            "##쳣": 3556,
            "##회": 3557,
            "##궤": 3558,
            "##벤": 3559,
            "##쪽": 3560,
            "##깢": 3561,
            "##골": 3562,
            "##철": 3563,
            "##찐": 3564,
            "##운": 3565,
            "##졸": 3566,
            "##앻": 3567,
            "##픽": 3568,
            "##겅": 3569,
            "##욜": 3570,
            "##떠": 3571,
            "##벅": 3572,
            "##씩": 3573,
            "##차": 3574,
            "##떵": 3575,
            "##왕": 3576,
            "##뭐": 3577,
            "##충": 3578,
            "##막": 3579,
            "##푼": 3580,
            "##k": 3581,
            "##눌": 3582,
            "##솓": 3583,
            "##뜸": 3584,
            "##뭘": 3585,
            "##변": 3586,
            "##강": 3587,
            "##쉴": 3588,
            "##희": 3589,
            "##쿨": 3590,
            "##앗": 3591,
            "##뻐": 3592,
            "##쇠": 3593,
            "##헥": 3594,
            "##쩌": 3595,
            "##슥": 3596,
            "##흐": 3597,
            "##듷": 3598,
            "##롤": 3599,
            "##룜": 3600,
            "##끄": 3601,
            "##잠": 3602,
            "##갔": 3603,
            "##별": 3604,
            "##왘": 3605,
            "##챙": 3606,
            "##붓": 3607,
            "##꼽": 3608,
            "##닝": 3609,
            "##쑴": 3610,
            "##겹": 3611,
            "##랏": 3612,
            "##셋": 3613,
            "##낸": 3614,
            "##참": 3615,
            "##련": 3616,
            "##햐": 3617,
            "##왜": 3618,
            "##ㅙ": 3619,
            "##랐": 3620,
            "##셔": 3621,
            "##쟁": 3622,
            "##몬": 3623,
            "##뽑": 3624,
            "##김": 3625,
            "##횻": 3626,
            "##멀": 3627,
            "##랭": 3628,
            "##뷰": 3629,
            "##넌": 3630,
            "##ㅕ": 3631,
            "##ㅒ": 3632,
            "##댇": 3633,
            "##잡": 3634,
            "##쥬": 3635,
            "##먼": 3636,
            "##론": 3637,
            "##웠": 3638,
            "##맹": 3639,
            "##뤼": 3640,
            "##샷": 3641,
            "##릎": 3642,
            "##벼": 3643,
            "##맞": 3644,
            "##꾹": 3645,
            "##닦": 3646,
            "##짜": 3647,
            "##긋": 3648,
            "##7": 3649,
            "##젝": 3650,
            "##숙": 3651,
            "##슷": 3652,
            "##땐": 3653,
            "##죄": 3654,
            "##흑": 3655,
            "##륵": 3656,
            "##닳": 3657,
            "##패": 3658,
            "##펙": 3659,
            "##클": 3660,
            "##쪔": 3661,
            "##샵": 3662,
            "##꼭": 3663,
            "##g": 3664,
            "##즹": 3665,
            "##빛": 3666,
            "##갓": 3667,
            "##눈": 3668,
            "##틀": 3669,
            "##책": 3670,
            "##쯤": 3671,
            "##긁": 3672,
            "##떻": 3673,
            "##탯": 3674,
            "##많": 3675,
            "##피": 3676,
            "##셜": 3677,
            "##y": 3678,
            "##닡": 3679,
            "##넷": 3680,
            "##넣": 3681,
            "##붛": 3682,
            "##v": 3683,
            "##팔": 3684,
            "##씻": 3685,
            "##획": 3686,
            "##법": 3687,
            "##꼈": 3688,
            "##튜": 3689,
            "##q": 3690,
            "##언": 3691,
            "##겡": 3692,
            "##몇": 3693,
            "##읜": 3694,
            "##팡": 3695,
            "##송": 3696,
            "##쌈": 3697,
            "##슈": 3698,
            "##뵤": 3699,
            "##덟": 3700,
            "##칙": 3701,
            "##헿": 3702,
            "##벨": 3703,
            "##랫": 3704,
            "##캐": 3705,
            "##몽": 3706,
            "##뇌": 3707,
            "##컨": 3708,
            "##츄": 3709,
            "##탁": 3710,
            "##옷": 3711,
            "##뺐": 3712,
            "##독": 3713,
            "##먿": 3714,
            "##득": 3715,
            "##램": 3716,
            "##뇽": 3717,
            "##욥": 3718,
            "##뤙": 3719,
            "##팅": 3720,
            "##껀": 3721,
            "##추": 3722,
            "##ㅄ": 3723,
            "##젠": 3724,
            "##익": 3725,
            "##햅": 3726,
            "##엍": 3727,
            "##췄": 3728,
            "##w": 3729,
            "##규": 3730,
            "##싳": 3731,
            "##썻": 3732,
            "##코": 3733,
            "##병": 3734,
            "##봇": 3735,
            "##욱": 3736,
            "##빙": 3737,
            "##몸": 3738,
            "##눟": 3739,
            "##뿜": 3740,
            "##댕": 3741,
            "##판": 3742,
            "##빡": 3743,
            "##ㄲ": 3744,
            "##옹": 3745,
            "##견": 3746,
            "##b": 3747,
            "##랜": 3748,
            "##톰": 3749,
            "##솟": 3750,
            "##릿": 3751,
            "##샬": 3752,
            "##왂": 3753,
            "##겻": 3754,
            "##탈": 3755,
            "##뎌": 3756,
            "##킁": 3757,
            "##읔": 3758,
            "##힉": 3759,
            "##흉": 3760,
            "##월": 3761,
            "##읐": 3762,
            "##얽": 3763,
            "##혈": 3764,
            "##덜": 3765,
            "##떨": 3766,
            "##델": 3767,
            "##켓": 3768,
            "##석": 3769,
            "##폴": 3770,
            "##굄": 3771,
            "##템": 3772,
            "##턴": 3773,
            "##킵": 3774,
            "##웽": 3775,
            "##엥": 3776,
            "##쉽": 3777,
            "##뜻": 3778,
            "##뤕": 3779,
            "##봄": 3780,
            "##뤱": 3781,
            "##숟": 3782,
            "##낼": 3783,
            "##욤": 3784,
            "##햄": 3785,
            "##낫": 3786,
            "##혼": 3787,
            "##꾼": 3788,
            "##퉤": 3789,
            "##욕": 3790,
            "##즐": 3791,
            "##핑": 3792,
            "##숴": 3793,
            "##롭": 3794,
            "##눚": 3795,
            "##쟤": 3796,
            "##럿": 3797,
            "##렝": 3798,
            "##렓": 3799,
            "##겐": 3800,
            "##톱": 3801,
            "##티": 3802,
            "##혔": 3803,
            "##쏘": 3804,
            "##맨": 3805,
            "##슴": 3806,
            "##됫": 3807,
            "##링": 3808,
            "##뒀": 3809,
            "##팩": 3810,
            "##블": 3811,
            "##ㅂ": 3812,
            "##낟": 3813,
            "##뉴": 3814,
            "##향": 3815,
            "##맘": 3816,
            "##삿": 3817,
            "##뉘": 3818,
            "##셰": 3819,
            "##최": 3820,
            "##믈": 3821,
            "##렛": 3822,
            "##겜": 3823,
            "##됳": 3824,
            "##둥": 3825,
            "##태": 3826,
            "##닷": 3827,
            "##쎄": 3828,
            "##렵": 3829,
            "##튀": 3830,
            "##맷": 3831,
            "##헌": 3832,
            "##꿈": 3833,
            "##꺄": 3834,
            "##멜": 3835,
            "##케": 3836,
            "##빵": 3837,
            "##횽": 3838,
            "##넘": 3839,
            "##듬": 3840,
            "##몰": 3841,
            "##팟": 3842,
            "##앞": 3843,
            "##값": 3844,
            "##핚": 3845,
            "##짠": 3846,
            "##윙": 3847,
            "##측": 3848,
            "##쉨": 3849,
            "##쿼": 3850,
            "##떘": 3851,
            "##쓸": 3852,
            "##밸": 3853,
            "##쮸": 3854,
            "##튼": 3855,
            "##굼": 3856,
            "##둠": 3857,
            "##땀": 3858,
            "##맬": 3859,
            "##푸": 3860,
            "##늬": 3861,
            "##혜": 3862,
            "##탠": 3863,
            "##땡": 3864,
            "##궈": 3865,
            "##칸": 3866,
            "##갠": 3867,
            "##눠": 3868,
            "##욬": 3869,
            "##율": 3870,
            "##냄": 3871,
            "##깜": 3872,
            "##늫": 3873,
            "##샛": 3874,
            "##볶": 3875,
            "##혁": 3876,
            "##쩔": 3877,
            "##믐": 3878,
            "##촨": 3879,
            "##겸": 3880,
            "##쒯": 3881,
            "##덩": 3882,
            "##뜬": 3883,
            "##투": 3884,
            "##틱": 3885,
            "##쉼": 3886,
            "##쯜": 3887,
            "##큼": 3888,
            "##닾": 3889,
            "##쌋": 3890,
            "##뎀": 3891,
            "##냈": 3892,
            "##옆": 3893,
            "##혐": 3894,
            "##협": 3895,
            "##킹": 3896,
            "##봏": 3897,
            "##땅": 3898,
            "##찔": 3899,
            "##열": 3900,
            "##초": 3901,
            "##챴": 3902,
            "##윗": 3903,
            "##팝": 3904,
            "##츠": 3905,
            "##댁": 3906,
            "##z": 3907,
            "##팬": 3908,
            "##싿": 3909,
            "##찼": 3910,
            "##끌": 3911,
            "##곰": 3912,
            "##갰": 3913,
            "##꽃": 3914,
            "##엊": 3915,
            "##힛": 3916,
            "##냔": 3917,
            "##뎁": 3918,
            "##줖": 3919,
            "##궜": 3920,
            "##꺽": 3921,
            "##딧": 3922,
            "##젖": 3923,
            "##ㅞ": 3924,
            "##뜩": 3925,
            "##ㄼ": 3926,
            "##현": 3927,
            "##놀": 3928,
            "##줚": 3929,
            "##쑤": 3930,
            "##빈": 3931,
            "##껴": 3932,
            "##쿡": 3933,
            "##왓": 3934,
            "##ㅀ": 3935,
            "##홓": 3936,
            "##렷": 3937,
            "##쑦": 3938,
            "##갗": 3939,
            "##춤": 3940,
            "##힌": 3941,
            "##덱": 3942,
            "##옶": 3943,
            "##팠": 3944,
            "##괜": 3945,
            "##짙": 3946,
            "##딨": 3947,
            "##찡": 3948,
            "##돈": 3949,
            "##꾺": 3950,
            "##밤": 3951,
            "##롥": 3952,
            "##캔": 3953,
            "##균": 3954,
            "##앜": 3955,
            "##뼈": 3956,
            "##빱": 3957,
            "##먀": 3958,
            "##뮹": 3959,
            "##숩": 3960,
            "##섭": 3961,
            "##효": 3962,
            "##욹": 3963,
            "##뱌": 3964,
            "##앧": 3965,
            "##칯": 3966,
            "##밍": 3967,
            "##둴": 3968,
            "##듦": 3969,
            "##챗": 3970,
            "##꿨": 3971,
            "##룡": 3972,
            "##뿌": 3973,
            "##덤": 3974,
            "##얘": 3975,
            "##뇬": 3976,
            "##칍": 3977,
            "##랃": 3978,
            "##ㄶ": 3979,
            "##셀": 3980,
            "##칭": 3981,
            "##앤": 3982,
            "##곶": 3983,
            "##닽": 3984,
            "##탆": 3985,
            "##쓴": 3986,
            "##앍": 3987,
            "##훠": 3988,
            "##뤠": 3989,
            "##둬": 3990,
            "##랗": 3991,
            "##빨": 3992,
            "##듕": 3993,
            "##똥": 3994,
            "##랩": 3995,
            "##탕": 3996,
            "##걱": 3997,
            "##칩": 3998,
            "##틸": 3999,
            "##좌": 4000,
            "##겤": 4001,
            "##숲": 4002,
            "##평": 4003,
            "##묻": 4004,
            "##짤": 4005,
            "##렬": 4006,
            "##겢": 4007,
            "##팽": 4008,
            "##뽈": 4009,
            "##웨": 4010,
            "##흡": 4011,
            "##쌍": 4012,
            "##젛": 4013,
            "##헝": 4014,
            "##붙": 4015,
            "##텨": 4016,
            "##맵": 4017,
            "##씹": 4018,
            "##줏": 4019,
            "##컬": 4020,
            "##켄": 4021,
            "##싮": 4022,
            "##붐": 4023,
            "##흠": 4024,
            "##듫": 4025,
            "##ㄸ": 4026,
            "##펀": 4027,
            "##삐": 4028,
            "##숨": 4029,
            "##픔": 4030,
            "##끔": 4031,
            "##뭎": 4032,
            "##촉": 4033,
            "##깅": 4034,
            "##핮": 4035,
            "##읎": 4036,
            "##썹": 4037,
            "##흘": 4038,
            "##씬": 4039,
            "##엏": 4040,
            "##풍": 4041,
            "##됩": 4042,
            "##숫": 4043,
            "##꼐": 4044,
            "##럾": 4045,
            "##앝": 4046,
            "##홀": 4047,
            "##긓": 4048,
            "##갸": 4049,
            "##필": 4050,
            "##돋": 4051,
            "##끆": 4052,
            "##읏": 4053,
            "##윈": 4054,
            "##술": 4055,
            "##릇": 4056,
            "##꿑": 4057,
            "##쿵": 4058,
            "##긍": 4059,
            "##룹": 4060,
            "##빅": 4061,
            "##꼰": 4062,
            "##쟀": 4063,
            "##늙": 4064,
            "##숯": 4065,
            "##낳": 4066,
            "##빕": 4067,
            "##룰": 4068,
            "##훙": 4069,
            "##ㅝ": 4070,
            "##됑": 4071,
            "##렌": 4072,
            "##폼": 4073,
            "##툽": 4074,
            "##령": 4075,
            "##뽕": 4076,
            "##빰": 4077,
            "##샣": 4078,
            "##룸": 4079,
            "##냉": 4080,
            "##툼": 4081,
            "##읆": 4082,
            "##읽": 4083,
            "##컸": 4084,
            "##엌": 4085,
            "##렺": 4086,
            "##척": 4087,
            "##칫": 4088,
            "##첞": 4089,
            "##갤": 4090,
            "##퀴": 4091,
            "##킬": 4092,
            "##닮": 4093,
            "##땨": 4094,
            "##x": 4095,
            "##융": 4096,
            "##검": 4097,
            "##컷": 4098,
            "##엩": 4099,
            "##폭": 4100,
            "##괄": 4101,
            "##낙": 4102,
            "##쾌": 4103,
            "##넨": 4104,
            "##겍": 4105,
            "##쫄": 4106,
            "##큐": 4107,
            "##펴": 4108,
            "##곻": 4109,
            "##탸": 4110,
            "##쎼": 4111,
            "##퐁": 4112,
            "##깃": 4113,
            "##낀": 4114,
            "##궸": 4115,
            "##잏": 4116,
            "##윽": 4117,
            "##젤": 4118,
            "##즘": 4119,
            "##멘": 4120,
            "##률": 4121,
            "##겄": 4122,
            "##럈": 4123,
            "##앉": 4124,
            "##룩": 4125,
            "##빌": 4126,
            "##맙": 4127,
            "##찰": 4128,
            "##낞": 4129,
            "##띠": 4130,
            "##곱": 4131,
            "##댯": 4132,
            "##옼": 4133,
            "##뉵": 4134,
            "##닜": 4135,
            "##쒸": 4136,
            "##웬": 4137,
            "##힐": 4138,
            "##벳": 4139,
            "##됀": 4140,
            "##셍": 4141,
            "##뮬": 4142,
            "##쎈": 4143,
            "##갱": 4144,
            "##풔": 4145,
            "##쑐": 4146,
            "##냑": 4147,
            "##핟": 4148,
            "##쟞": 4149,
            "##똑": 4150,
            "##앱": 4151,
            "##둔": 4152,
            "##첫": 4153,
            "##넙": 4154,
            "##늦": 4155,
            "##닉": 4156,
            "##묵": 4157,
            "##ㅉ": 4158,
            "##뇨": 4159,
            "##핶": 4160,
            "##ㄾ": 4161,
            "##끓": 4162,
            "##넫": 4163,
            "##땜": 4164,
            "##깡": 4165,
            "##갘": 4166,
            "##쨔": 4167,
            "##닫": 4168,
            "##헠": 4169,
            "##얍": 4170,
            "##붕": 4171,
            "##탙": 4172,
            "##숱": 4173,
            "##틴": 4174,
            "##슢": 4175,
            "##믿": 4176,
            "##짖": 4177,
            "##쨰": 4178,
            "##뻣": 4179,
            "##뿡": 4180,
            "##밨": 4181,
            "##깉": 4182,
            "##펜": 4183,
            "##젼": 4184,
            "##뷴": 4185,
            "##륽": 4186,
            "##왈": 4187,
            "##덴": 4188,
            "##좁": 4189,
            "##럐": 4190,
            "##탔": 4191,
            "##둑": 4192,
            "##끊": 4193,
            "##엎": 4194,
            "##캣": 4195,
            "##떈": 4196,
            "##줍": 4197,
            "##뉭": 4198,
            "##쫘": 4199,
            "##뜯": 4200,
            "##돠": 4201,
            "##흔": 4202,
            "##렘": 4203,
            "##뒈": 4204,
            "##햤": 4205,
            "##샂": 4206,
            "##쒈": 4207,
            "##픂": 4208,
            "##헑": 4209,
            "##줗": 4210,
            "##찜": 4211,
            "##닭": 4212,
            "##쪄": 4213,
            "##눙": 4214,
            "##샨": 4215,
            "##밈": 4216,
            "##텔": 4217,
            "##넥": 4218,
            "##흫": 4219,
            "##탬": 4220,
            "##탑": 4221,
            "##킼": 4222,
            "##씾": 4223,
            "##벗": 4224,
            "##왉": 4225,
            "##및": 4226,
            "##얻": 4227,
            "##싈": 4228,
            "##뭉": 4229,
            "##됴": 4230,
            "##뉨": 4231,
            "##뚤": 4232,
            "##졎": 4233,
            "##옥": 4234,
            "##떼": 4235,
            "##큨": 4236,
            "##쫌": 4237,
            "##릐": 4238,
            "##쨩": 4239,
            "##객": 4240,
            "##샹": 4241,
            "##맿": 4242,
            "##봥": 4243,
            "##ㅘ": 4244,
            "##넜": 4245,
            "##뽀": 4246,
            "##렙": 4247,
            "##댤": 4248,
            "##뭇": 4249,
            "##쌩": 4250,
            "##즌": 4251,
            "##콩": 4252,
            "##둡": 4253,
            "##콘": 4254,
            "##삽": 4255,
            "##걍": 4256,
            "##앶": 4257,
            "##캠": 4258,
            "##끗": 4259,
            "##갯": 4260,
            "##쏠": 4261,
            "##튕": 4262,
            "##렿": 4263,
            "##얐": 4264,
            "##둗": 4265,
            "##맏": 4266,
            "##탉": 4267,
            "##렆": 4268,
            "##뱅": 4269,
            "##닁": 4270,
            "##싴": 4271,
            "##첨": 4272,
            "##놰": 4273,
            "##늉": 4274,
            "##탭": 4275,
            "##쟜": 4276,
            "##썬": 4277,
            "##씁": 4278,
            "##똘": 4279,
            "##룐": 4280,
            "##귺": 4281,
            "##댈": 4282,
            "##섹": 4283,
            "##콜": 4284,
            "##겉": 4285,
            "##젬": 4286,
            "##퐈": 4287,
            "##럊": 4288,
            "##빽": 4289,
            "##낑": 4290,
            "##륌": 4291,
            "##윅": 4292,
            "##총": 4293,
            "##쒕": 4294,
            "##흥": 4295,
            "##큘": 4296,
            "##쉑": 4297,
            "##텀": 4298,
            "##썸": 4299,
            "##챠": 4300,
            "##삑": 4301,
            "##릉": 4302,
            "##젯": 4303,
            "##훼": 4304,
            "##훟": 4305,
            "##핵": 4306,
            "##앳": 4307,
            "##맴": 4308,
            "##옮": 4309,
            "##쟌": 4310,
            "##뽄": 4311,
            "##츦": 4312,
            "##븸": 4313,
            "##둘": 4314,
            "##탐": 4315,
            "##렐": 4316,
            "##늚": 4317,
            "##듸": 4318,
            "##액": 4319,
            "##젆": 4320,
            "##뮁": 4321,
            "##녹": 4322,
            "##뺴": 4323,
            "##롷": 4324,
            "##욧": 4325,
            "##풋": 4326,
            "##껨": 4327,
            "##좔": 4328,
            "##칵": 4329,
            "##찱": 4330,
            "##밧": 4331,
            "##텼": 4332,
            "##맜": 4333,
            "##뺑": 4334,
            "##쵸": 4335,
            "##홉": 4336,
            "##벽": 4337,
            "##걌": 4338,
            "##맣": 4339,
            "##굽": 4340,
            "##긱": 4341,
            "##퉁": 4342,
            "##뀐": 4343,
            "##큰": 4344,
            "##뢰": 4345,
            "##릅": 4346,
            "##즁": 4347,
            "##랸": 4348,
            "##싷": 4349,
            "##흓": 4350,
            "##밑": 4351,
            "##믄": 4352,
            "##봣": 4353,
            "##녜": 4354,
            "##앟": 4355,
            "##앀": 4356,
            "##깬": 4357,
            "##딸": 4358,
            "##뵀": 4359,
            "##읕": 4360,
            "##듈": 4361,
            "##롣": 4362,
            "##ㅃ": 4363,
            "##갵": 4364,
            "##펐": 4365,
            "##헐": 4366,
            "##휘": 4367,
            "##댓": 4368,
            "##펄": 4369,
            "##읭": 4370,
            "##잗": 4371,
            "##롼": 4372,
            "##쏭": 4373,
            "##듭": 4374,
            "##맢": 4375,
            "##뜽": 4376,
            "##썜": 4377,
            "##팸": 4378,
            "##눼": 4379,
            "##뀔": 4380,
            "##냘": 4381,
            "##찢": 4382,
            "##탓": 4383,
            "##캅": 4384,
            "##틈": 4385,
            "##떙": 4386,
            "##쥥": 4387,
            "##튭": 4388,
            "##뉜": 4389,
            "##궐": 4390,
            "##믤": 4391,
            "##념": 4392,
            "##읈": 4393,
            "##둿": 4394,
            "##딜": 4395,
            "##셤": 4396,
            "##벙": 4397,
            "##췌": 4398,
            "##넏": 4399,
            "##짆": 4400,
            "##뱁": 4401,
            "##헗": 4402,
            "##잊": 4403,
            "##쨜": 4404,
            "##헨": 4405,
            "##잒": 4406,
            "##줭": 4407,
            "##졋": 4408,
            "##춥": 4409,
            "##잦": 4410,
            "##짬": 4411,
            "##냨": 4412,
            "##셉": 4413,
            "##쁠": 4414,
            "##뎋": 4415,
            "##갹": 4416,
            "##농": 4417,
            "##랠": 4418,
            "##뮤": 4419,
            "##갥": 4420,
            "##꽈": 4421,
            "##뭔": 4422,
            "##싹": 4423,
            "##쁨": 4424,
            "##훔": 4425,
            "##댑": 4426,
            "##샀": 4427,
            "##놧": 4428,
            "##쭘": 4429,
            "##섬": 4430,
            "##끵": 4431,
            "##즙": 4432,
            "##엮": 4433,
            "##끈": 4434,
            "##뻠": 4435,
            "##뭄": 4436,
            "##쥭": 4437,
            "##앰": 4438,
            "##딘": 4439,
            "##왱": 4440,
            "##씌": 4441,
            "##싼": 4442,
            "##갉": 4443,
            "##엣": 4444,
            "##섵": 4445,
            "##똫": 4446,
            "##뚜": 4447,
            "##씅": 4448,
            "##쎔": 4449,
            "##뺌": 4450,
            "##껍": 4451,
            "##컹": 4452,
            "##엘": 4453,
            "##됮": 4454,
            "##펑": 4455,
            "##붸": 4456,
            "##훌": 4457,
            "##뤫": 4458,
            "##죡": 4459,
            "##킄": 4460,
            "##헙": 4461,
            "##톨": 4462,
            "##녓": 4463,
            "##웊": 4464,
            "##륜": 4465,
            "##밋": 4466,
            "##깄": 4467,
            "##욌": 4468,
            "##끽": 4469,
            "##젙": 4470,
            "##됬": 4471,
            "##홧": 4472,
            "##얒": 4473,
            "##캉": 4474,
            "##쩄": 4475,
            "##옝": 4476,
            "##킈": 4477,
            "##ㅢ": 4478,
            "##킠": 4479,
            "##앨": 4480,
            "##쪼": 4481,
            "##빔": 4482,
            "##콸": 4483,
            "##콰": 4484,
            "##냇": 4485,
            "##롲": 4486,
            "##샤": 4487,
            "##듄": 4488,
            "##읋": 4489,
            "##눔": 4490,
            "##빤": 4491,
            "##뱔": 4492,
            "##엙": 4493,
            "##떰": 4494,
            "##눅": 4495,
            "##깼": 4496,
            "##늪": 4497,
            "##ㄽ": 4498,
            "##쥑": 4499,
            "##깠": 4500,
            "##싺": 4501,
            "##솥": 4502,
            "##읶": 4503,
            "##텃": 4504,
            "##렏": 4505,
            "##옛": 4506,
            "##ㄳ": 4507,
            "##홈": 4508,
            "##헸": 4509,
            "##훃": 4510,
            "##얄": 4511,
            "##찟": 4512,
            "##꿉": 4513,
            "##긿": 4514,
            "##먕": 4515,
            "##맇": 4516,
            "##륑": 4517,
            "##쬬": 4518,
            "##슘": 4519,
            "##뎄": 4520,
            "##싣": 4521,
            "##믕": 4522,
            "##털": 4523,
            "##킇": 4524,
            "##읗": 4525,
            "##낮": 4526,
            "##둣": 4527,
            "##삥": 4528,
            "##룽": 4529,
            "##읅": 4530,
            "##낄": 4531,
            "##닞": 4532,
            "##쳥": 4533,
            "##겆": 4534,
            "##핻": 4535,
            "##갖": 4536,
            "##숑": 4537,
            "##뾰": 4538,
            "##곧": 4539,
            "##틍": 4540,
            "##쥼": 4541,
            "##쁩": 4542,
            "##눞": 4543,
            "##콤": 4544,
            "##끜": 4545,
            "##덮": 4546,
            "##헹": 4547,
            "##햔": 4548,
            "##귄": 4549,
            "##삘": 4550,
            "##앷": 4551,
            "##멇": 4552,
            "##믓": 4553,
            "##갚": 4554,
            "##츨": 4555,
            "##긇": 4556,
            "##씪": 4557,
            "##옄": 4558,
            "##넞": 4559,
            "##핼": 4560,
            "##갅": 4561,
            "##뺏": 4562,
            "##팧": 4563,
            "##컵": 4564,
            "##츷": 4565,
            "##핡": 4566,
            "##뜰": 4567,
            "##낱": 4568,
            "##덯": 4569,
            "##젇": 4570,
            "##앖": 4571,
            "##옙": 4572,
            "##뵈": 4573,
            "##챵": 4574,
            "##딥": 4575,
            "##옫": 4576,
            "##펫": 4577,
            "##퍈": 4578,
            "##꼼": 4579,
            "##슁": 4580,
            "##콕": 4581,
            "##뒹": 4582,
            "##딪": 4583,
            "##꺳": 4584,
            "##탘": 4585,
            "##밯": 4586,
            "##첩": 4587,
            "##껐": 4588,
            "##껑": 4589,
            "##늰": 4590,
            "##썅": 4591,
            "##럵": 4592,
            "##쀠": 4593,
            "##쨕": 4594,
            "##뚣": 4595,
            "##쨈": 4596,
            "##싐": 4597,
            "##룾": 4598,
            "##츕": 4599,
            "##닊": 4600,
            "##찹": 4601,
            "##댄": 4602,
            "##힏": 4603,
            "##꺔": 4604,
            "##콬": 4605,
            "##켘": 4606,
            "##논": 4607,
            "##짼": 4608,
            "##꽂": 4609,
            "##엳": 4610,
            "##솝": 4611,
            "##슐": 4612,
            "##괘": 4613,
            "##쒄": 4614,
            "##푱": 4615,
            "##끕": 4616,
            "##쨍": 4617,
            "##뭥": 4618,
            "##늴": 4619,
            "##윤": 4620,
            "##밎": 4621,
            "##썩": 4622,
            "##셌": 4623,
            "##밞": 4624,
            "##쪙": 4625,
            "##잣": 4626,
            "##옵": 4627,
            "##렦": 4628,
            "##뺄": 4629,
            "##꺠": 4630,
            "##떴": 4631,
            "##찓": 4632,
            "##뿔": 4633,
            "##륙": 4634,
            "##횡": 4635,
            "##헽": 4636,
            "##놤": 4637,
            "##턱": 4638,
            "##뻘": 4639,
            "##젓": 4640,
            "##짇": 4641,
            "##땠": 4642,
            "##웆": 4643,
            "##늗": 4644,
            "##덧": 4645,
            "##볍": 4646,
            "##렑": 4647,
            "##엤": 4648,
            "##앛": 4649,
            "##펏": 4650,
            "##엡": 4651,
            "##탛": 4652,
            "##붜": 4653,
            "##맺": 4654,
            "##쭈": 4655,
            "##얂": 4656,
            "##렫": 4657,
            "##앋": 4658,
            "##뱉": 4659,
            "##싄": 4660,
            "##삶": 4661,
            "##샸": 4662,
            "##꺘": 4663,
            "##욾": 4664,
            "##얗": 4665,
            "##밭": 4666,
            "##뤃": 4667,
            "##떢": 4668,
            "##쓔": 4669,
            "##쫏": 4670,
            "##랳": 4671,
            "##쉭": 4672,
            "##닙": 4673,
            "##맡": 4674,
            "##빴": 4675,
            "##웹": 4676,
            "##짛": 4677,
            "##뎠": 4678,
            "##녛": 4679,
            "##롄": 4680,
            "##럇": 4681,
            "##웄": 4682,
            "##솔": 4683,
            "##쉉": 4684,
            "##솨": 4685,
            "##곕": 4686,
            "##몫": 4687,
            "##껏": 4688,
            "##똪": 4689,
            "##븍": 4690,
            "##첵": 4691,
            "##밒": 4692,
            "##귈": 4693,
            "##뮫": 4694,
            "##뉻": 4695,
            "##슺": 4696,
            "##귤": 4697,
            "##샇": 4698,
            "##덥": 4699,
            "##햣": 4700,
            "##춌": 4701,
            "##셩": 4702,
            "##쌔": 4703,
            "##옸": 4704,
            "##밬": 4705,
            "##랂": 4706,
            "##짢": 4707,
            "##섕": 4708,
            "##뗄": 4709,
            "##폈": 4710,
            "##휄": 4711,
            "##냊": 4712,
            "##냅": 4713,
            "##캥": 4714,
            "##늕": 4715,
            "##늑": 4716,
            "##윰": 4717,
            "##땬": 4718,
            "##챤": 4719,
            "##풉": 4720,
            "##쩐": 4721,
            "##겓": 4722,
            "##훗": 4723,
            "##췸": 4724,
            "##혓": 4725,
            "##랼": 4726,
            "##퍽": 4727,
            "##뚫": 4728,
            "##힇": 4729,
            "##핏": 4730,
            "##픗": 4731,
            "##갇": 4732,
            "##늨": 4733,
            "##헬": 4734,
            "##뺠": 4735,
            "##룔": 4736,
            "##팓": 4737,
            "##쌌": 4738,
            "##맟": 4739,
            "##댝": 4740,
            "##햏": 4741,
            "##냤": 4742,
            "##눕": 4743,
            "##옿": 4744,
            "##웢": 4745,
            "##넢": 4746,
            "##겋": 4747,
            "##흙": 4748,
            "##섲": 4749,
            "##걨": 4750,
            "##섑": 4751,
            "##댸": 4752,
            "##녖": 4753,
            "##쾅": 4754,
            "##굮": 4755,
            "##땟": 4756,
            "##랖": 4757,
            "##럳": 4758,
            "##섣": 4759,
            "##샌": 4760,
            "##풓": 4761,
            "##짉": 4762,
            "##텥": 4763,
            "##뚝": 4764,
            "##쥰": 4765,
            "##앎": 4766,
            "##릏": 4767,
            "##눤": 4768,
            "##륟": 4769,
            "##딈": 4770,
            "##쟉": 4771,
            "##둪": 4772,
            "##퓰": 4773,
            "##몀": 4774,
            "##컼": 4775,
            "##젔": 4776,
            "##둉": 4777,
            "##닸": 4778,
            "##믛": 4779,
            "##퓯": 4780,
            "##쿤": 4781,
            "##셧": 4782,
            "##굤": 4783,
            "##줔": 4784,
            "##뚱": 4785,
            "##긏": 4786,
            "##츼": 4787,
            "##혆": 4788,
            "##갂": 4789,
            "##떔": 4790,
            "##싕": 4791,
            "##묘": 4792,
            "##팢": 4793,
            "##퀘": 4794,
            "##꿍": 4795,
            "##웁": 4796,
            "##룯": 4797,
            "##눋": 4798,
            "##옺": 4799,
            "##냦": 4800,
            "##밴": 4801,
            "##낯": 4802,
            "##냠": 4803,
            "##븃": 4804,
            "##츤": 4805,
            "##깎": 4806,
            "##렼": 4807,
            "##랔": 4808,
            "##젶": 4809,
            "##껭": 4810,
            "##랕": 4811,
            "##탍": 4812,
            "##뗘": 4813,
            "##쩊": 4814,
            "##퍠": 4815,
            "##ㅟ": 4816,
            "##켬": 4817,
            "##깟": 4818,
            "##앹": 4819,
            "##핸": 4820,
            "##쟏": 4821,
            "##뢀": 4822,
            "##낲": 4823,
            "##멩": 4824,
            "##잧": 4825,
            "##뛸": 4826,
            "##뱃": 4827,
            "##앓": 4828,
            "##렂": 4829,
            "##걵": 4830,
            "##럣": 4831,
            "##빚": 4832,
            "##큩": 4833,
            "##냪": 4834,
            "##쭉": 4835,
            "##붘": 4836,
            "##덢": 4837,
            "##짚": 4838,
            "##깥": 4839,
            "##굳": 4840,
            "##튠": 4841,
            "##뀨": 4842,
            "##앆": 4843,
            "##갬": 4844,
            "##뚠": 4845,
            "##쪘": 4846,
            "##솩": 4847,
            "##럎": 4848,
            "##깊": 4849,
            "##쨌": 4850,
            "##텂": 4851,
            "##갛": 4852,
            "##싀": 4853,
            "##륻": 4854,
            "##슉": 4855,
            "##핀": 4856,
            "##풒": 4857,
            "##헷": 4858,
            "##얇": 4859,
            "##핬": 4860,
            "##뉸": 4861,
            "##낵": 4862,
            "##쓱": 4863,
            "##잭": 4864,
            "##쁀": 4865,
            "##왼": 4866,
            "##잃": 4867,
            "##샊": 4868,
            "##닢": 4869,
            "##꽉": 4870,
            "##멓": 4871,
            "##쿗": 4872,
            "##욺": 4873,
            "##줜": 4874,
            "##핱": 4875,
            "##쥴": 4876,
            "##뉑": 4877,
            "##쯩": 4878,
            "##쨋": 4879,
            "##첯": 4880,
            "##묨": 4881,
            "##턍": 4882,
            "##뵜": 4883,
            "##꿧": 4884,
            "##뎸": 4885,
            "##귱": 4886,
            "##펌": 4887,
            "##늶": 4888,
            "##칰": 4889,
            "##걀": 4890,
            "##잍": 4891,
            "##곁": 4892,
            "##붇": 4893,
            "##넡": 4894,
            "##듶": 4895,
            "##쯉": 4896,
            "##꺾": 4897,
            "##웩": 4898,
            "##뷔": 4899,
            "##댣": 4900,
            "##혹": 4901,
            "##졒": 4902,
            "##픙": 4903,
            "##툭": 4904,
            "##틔": 4905,
            "##늄": 4906,
            "##륭": 4907,
            "##닪": 4908,
            "##떳": 4909,
            "##벱": 4910,
            "##긑": 4911,
            "##욨": 4912,
            "##겊": 4913,
            "##돵": 4914,
            "##뻤": 4915,
            "##윔": 4916,
            "##캗": 4917,
            "##읃": 4918,
            "##뻨": 4919,
            "##ㅚ": 4920,
            "##뫄": 4921,
            "##꺌": 4922,
            "##눜": 4923,
            "##쿸": 4924,
            "##돕": 4925,
            "##챘": 4926,
            "##엱": 4927,
            "##묹": 4928,
            "##샅": 4929,
            "##뵘": 4930,
            "##쎌": 4931,
            "##퀀": 4932,
            "##웉": 4933,
            "##싑": 4934,
            "##맂": 4935,
            "##셬": 4936,
            "##얕": 4937,
            "##괨": 4938,
            "##눴": 4939,
            "##욲": 4940,
            "##읾": 4941,
            "##룻": 4942,
            "##줃": 4943,
            "##굔": 4944,
            "##솦": 4945,
            "##낰": 4946,
            "##찯": 4947,
            "##뿽": 4948,
            "##얃": 4949,
            "##챃": 4950,
            "##엋": 4951,
            "##힁": 4952,
            "##벏": 4953,
            "##륏": 4954,
            "##겿": 4955,
            "##궝": 4956,
            "##뒁": 4957,
            "##헉": 4958,
            "##닏": 4959,
            "##밓": 4960,
            "##셭": 4961,
            "##옭": 4962,
            "##힝": 4963,
            "##웋": 4964,
            "##썾": 4965,
            "##슼": 4966,
            "##옂": 4967,
            "##띵": 4968,
            "##굘": 4969,
            "##뻗": 4970,
            "##밟": 4971,
            "##멎": 4972,
            "##쇄": 4973,
            "##뭋": 4974,
            "##웕": 4975,
            "##럻": 4976,
            "##뮾": 4977,
            "##짧": 4978,
            "##튤": 4979,
            "##왛": 4980,
            "##퀄": 4981,
            "##뿨": 4982,
            "##빳": 4983,
            "##젿": 4984,
            "##졷": 4985,
            "##퍌": 4986,
            "##콧": 4987,
            "##픕": 4988,
            "##릯": 4989,
            "##겪": 4990,
            "##둫": 4991,
            "##훋": 4992,
            "##훅": 4993,
            "##곺": 4994,
            "##럯": 4995,
            "##겎": 4996,
            "##냏": 4997,
            "##넴": 4998,
            "##벋": 4999,
            "##뚬": 5000,
            "##풩": 5001,
            "##퉅": 5002,
            "##붑": 5003,
            "##즉": 5004,
            "##뎦": 5005,
            "##챈": 5006,
            "##륨": 5007,
            "##뎉": 5008,
            "##헀": 5009,
            "##뤈": 5010,
            "##륀": 5011,
            "##엪": 5012,
            "##뀡": 5013,
            "##홰": 5014,
            "##옾": 5015,
            "##캌": 5016,
            "##짰": 5017,
            "##뵙": 5018,
            "##븋": 5019,
            "##넛": 5020,
            "##댲": 5021,
            "##휏": 5022,
            "##웈": 5023,
            "##웧": 5024,
            "##묭": 5025,
            "##칱": 5026,
            "##넿": 5027,
            "##욷": 5028,
            "##맑": 5029,
            "##몹": 5030,
            "##빻": 5031,
            "##킅": 5032,
            "##쫓": 5033,
            "##좃": 5034,
            "##띄": 5035,
            "##샜": 5036,
            "##촵": 5037,
            "##춧": 5038,
            "##쫀": 5039,
            "##맸": 5040,
            "##띤": 5041,
            "##핖": 5042,
            "##낡": 5043,
            "##핥": 5044,
            "##샥": 5045,
            "##깇": 5046,
            "##낚": 5047,
            "##딲": 5048,
            "##놑": 5049,
            "##퉛": 5050,
            "##횃": 5051,
            "##쥠": 5052,
            "##헜": 5053,
            "##룝": 5054,
            "##쩜": 5055,
            "##ㅖ": 5056,
            "##쉥": 5057,
            "##겔": 5058,
            "##갼": 5059,
            "##엨": 5060,
            "##눨": 5061,
            "##띃": 5062,
            "##깋": 5063,
            "##싁": 5064,
            "##궷": 5065,
            "##귿": 5066,
            "##캤": 5067,
            "##잫": 5068,
            "##퉆": 5069,
            "##빋": 5070,
            "##봬": 5071,
            "##믁": 5072,
            "##굑": 5073,
            "##펠": 5074,
            "##흗": 5075,
            "##뢴": 5076,
            "##뷉": 5077,
            "##곷": 5078,
            "##좉": 5079,
            "##켁": 5080,
            "##퐤": 5081,
            "##쮜": 5082,
            "##얏": 5083,
            "##줅": 5084,
            "##놐": 5085,
            "##윌": 5086,
            "##랱": 5087,
            "##빗": 5088,
            "##킷": 5089,
            "##캄": 5090,
            "##푠": 5091,
            "##붗": 5092,
            "##덷": 5093,
            "##킥": 5094,
            "##븰": 5095,
            "##앿": 5096,
            "##렾": 5097,
            "##넼": 5098,
            "##굿": 5099,
            "##뱍": 5100,
            "##퉈": 5101,
            "##딤": 5102,
            "##덭": 5103,
            "##밙": 5104,
            "##댂": 5105,
            "##뺀": 5106,
            "##엶": 5107,
            "##켯": 5108,
            "##푝": 5109,
            "##쵹": 5110,
            "##싰": 5111,
            "##릠": 5112,
            "##췃": 5113,
            "##곘": 5114,
            "##틑": 5115,
            "##왁": 5116,
            "##솜": 5117,
            "##벵": 5118,
            "##벟": 5119,
            "##숵": 5120,
            "##읻": 5121,
            "##맀": 5122,
            "##죤": 5123,
            "##늼": 5124,
            "##됃": 5125,
            "##딯": 5126,
            "##팍": 5127,
            "##렄": 5128,
            "##믹": 5129,
            "##큽": 5130,
            "##쟐": 5131,
            "##찿": 5132,
            "##핢": 5133,
            "##깍": 5134,
            "##넚": 5135,
            "##슽": 5136,
            "##쌉": 5137,
            "##쎙": 5138,
            "##싚": 5139,
            "##즛": 5140,
            "##갿": 5141,
            "##묶": 5142,
            "##깸": 5143,
            "##줐": 5144,
            "##놏": 5145,
            "##룠": 5146,
            "##곸": 5147,
            "##톷": 5148,
            "##팁": 5149,
            "##냡": 5150,
            "##뫀": 5151,
            "##뚸": 5152,
            "##켕": 5153,
            "##칛": 5154,
            "##딮": 5155,
            "##쉿": 5156,
            "##겧": 5157,
            "##탗": 5158,
            "##웞": 5159,
            "##솣": 5160,
            "##ㄵ": 5161,
            "##붖": 5162,
            "##잴": 5163,
            "##깻": 5164,
            "##켈": 5165,
            "##렠": 5166,
            "##싡": 5167,
            "##롯": 5168,
            "##챱": 5169,
            "##쫙": 5170,
            "##귬": 5171,
            "##걳": 5172,
            "##랰": 5173,
            "##픞": 5174,
            "##쳘": 5175,
            "##썌": 5176,
            "##맫": 5177,
            "##컫": 5178,
            "##웎": 5179,
            "##챡": 5180,
            "##얖": 5181,
            "##샆": 5182,
            "##짗": 5183,
            "##핌": 5184,
            "##꼥": 5185,
            "##숼": 5186,
            "##읫": 5187,
            "##믇": 5188,
            "##쟂": 5189,
            "##슧": 5190,
            "##웇": 5191,
            "##겯": 5192,
            "##랉": 5193,
            "##롹": 5194,
            "##랮": 5195,
            "##엫": 5196,
            "##톹": 5197,
            "##죴": 5198,
            "##팥": 5199,
            "##밠": 5200,
            "##흏": 5201,
            "##춋": 5202,
            "##됌": 5203,
            "##윳": 5204,
            "##퍚": 5205,
            "##잽": 5206,
            "##뎡": 5207,
            "##줴": 5208,
            "##쥄": 5209,
            "##렣": 5210,
            "##냫": 5211,
            "##뚐": 5212,
            "##섴": 5213,
            "##숀": 5214,
            "##냣": 5215,
            "##겇": 5216,
            "##녘": 5217,
            "##휑": 5218,
            "##짹": 5219,
            "##챷": 5220,
            "##낗": 5221,
            "##얾": 5222,
            "##얔": 5223,
            "##썯": 5224,
            "##쉘": 5225,
            "##쯰": 5226,
            "##얶": 5227,
            "##뭏": 5228,
            "##닣": 5229,
            "##뎨": 5230,
            "##싵": 5231,
            "##툴": 5232,
            "##뻥": 5233,
            "##멤": 5234,
            "##맠": 5235,
            "##앺": 5236,
            "##퉵": 5237,
            "##줉": 5238,
            "##뚭": 5239,
            "##슂": 5240,
            "##욐": 5241,
            "##숍": 5242,
            "##펃": 5243,
            "##젹": 5244,
            "##궞": 5245,
            "##긒": 5246,
            "##땁": 5247,
            "##촥": 5248,
            "##괵": 5249,
            "##젣": 5250,
            "##덛": 5251,
            "##퓬": 5252,
            "##깰": 5253,
            "##돰": 5254,
            "##뱆": 5255,
            "##쳠": 5256,
            "##첬": 5257,
            "##듢": 5258,
            "##툐": 5259,
            "##웥": 5260,
            "##졓": 5261,
            "##슿": 5262,
            "##틓": 5263,
            "##턷": 5264,
            "##숳": 5265,
            "##똒": 5266,
            "##텝": 5267,
            "##듁": 5268,
            "##븡": 5269,
            "##햫": 5270,
            "##붋": 5271,
            "##퐉": 5272,
            "##쉣": 5273,
            "##텻": 5274,
            "##꽊": 5275,
            "##욮": 5276,
            "##핗": 5277,
            "##돟": 5278,
            "##텍": 5279,
            "##푹": 5280,
            "##닠": 5281,
            "##뀜": 5282,
            "##뵐": 5283,
            "##뽜": 5284,
            "##럅": 5285,
            "##띨": 5286,
            "##뤵": 5287,
            "##쳒": 5288,
            "##옌": 5289,
            "##힙": 5290,
            "##랅": 5291,
            "##곈": 5292,
            "##앚": 5293,
            "##웤": 5294,
            "##즣": 5295,
            "##쑈": 5296,
            "##굉": 5297,
            "##곦": 5298,
            "##욳": 5299,
            "##댬": 5300,
            "##둦": 5301,
            "##뤘": 5302,
            "##뵷": 5303,
            "##죰": 5304,
            "##귗": 5305,
            "##읓": 5306,
            "##깩": 5307,
            "##뷱": 5308,
            "##겾": 5309,
            "##A": 5310,
            "##M": 5311,
            "##E": 5312,
            "##쳨": 5313,
            "##곃": 5314,
            "##궂": 5315,
            "##쨖": 5316,
            "##괼": 5317,
            "##갷": 5318,
            "##웰": 5319,
            "##팦": 5320,
            "##졀": 5321,
            "##벚": 5322,
            "##늌": 5323,
            "##뫃": 5324,
            "##쉰": 5325,
            "##굥": 5326,
            "##껫": 5327,
            "##릳": 5328,
            "##딕": 5329,
            "##줙": 5330,
            "##춱": 5331,
            "##뛴": 5332,
            "##숔": 5333,
            "##컀": 5334,
            "##젏": 5335,
            "##슙": 5336,
            "##쓲": 5337,
            "##틐": 5338,
            "##븜": 5339,
            "##긝": 5340,
            "##푤": 5341,
            "##쎵": 5342,
            "##붤": 5343,
            "##넒": 5344,
            "##빆": 5345,
            "##웜": 5346,
            "##쿰": 5347,
            "##쟡": 5348,
            "##왐": 5349,
            "##퓽": 5350,
            "##볽": 5351,
            "##냎": 5352,
            "##삔": 5353,
            "##넓": 5354,
            "##즨": 5355,
            "##엗": 5356,
            "##잚": 5357,
            "##샃": 5358,
            "##넵": 5359,
            "##됔": 5360,
            "##쑥": 5361,
            "##싪": 5362,
            "##짏": 5363,
            "##햋": 5364,
            "##쐬": 5365,
            "##첝": 5366,
            "##뗀": 5367,
            "##띾": 5368,
            "##팤": 5369,
            "##칮": 5370,
            "##뛔": 5371,
            "##짌": 5372,
            "##쬼": 5373,
            "##늊": 5374,
            "##뻡": 5375,
            "##촐": 5376,
            "##륹": 5377,
            "##뚯": 5378,
            "##걹": 5379,
            "##햃": 5380,
            "##릍": 5381,
            "##꺈": 5382,
            "##딖": 5383,
            "##픃": 5384,
            "##긌": 5385,
            "##똔": 5386,
            "##넟": 5387,
            "##뷸": 5388,
            "##엲": 5389,
            "##룫": 5390,
            "##뭍": 5391,
            "##쯈": 5392,
            "##넬": 5393,
            "##볐": 5394,
            "##윀": 5395,
            "##윜": 5396,
            "##댛": 5397,
            "##깈": 5398,
            "##툤": 5399,
            "##돨": 5400,
            "##겈": 5401,
            "##짯": 5402,
            "##앴": 5403,
            "##븗": 5404,
            "##땔": 5405,
            "##닼": 5406,
            "##웱": 5407,
            "##놘": 5408,
            "##뙈": 5409,
            "##곗": 5410,
            "##뮨": 5411,
            "##욪": 5412,
            "##줼": 5413,
            "##픵": 5414,
            "##햘": 5415,
            "##웒": 5416,
            "##샢": 5417,
            "##딬": 5418,
            "##옃": 5419,
            "##잿": 5420,
            "##됛": 5421,
            "##삉": 5422,
            "##쇽": 5423,
            "##읒": 5424,
            "##씄": 5425,
            "##냬": 5426,
            "##볕": 5427,
            "##됰": 5428,
            "##쟘": 5429,
            "##죔": 5430,
            "##퐃": 5431,
            "##깧": 5432,
            "##벫": 5433,
            "##븱": 5434,
            "##쥽": 5435,
            "##땄": 5436,
            "##뜀": 5437,
            "##끠": 5438,
            "##끅": 5439,
            "##픠": 5440,
            "##톼": 5441,
            "##뇼": 5442,
            "##멒": 5443,
            "##왑": 5444,
            "##돗": 5445,
            "##굨": 5446,
            "##ㅋㅋ": 5447,
            "##ㅋㅋㅋ": 5448,
            "##는데": 5449,
            "아니": 5450,
            "ㅋㅋㅋ": 5451,
            "진짜": 5452,
            "##는거": 5453,
            "NA": 5454,
            "##ME": 5455,
            "NAME": 5456,
            "너무": 5457,
            "내가": 5458,
            "나도": 5459,
            "그냥": 5460,
            "##으로": 5461,
            "근데": 5462,
            "##야지": 5463,
            "그래": 5464,
            "##니까": 5465,
            "오늘": 5466,
            "##고싶": 5467,
            "그런": 5468,
            "##에서": 5469,
            "지금": 5470,
            "##렇게": 5471,
            "이제": 5472,
            "##니다": 5473,
            "##하고": 5474,
            "##으면": 5475,
            "##이야": 5476,
            "어떻": 5477,
            "어떻게": 5478,
            "##다고": 5479,
            "##거야": 5480,
            "##ㅎㅎ": 5481,
            "그거": 5482,
            "우리": 5483,
            "##어서": 5484,
            "그럼": 5485,
            "##하는": 5486,
            "##하면": 5487,
            "##인데": 5488,
            "##라고": 5489,
            "그러": 5490,
            "이거": 5491,
            "##다가": 5492,
            "##아아": 5493,
            "##겠다": 5494,
            "생각": 5495,
            "운동": 5496,
            "학교": 5497,
            "##거같": 5498,
            "##해서": 5499,
            "하고": 5500,
            "##구나": 5501,
            "##까지": 5502,
            "##시간": 5503,
            "##은데": 5504,
            "##이라": 5505,
            "내일": 5506,
            "##ㄱㅋ": 5507,
            "아무": 5508,
            "##들어": 5509,
            "모르": 5510,
            "##하지": 5511,
            "미친": 5512,
            "그래서": 5513,
            "##ㅠㅠ": 5514,
            "##한테": 5515,
            "사람": 5516,
            "##세요": 5517,
            "많이": 5518,
            "##리고": 5519,
            "아직": 5520,
            "##것도": 5521,
            "존나": 5522,
            "##는게": 5523,
            "##이랑": 5524,
            "뭐야": 5525,
            "##이지": 5526,
            "##00": 5527,
            "하면": 5528,
            "##는중": 5529,
            "##는거야": 5530,
            "친구": 5531,
            "들어": 5532,
            "하나": 5533,
            "##아서": 5534,
            "##고있": 5535,
            "그럴": 5536,
            "##부터": 5537,
            "해야": 5538,
            "그건": 5539,
            "##해야": 5540,
            "이런": 5541,
            "##자기": 5542,
            "ㄹㅇ": 5543,
            "이게": 5544,
            "##잖아": 5545,
            "ㅋㅋㅋㅋㅋ": 5546,
            "##인가": 5547,
            "그게": 5548,
            "얼른": 5549,
            "다시": 5550,
            "하지": 5551,
            "##려고": 5552,
            "갑자기": 5553,
            "##는건": 5554,
            "##었어": 5555,
            "##하게": 5556,
            "왜이": 5557,
            "이미": 5558,
            "시간": 5559,
            "그렇게": 5560,
            "언제": 5561,
            "너가": 5562,
            "##고싶다": 5563,
            "애들": 5564,
            "##어어": 5565,
            "어디": 5566,
            "그런거": 5567,
            "나는": 5568,
            "이렇게": 5569,
            "아이": 5570,
            "한번": 5571,
            "##것은": 5572,
            "어제": 5573,
            "좋아": 5574,
            "다른": 5575,
            "##아ㅏ": 5576,
            "너도": 5577,
            "##정도": 5578,
            "##ㅅㅋ": 5579,
            "##을까": 5580,
            "머리": 5581,
            "수업": 5582,
            "##했어": 5583,
            "##더라": 5584,
            "괜찮": 5585,
            "##하는데": 5586,
            "##수있": 5587,
            "공부": 5588,
            "##겠지": 5589,
            "##한다": 5590,
            "##었는데": 5591,
            "##이나": 5592,
            "사실": 5593,
            "미쳤": 5594,
            "10": 5595,
            "바로": 5596,
            "##심히": 5597,
            "##시에": 5598,
            "##습니다": 5599,
            "ㅋㅋ": 5600,
            "무슨": 5601,
            "사진": 5602,
            "몰라": 5603,
            "저거": 5604,
            "빨리": 5605,
            "##하다": 5606,
            "ㅅㅂ": 5607,
            "##대로": 5608,
            "정신": 5609,
            "##면서": 5610,
            "있어": 5611,
            "재밌": 5612,
            "같이": 5613,
            "##입니다": 5614,
            "아니야": 5615,
            "ㅎㅎ": 5616,
            "##거든": 5617,
            "하기": 5618,
            "그렇": 5619,
            "열심히": 5620,
            "##그래": 5621,
            "문제": 5622,
            "힘들": 5623,
            "기분": 5624,
            "##구만": 5625,
            "하자": 5626,
            "##소리": 5627,
            "##한거": 5628,
            "그리고": 5629,
            "이상": 5630,
            "원래": 5631,
            "없어": 5632,
            "안되": 5633,
            "그래도": 5634,
            "보내": 5635,
            "##은거": 5636,
            "##이다": 5637,
            "일단": 5638,
            "여기": 5639,
            "계속": 5640,
            "시발": 5641,
            "##지고": 5642,
            "##겠어": 5643,
            "맛있": 5644,
            "##했는데": 5645,
            "##길래": 5646,
            "귀찮": 5647,
            "안돼": 5648,
            "응원": 5649,
            "에바": 5650,
            "다음": 5651,
            "하는": 5652,
            "##어야": 5653,
            "얼마": 5654,
            "##가서": 5655,
            "##시지": 5656,
            "요즘": 5657,
            "피곤": 5658,
            "##지게": 5659,
            "진정": 5660,
            "뭐가": 5661,
            "##거같아": 5662,
            "##ㄱㅋㄱ": 5663,
            "이번": 5664,
            "삭제": 5665,
            "일어": 5666,
            "대충": 5667,
            "보고": 5668,
            "##하네": 5669,
            "##이네": 5670,
            "##요일": 5671,
            "게임": 5672,
            "소설": 5673,
            "오늘은": 5674,
            "이것은": 5675,
            "엄청": 5676,
            "##사람": 5677,
            "안해": 5678,
            "밥먹": 5679,
            "##지는": 5680,
            "##지만": 5681,
            "##보다": 5682,
            "아침": 5683,
            "##이터": 5684,
            "##0분": 5685,
            "메시지": 5686,
            "왜이렇게": 5687,
            "아닌": 5688,
            "##는거지": 5689,
            "엄마": 5690,
            "##수도": 5691,
            "죽을": 5692,
            "취업": 5693,
            "파일": 5694,
            "##밖에": 5695,
            "싫어": 5696,
            "##새끼": 5697,
            "눈물": 5698,
            "뭐라": 5699,
            "좋은": 5700,
            "##겠네": 5701,
            "##보고": 5702,
            "누나": 5703,
            "이러": 5704,
            "고생": 5705,
            "방금": 5706,
            "##해야지": 5707,
            "##ㅜㅜ": 5708,
            "##냐고": 5709,
            "했는데": 5710,
            "##그러": 5711,
            "전화": 5712,
            "나가": 5713,
            "##것으로": 5714,
            "##하자": 5715,
            "##있어": 5716,
            "뭔가": 5717,
            "일찍": 5718,
            "삭제된": 5719,
            "이걸": 5720,
            "가능": 5721,
            "물어": 5722,
            "##것같": 5723,
            "##되는데": 5724,
            "##중에": 5725,
            "메시지입니다": 5726,
            "처음": 5727,
            "인생": 5728,
            "하루": 5729,
            "##으니까": 5730,
            "나오": 5731,
            "안나": 5732,
            "힘들어": 5733,
            "##이면": 5734,
            "##학교": 5735,
            "거기": 5736,
            "##했다": 5737,
            "##았어": 5738,
            "##더니": 5739,
            "이해": 5740,
            "프로": 5741,
            "##아니": 5742,
            "##고싶어": 5743,
            "알아": 5744,
            "해야지": 5745,
            "잘못": 5746,
            "##네ㅋㅋㅋ": 5747,
            "먹어": 5748,
            "##버리": 5749,
            "카톡": 5750,
            "혼자": 5751,
            "##거임": 5752,
            "아니라": 5753,
            "지금은": 5754,
            "안좋": 5755,
            "##하는거": 5756,
            "##기가": 5757,
            "##간다": 5758,
            "아마": 5759,
            "##인지": 5760,
            "아니면": 5761,
            "##하나": 5762,
            "뭐야ㅋㅋㅋ": 5763,
            "아무것도": 5764,
            "시작": 5765,
            "말고": 5766,
            "찾아": 5767,
            "##던데": 5768,
            "##ㅎㅋ": 5769,
            "##버렸": 5770,
            "##해보": 5771,
            "##들이": 5772,
            "##어ㅓ": 5773,
            "기억": 5774,
            "만들": 5775,
            "##나서": 5776,
            "##지마": 5777,
            "누구": 5778,
            "없다": 5779,
            "조금": 5780,
            "##스크": 5781,
            "##리가": 5782,
            "얼마나": 5783,
            "느낌": 5784,
            "않아": 5785,
            "고민": 5786,
            "##와서": 5787,
            "그러면": 5788,
            "12": 5789,
            "자살": 5790,
            "##었다": 5791,
            "가서": 5792,
            "그럴수있": 5793,
            "집에": 5794,
            "##하기": 5795,
            "개웃": 5796,
            "먹고": 5797,
            "##라는": 5798,
            "안보": 5799,
            "얘기": 5800,
            "##려서": 5801,
            "##았는데": 5802,
            "고양": 5803,
            "다행": 5804,
            "별로": 5805,
            "오지게": 5806,
            "아무튼": 5807,
            "맘에": 5808,
            "##지도": 5809,
            "만들어": 5810,
            "아주": 5811,
            "이따": 5812,
            "화이": 5813,
            "노래": 5814,
            "##는다": 5815,
            "##자나": 5816,
            "##아아ㅏ": 5817,
            "##한데": 5818,
            "누가": 5819,
            "아니ㅋㅋㅋ": 5820,
            "버스": 5821,
            "집가": 5822,
            "이름": 5823,
            "##이고": 5824,
            "그때": 5825,
            "##이가": 5826,
            "##리는": 5827,
            "##같은": 5828,
            "시험": 5829,
            "거의": 5830,
            "노트": 5831,
            "먼저": 5832,
            "##어요": 5833,
            "ㅇㅇ": 5834,
            "귀여": 5835,
            "아까": 5836,
            "과제": 5837,
            "살아": 5838,
            "저녁": 5839,
            "##전에": 5840,
            "##볼게": 5841,
            "##ㄴㅇ": 5842,
            "웹툰": 5843,
            "있는": 5844,
            "##을때": 5845,
            "##검색": 5846,
            "늦게": 5847,
            "샵검색": 5848,
            "##젝트": 5849,
            "아직도": 5850,
            "졸려": 5851,
            "##ㅠㅜ": 5852,
            "그랬": 5853,
            "가져": 5854,
            "전에": 5855,
            "##합니다": 5856,
            "대체": 5857,
            "아파": 5858,
            "##거같은데": 5859,
            "너네": 5860,
            "씻고": 5861,
            "얼굴": 5862,
            "##가는": 5863,
            "##려주": 5864,
            "##ㅎㅎㅎ": 5865,
            "사람이": 5866,
            "##ㄱㅋㄱㅋ": 5867,
            "미친ㅋㅋㅋ": 5868,
            "발표": 5869,
            "##하하": 5870,
            "##건가": 5871,
            "##야겠다": 5872,
            "연락": 5873,
            "해서": 5874,
            "되게": 5875,
            "맨날": 5876,
            "안먹": 5877,
            "##워서": 5878,
            "##할게": 5879,
            "##이스": 5880,
            "##자너": 5881,
            "그걸": 5882,
            "행복": 5883,
            "기다": 5884,
            "개발": 5885,
            "제일": 5886,
            "##거나": 5887,
            "아님": 5888,
            "않을까": 5889,
            "점심": 5890,
            "##만에": 5891,
            "##가지": 5892,
            "노트북": 5893,
            "미치": 5894,
            "영화": 5895,
            "필요": 5896,
            "그만": 5897,
            "정말": 5898,
            "코드": 5899,
            "##에요": 5900,
            "##난다": 5901,
            "모르겠": 5902,
            "완전": 5903,
            "있는데": 5904,
            "##았다": 5905,
            "프로젝트": 5906,
            "##교시": 5907,
            "보면": 5908,
            "##해도": 5909,
            "##해주": 5910,
            "##마다": 5911,
            "끝나": 5912,
            "##일이": 5913,
            "##문에": 5914,
            "미쳐": 5915,
            "##에는": 5916,
            "당신": 5917,
            "저번": 5918,
            "할게": 5919,
            "##er": 5920,
            "##ㅠㅠㅠ": 5921,
            "화이팅": 5922,
            "짜증": 5923,
            "치킨": 5924,
            "소리": 5925,
            "하지만": 5926,
            "11": 5927,
            "데이터": 5928,
            "##동안": 5929,
            "있음": 5930,
            "돌아": 5931,
            "해보": 5932,
            "고양이": 5933,
            "있으면": 5934,
            "조져": 5935,
            "##로나": 5936,
            "동생": 5937,
            "한다": 5938,
            "겁나": 5939,
            "##하세요": 5940,
            "##놓고": 5941,
            "##단다": 5942,
            "##라이": 5943,
            "스트": 5944,
            "우린": 5945,
            "있었": 5946,
            "했어": 5947,
            "이모": 5948,
            "죽어": 5949,
            "나랑": 5950,
            "대단": 5951,
            "한데": 5952,
            "##거지": 5953,
            "##적으로": 5954,
            "##생각": 5955,
            "##라도": 5956,
            "벌써": 5957,
            "##이었": 5958,
            "하는데": 5959,
            "##처럼": 5960,
            "ㅋㅅㅋ": 5961,
            "선물": 5962,
            "##에에": 5963,
            "##학년": 5964,
            "사라": 5965,
            "##해ㅋㅋㅋ": 5966,
            "##명이": 5967,
            "##텐데": 5968,
            "##스트": 5969,
            "##다니": 5970,
            "##으니": 5971,
            "나만": 5972,
            "미안": 5973,
            "##다는": 5974,
            "##기도": 5975,
            "##할까": 5976,
            "##디어": 5977,
            "ㅋㄱㅋㄱ": 5978,
            "개학": 5979,
            "파이": 5980,
            "##가면": 5981,
            "##가야": 5982,
            "##000": 5983,
            "그럴수있지": 5984,
            "세상": 5985,
            "최고": 5986,
            "해봐": 5987,
            "##지막": 5988,
            "##리면": 5989,
            "오늘도": 5990,
            "놀아": 5991,
            "영상": 5992,
            "자야지": 5993,
            "##애들": 5994,
            "##레이": 5995,
            "##하고있": 5996,
            "디코": 5997,
            "20": 5998,
            "못해": 5999,
            "##야ㅋㅋㅋ": 6000,
            "ㅈㄴ": 6001,
            "도착": 6002,
            "싫다": 6003,
            "##같아": 6004,
            "##in": 6005,
            "마지막": 6006,
            "저런": 6007,
            "##기로": 6008,
            "ㅅㅂㅋㅋㅋ": 6009,
            "병원": 6010,
            "괜찮아": 6011,
            "귀엽": 6012,
            "없음": 6013,
            "인정": 6014,
            "##는지": 6015,
            "##없어": 6016,
            "##오오": 6017,
            "이런거": 6018,
            "제출": 6019,
            "##네요": 6020,
            "##으러": 6021,
            "##고싶은데": 6022,
            "기분이": 6023,
            "같은": 6024,
            "매우": 6025,
            "뭐하": 6026,
            "##수가": 6027,
            "그치": 6028,
            "마음": 6029,
            "어우": 6030,
            "왜그래": 6031,
            "있지": 6032,
            "일어나": 6033,
            "끝내": 6034,
            "아프": 6035,
            "오래": 6036,
            "##을듯": 6037,
            "##먹고": 6038,
            "아니고": 6039,
            "##아아아ㅏ": 6040,
            "ㅇㅈ": 6041,
            "그정도": 6042,
            "나름": 6043,
            "빅데": 6044,
            "##만원": 6045,
            "##건데": 6046,
            "그런가": 6047,
            "오랜": 6048,
            "자고": 6049,
            "##하면서": 6050,
            "면접": 6051,
            "방학": 6052,
            "배고": 6053,
            "어떤": 6054,
            "없어서": 6055,
            "##헤헤": 6056,
            "##가지고": 6057,
            "##on": 6058,
            "보여": 6059,
            "##하니까": 6060,
            "##할때": 6061,
            "##십쇼": 6062,
            "##아아아": 6063,
            "가야": 6064,
            "아빠": 6065,
            "없지": 6066,
            "역시": 6067,
            "해도": 6068,
            "##버려": 6069,
            "##라서": 6070,
            "##진다": 6071,
            "나왔": 6072,
            "자기": 6073,
            "잘자": 6074,
            "##친구": 6075,
            "##어야지": 6076,
            "스트레": 6077,
            "나한테": 6078,
            "##숙사": 6079,
            "병신": 6080,
            "왜그러": 6081,
            "##는걸": 6082,
            "##시다": 6083,
            "피곤해": 6084,
            "부럽": 6085,
            "올라": 6086,
            "자꾸": 6087,
            "하는거": 6088,
            "##래ㅋㅋㅋ": 6089,
            "응원해": 6090,
            "먹을": 6091,
            "소공": 6092,
            "##이이": 6093,
            "뭐지": 6094,
            "받아": 6095,
            "심심": 6096,
            "##al": 6097,
            "##때문에": 6098,
            "고기": 6099,
            "기숙사": 6100,
            "포기": 6101,
            "##티콘": 6102,
            "아침에": 6103,
            "멘탈": 6104,
            "약간": 6105,
            "자세": 6106,
            "##st": 6107,
            "ㅇㅎ": 6108,
            "기대": 6109,
            "잠이": 6110,
            "##으으": 6111,
            "##장님": 6112,
            "어떻게하지": 6113,
            "여기서": 6114,
            "때려": 6115,
            "일본": 6116,
            "정도": 6117,
            "##아파": 6118,
            "##져서": 6119,
            "하면서": 6120,
            "나중에": 6121,
            "어쩌": 6122,
            "##스럽": 6123,
            "##하니": 6124,
            "##이라고": 6125,
            "저렇게": 6126,
            "##ㅇㅈ": 6127,
            "##애애": 6128,
            "##or": 6129,
            "##된다": 6130,
            "##림도": 6131,
            "##하는게": 6132,
            "이유": 6133,
            "있을": 6134,
            "##하시": 6135,
            "근육": 6136,
            "잠을": 6137,
            "혹시": 6138,
            "##당히": 6139,
            "밖에": 6140,
            "##해봐": 6141,
            "##자고": 6142,
            "##는건가": 6143,
            "드디어": 6144,
            "레전": 6145,
            "없는데": 6146,
            "저게": 6147,
            "##에도": 6148,
            "##렵다": 6149,
            "학교에서": 6150,
            "ㅎㅎㅎ": 6151,
            "거지": 6152,
            "많아": 6153,
            "무엇": 6154,
            "자야": 6155,
            "##보면": 6156,
            "학교가": 6157,
            "궁금": 6158,
            "어려": 6159,
            "정리": 6160,
            "##인격": 6161,
            "##러워": 6162,
            "##ㅇㅇ": 6163,
            "##이는": 6164,
            "들가": 6165,
            "있다": 6166,
            "제대로": 6167,
            "코로나": 6168,
            "한시간": 6169,
            "##한게": 6170,
            "##줄게": 6171,
            "##ar": 6172,
            "##시간에": 6173,
            "##이라도": 6174,
            "하기싫": 6175,
            "안좋아": 6176,
            "##했네": 6177,
            "##군요": 6178,
            "힘들다": 6179,
            "이모티콘": 6180,
            "ㅠㅠ": 6181,
            "인나": 6182,
            "##지않": 6183,
            "말을": 6184,
            "선생": 6185,
            "어때": 6186,
            "회사": 6187,
            "##주일": 6188,
            "레전드": 6189,
            "결국": 6190,
            "라면": 6191,
            "물론": 6192,
            "재미": 6193,
            "카카": 6194,
            "##아리": 6195,
            "##지면": 6196,
            "##라인": 6197,
            "아이스크": 6198,
            "제발": 6199,
            "하고싶": 6200,
            "##는건데": 6201,
            "저번에": 6202,
            "알려": 6203,
            "청소": 6204,
            "한국": 6205,
            "##들은": 6206,
            "##ㅏㅇ": 6207,
            "##진짜": 6208,
            "##으면서": 6209,
            "좋겠다": 6210,
            "집에서": 6211,
            "##나봐": 6212,
            "노력": 6213,
            "솔직": 6214,
            "창업": 6215,
            "확인": 6216,
            "힘드": 6217,
            "##적인": 6218,
            "##마자": 6219,
            "##오면": 6220,
            "##운데": 6221,
            "당연": 6222,
            "말이": 6223,
            "먹었": 6224,
            "뭐인데": 6225,
            "유튜": 6226,
            "##하냐": 6227,
            "##였어": 6228,
            "##갔다": 6229,
            "개웃기": 6230,
            "ㅋㅎㅋ": 6231,
            "누워": 6232,
            "어여": 6233,
            "제가": 6234,
            "좋다": 6235,
            "##ㅏㅓ": 6236,
            "짜증나": 6237,
            "파이썬": 6238,
            "따라": 6239,
            "몰랐": 6240,
            "안가": 6241,
            "해주": 6242,
            "화장": 6243,
            "##났어": 6244,
            "##세여": 6245,
            "새로": 6246,
            "안들": 6247,
            "##니깐": 6248,
            "##버림": 6249,
            "##ㅛ어": 6250,
            "##졌어": 6251,
            "##느낌": 6252,
            "##거라": 6253,
            "10분": 6254,
            "눈물이": 6255,
            "솔직히": 6256,
            "30분": 6257,
            "못자": 6258,
            "와서": 6259,
            "준비": 6260,
            "##러가": 6261,
            "##다구": 6262,
            "##어나": 6263,
            "아이스크림": 6264,
            "광주": 6265,
            "뚝딱": 6266,
            "사이": 6267,
            "이야": 6268,
            "##한다고": 6269,
            "##나요": 6270,
            "친구가": 6271,
            "밥먹고": 6272,
            "개꿀": 6273,
            "나와": 6274,
            "내려": 6275,
            "##어도": 6276,
            "##at": 6277,
            "아니지": 6278,
            "##ㅠㅜㅠ": 6279,
            "오랜만에": 6280,
            "긱사": 6281,
            "떨어": 6282,
            "아닐": 6283,
            "##는거임": 6284,
            "아닌데": 6285,
            "곱게": 6286,
            "배가": 6287,
            "안함": 6288,
            "허리": 6289,
            "##하다가": 6290,
            "##있는": 6291,
            "##해요": 6292,
            "##가리": 6293,
            "##할거": 6294,
            "모르겠다": 6295,
            "니가": 6296,
            "설마": 6297,
            "아나": 6298,
            "안하고": 6299,
            "어쩔": 6300,
            "자자": 6301,
            "조지": 6302,
            "학습": 6303,
            "##an": 6304,
            "미친놈": 6305,
            "100": 6306,
            "걱정": 6307,
            "쉬어": 6308,
            "영어": 6309,
            "의미": 6310,
            "##던가": 6311,
            "##et": 6312,
            "애들이": 6313,
            "스트레스": 6314,
            "다운": 6315,
            "대신": 6316,
            "##느데": 6317,
            "##겨ㅋㅋㅋ": 6318,
            "12시": 6319,
            "유튜브": 6320,
            "고맙": 6321,
            "할거": 6322,
            "힘내": 6323,
            "우리는": 6324,
            "in": 6325,
            "있고": 6326,
            "##기는": 6327,
            "##이니": 6328,
            "##야야": 6329,
            "##할듯": 6330,
            "##왔어": 6331,
            "하고있": 6332,
            "들어가": 6333,
            "자살마": 6334,
            "그니까": 6335,
            "다녀": 6336,
            "어림도": 6337,
            "없는": 6338,
            "좋지": 6339,
            "카트": 6340,
            "##od": 6341,
            "##치고": 6342,
            "##머니": 6343,
            "##냐ㅋㅋㅋ": 6344,
            "시간이": 6345,
            "고마": 6346,
            "생일": 6347,
            "##먹어": 6348,
            "##자가": 6349,
            "##린다": 6350,
            "##란다": 6351,
            "##어어ㅓ": 6352,
            "이상한": 6353,
            "엄마가": 6354,
            "못하": 6355,
            "서울": 6356,
            "싶다": 6357,
            "안들어": 6358,
            "##온다": 6359,
            "##운동": 6360,
            "##고있어": 6361,
            "일본어": 6362,
            "15": 6363,
            "가면": 6364,
            "맞아": 6365,
            "무서": 6366,
            "오ㅑ": 6367,
            "일주일": 6368,
            "항상": 6369,
            "##볼까": 6370,
            "##던거": 6371,
            "##지가": 6372,
            "##는것": 6373,
            "##말이": 6374,
            "##려나": 6375,
            "##페이지": 6376,
            "##히히": 6377,
            "진정해": 6378,
            "죽을거같아": 6379,
            "가지": 6380,
            "뭔일": 6381,
            "중학교": 6382,
            "프사": 6383,
            "하다": 6384,
            "##pt": 6385,
            "##너무": 6386,
            "##좋아": 6387,
            "문명": 6388,
            "쌤이": 6389,
            "추가": 6390,
            "##에게": 6391,
            "##주세요": 6392,
            "##수업": 6393,
            "그런거야": 6394,
            "생각해": 6395,
            "설명": 6396,
            "아냐": 6397,
            "아재": 6398,
            "있어서": 6399,
            "잠깐": 6400,
            "##어가": 6401,
            "##ㄴ데": 6402,
            "다음에": 6403,
            "그것도": 6404,
            "둘다": 6405,
            "만나": 6406,
            "안하": 6407,
            "##말고": 6408,
            "두개": 6409,
            "말해": 6410,
            "뭐여": 6411,
            "아는": 6412,
            "아쉽": 6413,
            "일이": 6414,
            "##었음": 6415,
            "##했지": 6416,
            "##먹을": 6417,
            "##겠습니다": 6418,
            "##차피": 6419,
            "##하는중": 6420,
            "이번주": 6421,
            "뭔소리": 6422,
            "비슷": 6423,
            "안하면": 6424,
            "왜그": 6425,
            "중간": 6426,
            "피부": 6427,
            "##리를": 6428,
            "##이없": 6429,
            "##야돼": 6430,
            "##보단": 6431,
            "##려면": 6432,
            "생각해보": 6433,
            "ai": 6434,
            "뭐해": 6435,
            "알고": 6436,
            "이래": 6437,
            "##같이": 6438,
            "##자마자": 6439,
            "##시면": 6440,
            "물어보": 6441,
            "고민중": 6442,
            "개빡": 6443,
            "저장": 6444,
            "조용": 6445,
            "하려고": 6446,
            "##일까": 6447,
            "##zz": 6448,
            "미친다": 6449,
            "교회": 6450,
            "어깨": 6451,
            "어차피": 6452,
            "온라인": 6453,
            "이랑": 6454,
            "해줘": 6455,
            "현실": 6456,
            "##스타": 6457,
            "##기싫": 6458,
            "##도록": 6459,
            "ㅋㅋㅋ그": 6460,
            "다른거": 6461,
            "다음주": 6462,
            "추천": 6463,
            "##는줄": 6464,
            "##이ㅣ": 6465,
            "진짜ㅋㅋㅋ": 6466,
            "에바야": 6467,
            "아마도": 6468,
            "카카오": 6469,
            "20분": 6470,
            "다이": 6471,
            "아래": 6472,
            "아녀": 6473,
            "잠들": 6474,
            "하다가": 6475,
            "하는중": 6476,
            "##나가": 6477,
            "##여서": 6478,
            "##소서": 6479,
            "##ㅏㅜ": 6480,
            "그대로": 6481,
            "너는": 6482,
            "##아ㅓ": 6483,
            "##었지": 6484,
            "##가능": 6485,
            "##야해": 6486,
            "##봤어": 6487,
            "##xt": 6488,
            "##이라니": 6489,
            "해야되": 6490,
            "보냈": 6491,
            "보니까": 6492,
            "않았": 6493,
            "우선": 6494,
            "자신": 6495,
            "자소서": 6496,
            "##겟다": 6497,
            "진짜로": 6498,
            "그런것은": 6499,
            "이러고": 6500,
            "이야기": 6501,
            "돈이": 6502,
            "마이": 6503,
            "몇시에": 6504,
            "살짝": 6505,
            "상관": 6506,
            "잤어": 6507,
            "절대": 6508,
            "한명": 6509,
            "##ㅇㄹ": 6510,
            "##에ㅔ": 6511,
            "##이래": 6512,
            "##먹음": 6513,
            "##까진": 6514,
            "##난거": 6515,
            "##르고": 6516,
            "그러게": 6517,
            "운동을": 6518,
            "내일은": 6519,
            "어디서": 6520,
            "귀여워": 6521,
            "선생님": 6522,
            "갔다": 6523,
            "봐봐": 6524,
            "오류": 6525,
            "이가": 6526,
            "이쁘": 6527,
            "##리지": 6528,
            "##봤는데": 6529,
            "ㅋㅋㅋ아": 6530,
            "모르겠어": 6531,
            "그렇지": 6532,
            "관리": 6533,
            "야발": 6534,
            "지랄": 6535,
            "##있음": 6536,
            "##있어서": 6537,
            "##해볼게": 6538,
            "아무도": 6539,
            "귀찮아서": 6540,
            "구글": 6541,
            "되지": 6542,
            "불러": 6543,
            "애매": 6544,
            "으으": 6545,
            "이불": 6546,
            "##인줄": 6547,
            "##라ㅓ": 6548,
            "고통": 6549,
            "나갈": 6550,
            "노예": 6551,
            "만드": 6552,
            "뭐라고": 6553,
            "밥은": 6554,
            "보는": 6555,
            "어느": 6556,
            "이정도": 6557,
            "한달": 6558,
            "##한거야": 6559,
            "##원이": 6560,
            "##om": 6561,
            "정신이": 6562,
            "빅데이터": 6563,
            "개웃기네ㅋㅋㅋ": 6564,
            "ㅜㅜ": 6565,
            "간다": 6566,
            "감사": 6567,
            "내용": 6568,
            "미래": 6569,
            "성공": 6570,
            "정상": 6571,
            "화가": 6572,
            "##기만": 6573,
            "##지를": 6574,
            "##이였": 6575,
            "##게요": 6576,
            "##ㅁㅊ": 6577,
            "##차나": 6578,
            "그런게": 6579,
            "그럴수": 6580,
            "5인격": 6581,
            "나옴": 6582,
            "남자": 6583,
            "들고": 6584,
            "쉬는": 6585,
            "에어": 6586,
            "오후": 6587,
            "중요": 6588,
            "지하": 6589,
            "핸드": 6590,
            "##하려고": 6591,
            "##해줘": 6592,
            "##을거": 6593,
            "##일어": 6594,
            "##프다": 6595,
            "##운거": 6596,
            "우리학교": 6597,
            "##거같음": 6598,
            "##해야되는데": 6599,
            "##어어어": 6600,
            "기억이": 6601,
            "on": 6602,
            "넘어서": 6603,
            "다리": 6604,
            "돌려": 6605,
            "불편": 6606,
            "상황": 6607,
            "상당히": 6608,
            "생겼": 6609,
            "##있는데": 6610,
            "그러고": 6611,
            "모르게": 6612,
            "당신의": 6613,
            "ppt": 6614,
            "너의": 6615,
            "바꿔": 6616,
            "설치": 6617,
            "안자": 6618,
            "없고": 6619,
            "여러": 6620,
            "여수": 6621,
            "익명이": 6622,
            "카페": 6623,
            "##지어": 6624,
            "##우면": 6625,
            "##느라": 6626,
            "##렸어": 6627,
            "##을거야": 6628,
            "##ㅏㅏ": 6629,
            "##시는": 6630,
            "##시쯤": 6631,
            "##it": 6632,
            "##거같다": 6633,
            "애들이랑": 6634,
            "이따가": 6635,
            "ㅋㄱㅋㄱㅋㅋㅋ": 6636,
            "대박": 6637,
            "만든": 6638,
            "못함": 6639,
            "알려주": 6640,
            "질문": 6641,
            "한거": 6642,
            "해결": 6643,
            "##ㅇㄴ": 6644,
            "##만들": 6645,
            "##은게": 6646,
            "##ㅏㄴ": 6647,
            "##왔다": 6648,
            "하나도": 6649,
            "##ㅅㅋㅅㅋ": 6650,
            "ㅇㅋ": 6651,
            "결과": 6652,
            "그리": 6653,
            "나쁘": 6654,
            "알았": 6655,
            "좀만": 6656,
            "##아가": 6657,
            "##나면": 6658,
            "##같은거": 6659,
            "##을걸": 6660,
            "##때마다": 6661,
            "##님이": 6662,
            "##sm": 6663,
            "##번째": 6664,
            "어떻게해": 6665,
            "##이라서": 6666,
            "바꾸": 6667,
            "심지어": 6668,
            "올려": 6669,
            "저기": 6670,
            "졸리": 6671,
            "회의": 6672,
            "##하누": 6673,
            "##어ㅋㅋㅋ": 6674,
            "##이구나": 6675,
            "##ou": 6676,
            "##시고": 6677,
            "머리가": 6678,
            "귀찮아": 6679,
            "끝나고": 6680,
            "듣고": 6681,
            "마스크": 6682,
            "먹어야": 6683,
            "상상": 6684,
            "새끼": 6685,
            "시끄": 6686,
            "안했": 6687,
            "안됨": 6688,
            "하니까": 6689,
            "할까": 6690,
            "##는것도": 6691,
            "##니ㅋㅋㅋ": 6692,
            "##이트": 6693,
            "##야하는데": 6694,
            "##말이야": 6695,
            "##시켜": 6696,
            "##쳐서": 6697,
            "무슨일": 6698,
            "##버렸어": 6699,
            "방법": 6700,
            "봤는데": 6701,
            "왜저": 6702,
            "임티": 6703,
            "자랑": 6704,
            "전공": 6705,
            "코딩": 6706,
            "##보내": 6707,
            "##같은데": 6708,
            "##습니까": 6709,
            "##분이": 6710,
            "##토리": 6711,
            "##하지마": 6712,
            "사람들": 6713,
            "##ㅜㅜㅜ": 6714,
            "거기서": 6715,
            "배고파": 6716,
            "이유가": 6717,
            "30": 6718,
            "ㄴㄴ": 6719,
            "나온": 6720,
            "디스": 6721,
            "라고": 6722,
            "뭐시": 6723,
            "뭐인지": 6724,
            "신박": 6725,
            "어ㅐ": 6726,
            "위에": 6727,
            "저는": 6728,
            "하는게": 6729,
            "##ac": 6730,
            "##ip": 6731,
            "##없이": 6732,
            "##식으로": 6733,
            "##땜에": 6734,
            "운동하고": 6735,
            "요즘은": 6736,
            "이번에": 6737,
            "왜그래ㅋㅋㅋ": 6738,
            "개인": 6739,
            "그저": 6740,
            "맞지": 6741,
            "먹으면": 6742,
            "사용": 6743,
            "서버": 6744,
            "시내": 6745,
            "안할": 6746,
            "주말": 6747,
            "중국": 6748,
            "하네": 6749,
            "하라": 6750,
            "했다": 6751,
            "##구요": 6752,
            "##있지": 6753,
            "##래스": 6754,
            "##버릴": 6755,
            "##이여": 6756,
            "##라면": 6757,
            "##re": 6758,
            "##공부": 6759,
            "학교에": 6760,
            "ㅋㅋㄱㅋㄱ": 6761,
            "1도": 6762,
            "2장": 6763,
            "txt": 6764,
            "ㅋㄱㅋㄱㅋ": 6765,
            "가끔": 6766,
            "다니": 6767,
            "몇개": 6768,
            "부모": 6769,
            "사과": 6770,
            "신청": 6771,
            "인공": 6772,
            "학생": 6773,
            "##스러": 6774,
            "##하렴": 6775,
            "##있다": 6776,
            "##되면": 6777,
            "##을게": 6778,
            "##왔는데": 6779,
            "##받아": 6780,
            "우리반": 6781,
            "10시": 6782,
            "##요일에": 6783,
            "같은데": 6784,
            "검색": 6785,
            "글긴": 6786,
            "되면": 6787,
            "됩니다": 6788,
            "매일": 6789,
            "무려": 6790,
            "사랑": 6791,
            "요리": 6792,
            "##하긴": 6793,
            "##ㅑㅇ": 6794,
            "##지ㅋㅋㅋ": 6795,
            "##거리": 6796,
            "##버린": 6797,
            "##le": 6798,
            "##겠는데": 6799,
            "##겨서": 6800,
            "##초에": 6801,
            "생각보다": 6802,
            "좋아하는": 6803,
            "##것같아": 6804,
            "ㅋㄱㅋㄱㅋㅋ": 6805,
            "##ode": 6806,
            "13": 6807,
            "ㄴㅇ": 6808,
            "계란": 6809,
            "끝났": 6810,
            "나더": 6811,
            "넣어": 6812,
            "밥을": 6813,
            "보낸": 6814,
            "분명": 6815,
            "살려주": 6816,
            "아예": 6817,
            "업서": 6818,
            "없네": 6819,
            "옆에": 6820,
            "이젠": 6821,
            "저건": 6822,
            "탈주": 6823,
            "할수있": 6824,
            "환장": 6825,
            "##스팅": 6826,
            "##는디": 6827,
            "##우우": 6828,
            "##먹었": 6829,
            "##주고": 6830,
            "##르면": 6831,
            "##ㅅㅂ": 6832,
            "친구랑": 6833,
            "진정하세요": 6834,
            "저녁에": 6835,
            "아닐까": 6836,
            "40분": 6837,
            "달라": 6838,
            "뒤지": 6839,
            "안쓰": 6840,
            "인터": 6841,
            "저도": 6842,
            "페북": 6843,
            "##스터": 6844,
            "##나나": 6845,
            "##으려고": 6846,
            "##드로": 6847,
            "미친거": 6848,
            "하지마": 6849,
            "이상해": 6850,
            "끝내고": 6851,
            "중간에": 6852,
            "지하철": 6853,
            "ㄱㅊ": 6854,
            "그림": 6855,
            "난리": 6856,
            "맞춰": 6857,
            "수가": 6858,
            "웬만": 6859,
            "있는거": 6860,
            "죽여": 6861,
            "직접": 6862,
            "크림": 6863,
            "했지": 6864,
            "##하라": 6865,
            "##이상": 6866,
            "##것만": 6867,
            "##야징": 6868,
            "##적이": 6869,
            "##장히": 6870,
            "화장실": 6871,
            "개꿀잼": 6872,
            "2시": 6873,
            "더워": 6874,
            "많은": 6875,
            "목소리": 6876,
            "보자": 6877,
            "시원": 6878,
            "신기": 6879,
            "쓰고": 6880,
            "안오": 6881,
            "없으면": 6882,
            "오면": 6883,
            "오른": 6884,
            "인났": 6885,
            "자러": 6886,
            "자체": 6887,
            "자라": 6888,
            "자연": 6889,
            "자야겠다": 6890,
            "잘거야": 6891,
            "##나는": 6892,
            "##해라": 6893,
            "##우고": 6894,
            "##야하나": 6895,
            "##려줘": 6896,
            "##게임": 6897,
            "##알아": 6898,
            "일어났": 6899,
            "개웃겨ㅋㅋㅋ": 6900,
            "다르": 6901,
            "되는데": 6902,
            "링크": 6903,
            "수고": 6904,
            "안봐": 6905,
            "안와": 6906,
            "알아서": 6907,
            "위험": 6908,
            "자면": 6909,
            "장고": 6910,
            "##인듯": 6911,
            "##기를": 6912,
            "##나게": 6913,
            "##어ㅏ": 6914,
            "##거면": 6915,
            "##이징": 6916,
            "##보니까": 6917,
            "##라마": 6918,
            "##알았": 6919,
            "##호호": 6920,
            "##불러": 6921,
            "##셔서": 6922,
            "##고있는데": 6923,
            "왜이래ㅋㅋㅋ": 6924,
            "어쩔수": 6925,
            "도와": 6926,
            "모델": 6927,
            "점점": 6928,
            "하체": 6929,
            "##한건": 6930,
            "##하는거야": 6931,
            "##는겨": 6932,
            "##니가": 6933,
            "##을텐데": 6934,
            "##라구": 6935,
            "##드림": 6936,
            "##프로": 6937,
            "우리집": 6938,
            "생각이": 6939,
            "물어봐": 6940,
            "미치겠다": 6941,
            "##ing": 6942,
            "1시간": 6943,
            "2주": 6944,
            "6시": 6945,
            "구래": 6946,
            "기업": 6947,
            "기본": 6948,
            "눈이": 6949,
            "동아리": 6950,
            "되는거": 6951,
            "뒤에": 6952,
            "보이": 6953,
            "안녕": 6954,
            "조심": 6955,
            "##대체": 6956,
            "##하러": 6957,
            "##하라고": 6958,
            "##나오": 6959,
            "##가락": 6960,
            "##라리": 6961,
            "##시키": 6962,
            "##ss": 6963,
            "##갔어": 6964,
            "고생한다": 6965,
            "ㅠㅠㅠ": 6966,
            "가고": 6967,
            "가족": 6968,
            "계정": 6969,
            "굉장히": 6970,
            "너랑": 6971,
            "놋북": 6972,
            "사고": 6973,
            "새벽": 6974,
            "생기": 6975,
            "알지": 6976,
            "애초에": 6977,
            "오타": 6978,
            "자바": 6979,
            "자격": 6980,
            "죽으면": 6981,
            "죽지마": 6982,
            "찍어": 6983,
            "클래스": 6984,
            "평소": 6985,
            "하늘": 6986,
            "##인이": 6987,
            "##리스": 6988,
            "##줄까": 6989,
            "##주면": 6990,
            "##그로": 6991,
            "아무리": 6992,
            "##겠지만": 6993,
            "누나도": 6994,
            "##하하하": 6995,
            "부럽다": 6996,
            "조용히": 6997,
            "ㅈ나": 6998,
            "나아": 6999,
            "노드": 7000,
            "말도": 7001,
            "빡치": 7002,
            "선택": 7003,
            "아아": 7004,
            "있었는데": 7005,
            "자렴": 7006,
            "좋은데": 7007,
            "##다니까": 7008,
            "##기고": 7009,
            "##ㅎㅋㅋ": 7010,
            "##거얌": 7011,
            "##야함": 7012,
            "##야되는데": 7013,
            "##라니": 7014,
            "지금도": 7015,
            "아무말": 7016,
            "##사람이": 7017,
            "아닌가": 7018,
            "기다리": 7019,
            "누군": 7020,
            "도대체": 7021,
            "마크": 7022,
            "보기": 7023,
            "신경": 7024,
            "안남": 7025,
            "앞으로": 7026,
            "즐겨": 7027,
            "체육": 7028,
            "하연": 7029,
            "한다고": 7030,
            "힘든": 7031,
            "##라나": 7032,
            "##올게": 7033,
            "그래야지": 7034,
            "##고싶음": 7035,
            "누나가": 7036,
            "같아": 7037,
            "굳이": 7038,
            "김치": 7039,
            "나가서": 7040,
            "날씨": 7041,
            "드라마": 7042,
            "로그": 7043,
            "말하는": 7044,
            "반응": 7045,
            "##었네": 7046,
            "##나고": 7047,
            "##에선": 7048,
            "##그랬": 7049,
            "##장이": 7050,
            "##준비": 7051,
            "ㅋㅋㅋㅁㅊ": 7052,
            "##에서도": 7053,
            "우리도": 7054,
            "집가고싶다": 7055,
            "2개": 7056,
            "st": 7057,
            "다들": 7058,
            "반에": 7059,
            "부족": 7060,
            "상태": 7061,
            "자취": 7062,
            "택배": 7063,
            "##애ㅐ": 7064,
            "##해지": 7065,
            "##였는데": 7066,
            "##되나": 7067,
            "##야ㅑ": 7068,
            "##보니": 7069,
            "##보자": 7070,
            "ㅋㅋㅋ미": 7071,
            "왜이래": 7072,
            "먹어야지": 7073,
            "ㅋㅅㅋㅅㅋ": 7074,
            "3개": 7075,
            "8시": 7076,
            "9시": 7077,
            "가기": 7078,
            "간단": 7079,
            "납치": 7080,
            "대화": 7081,
            "따로": 7082,
            "실행": 7083,
            "실시간": 7084,
            "애니": 7085,
            "에이": 7086,
            "입고": 7087,
            "있나": 7088,
            "작년": 7089,
            "졸업": 7090,
            "포폴": 7091,
            "##ㅇㄱ": 7092,
            "##는뎅": 7093,
            "##버리고": 7094,
            "##이긴": 7095,
            "##oo": 7096,
            "##잖니": 7097,
            "##없는": 7098,
            "##ㅁㄴ": 7099,
            "##따라": 7100,
            "##en": 7101,
            "##세트": 7102,
[...]
