[PAD]
[UNK]
[CLS]
[SEP]
[MASK]
[SEPT]
[NAME]
[BOS]
[EOS]
[UNK0]
[UNK1]
[UNK2]
[UNK3]
[UNK4]
[UNK5]
[UNK6]
[UNK7]
[UNK8]
[UNK9]
[unused0]
[unused1]
[unused2]
[unused3]
[unused4]
[unused5]
[unused6]
[unused7]
[unused8]
[unused9]
[unused10]
[unused11]
[unused12]
[unused13]
[unused14]
[unused15]
[unused16]
[unused17]
[unused18]
[unused19]
[unused20]
[unused21]
[unused22]
[unused23]
[unused24]
[unused25]
[unused26]
[unused27]
[unused28]
[unused29]
[unused30]
[unused31]
[unused32]
[unused33]
[unused34]
[unused35]
[unused36]
[unused37]
[unused38]
[unused39]
[unused40]
[unused41]
[unused42]
[unused43]
[unused44]
[unused45]
[unused46]
[unused47]
[unused48]
[unused49]
[unused50]
[unused51]
[unused52]
[unused53]
[unused54]
[unused55]
[unused56]
[unused57]
[unused58]
[unused59]
[unused60]
[unused61]
[unused62]
[unused63]
[unused64]
[unused65]
[unused66]
[unused67]
[unused68]
[unused69]
[unused70]
[unused71]
[unused72]
[unused73]
[unused74]
[unused75]
[unused76]
[unused77]
[unused78]
[unused79]
[unused80]
[unused81]
[unused82]
[unused83]
[unused84]
[unused85]
[unused86]
[unused87]
[unused88]
[unused89]
[unused90]
[unused91]
[unused92]
[unused93]
[unused94]
[unused95]
[unused96]
[unused97]
[unused98]
[unused99]
!
%
,
-
.
0
1
2
3
4
5
6
7
8
9
?
[
]
^
_
a
b
c
d
e
f
g
h
i
j
k
l
m
n
o
p
q
r
s
t
u
v
w
x
y
z
~
ㄱ
ㄲ
ㄳ
ㄴ
ㄵ
ㄶ
ㄷ
ㄸ
ㄹ
ㄺ
ㄻ
ㄼ
ㄽ
ㄾ
ㄿ
ㅀ
ㅁ
ㅂ
ㅃ
ㅄ
ㅅ
ㅆ
ㅇ
ㅈ
ㅉ
ㅊ
ㅋ
ㅌ
ㅍ
ㅎ
ㅏ
ㅐ
ㅑ
ㅒ
ㅓ
ㅔ
ㅕ
ㅖ
ㅗ
ㅘ
ㅙ
ㅚ
ㅛ
ㅜ
ㅝ
ㅞ
ㅟ
ㅠ
ㅡ
ㅢ
ㅣ
가
각
갂
간
갅
갇
갈
갉
감
갑
값
갓
갔
강
갖
갗
갘
같
갚
갛
개
객
갠
갤
갥
갬
갭
갮
갯
갰
갱
갵
갷
갸
갹
갼
갿
걀
걌
걍
걔
걘
걜
걨
거
걱
걳
건
걵
걷
걸
걹
검
겁
것
겄
겅
겆
겇
겈
겉
겊
겋
게
겍
겎
겐
겓
겔
겜
겟
겠
겡
겢
겤
겧
겨
격
겪
견
겯
결
겸
겹
겻
겼
경
겾
겿
곁
곃
계
곈
곕
곗
곘
고
곡
곤
곦
곧
골
곰
곱
곳
공
곶
곷
곸
곺
곻
과
곽
관
괄
광
괘
괜
괨
괴
괵
괼
굄
굇
굉
굊
교
굑
굔
굘
굠
굤
굥
굨
구
국
굮
군
굳
굴
굵
굶
굼
굽
굿
궁
궂
궈
권
궐
궜
궝
궞
궤
궷
궸
귀
귄
귈
귓
귕
귗
규
균
귤
귬
귱
그
극
귺
근
귿
글
긁
긇
금
급
긋
긌
긍
긏
긑
긒
긓
긔
긘
긝
기
긱
긴
길
긿
김
깁
깃
깄
깅
깇
깈
깉
깊
깋
까
깍
깎
깐
깔
깜
깝
깟
깠
깡
깢
깥
깧
깨
깩
깬
깰
깸
깻
깼
깽
꺄
꺅
꺈
꺌
꺍
꺔
꺘
꺙
꺟
꺠
꺳
꺴
꺼
꺽
꺾
껀
껄
껌
껍
껏
껐
껑
께
껨
껫
껭
껴
꼇
꼈
꼐
꼥
꼬
꼭
꼮
꼰
꼴
꼼
꼽
꽁
꽂
꽃
꽈
꽉
꽊
꽓
꽝
꽤
꽥
꽹
꾸
꾹
꾺
꾼
꿀
꿇
꿈
꿉
꿍
꿑
꿔
꿧
꿨
뀌
뀐
뀔
뀜
뀡
뀨
뀰
뀽
끄
끅
끆
끈
끊
끌
끓
끔
끕
끗
끛
끜
끝
끠
끵
끼
끽
낀
낄
낌
낑
낗
나
낙
낚
난
낞
낟
날
낡
남
납
낫
났
낭
낮
낯
낰
낱
낲
낳
내
낵
낸
낼
냄
냅
냇
냈
냉
냊
냎
냏
냐
냑
냔
냘
냠
냡
냣
냤
냥
냦
냨
냪
냫
냬
너
넉
넋
넌
넏
널
넒
넓
넘
넙
넚
넛
넜
넝
넞
넟
넡
넢
넣
네
넥
넨
넫
넬
넴
넵
넷
넹
넺
넼
넿
녀
녁
년
녅
념
녓
녔
녕
녖
녘
녛
녜
녬
녱
노
녹
논
놀
놁
놈
놉
놋
농
놏
놐
놑
높
놓
놔
놘
놜
놤
놧
놨
놰
뇌
뇨
뇬
뇸
뇹
뇼
뇽
누
눅
눈
눋
눌
눔
눕
눙
눚
눜
눞
눟
눠
눤
눨
눴
눼
뉇
뉑
뉘
뉜
뉨
뉭
뉴
뉵
뉸
뉻
뉼
늄
늉
늊
늌
느
늑
늒
는
늕
늗
늘
늙
늚
늠
능
늦
늨
늪
늫
늬
늰
늴
늶
늼
닁
니
닉
닊
닌
닏
닐
님
닙
닛
닜
닝
닞
닠
닡
닢
닣
다
닥
닦
단
닪
닫
달
닭
닮
닳
담
답
닷
닸
당
닻
닼
닽
닾
닿
대
댁
댂
댄
댇
댈
댐
댑
댓
댔
댕
댛
댜
댝
댣
댤
댬
댯
댱
댲
댸
더
덕
던
덙
덛
덜
덟
덢
덤
덥
덧
덩
덭
덮
덯
데
덱
덴
덷
델
뎀
뎁
뎃
뎄
뎅
뎉
뎋
뎌
뎠
뎡
뎦
뎨
뎸
도
독
돈
돋
돌
돔
돕
돗
동
돟
돠
돨
돰
돵
돼
됀
됃
됌
됐
됑
됔
되
됛
된
될
됨
됩
됫
됬
됭
됮
됰
됳
됴
둉
두
둑
둔
둗
둘
둠
둡
둣
둥
둦
둪
둫
둬
둴
둿
뒀
뒁
뒈
뒓
뒙
뒤
뒨
뒷
뒹
듀
듁
듄
듈
듕
드
득
든
듢
듣
들
듦
듫
듬
듭
듯
등
듶
듷
듸
딈
디
딕
딖
딘
딛
딜
딤
딥
딧
딨
딩
딪
딬
딮
딯
따
딱
딲
딴
딸
땀
땁
땃
땄
땅
땋
때
땐
땔
땜
땟
땠
땡
땨
땬
떄
떈
떔
떘
떙
떠
떡
떢
떤
떨
떫
떰
떱
떳
떴
떵
떻
떼
뗀
뗄
뗏
뗐
뗘
또
똑
똒
똔
똘
똥
똪
똫
똬
똭
뙇
뙈
뚐
뚕
뚜
뚝
뚞
뚠
뚣
뚤
뚫
뚬
뚭
뚯
뚱
뚸
뛔
뛟
뛰
뛴
뛸
뜀
뜨
뜩
뜬
뜯
뜰
뜸
뜻
뜽
띃
띄
띠
띡
띤
띨
띵
라
락
띾
란
랂
랃
랄
랅
랉
람
랍
랏
랐
랑
랔
랕
랖
랗
래
랙
랜
랠
램
랩
랫
랬
랭
랮
랰
랱
랳
랴
략
랸
랻
랼
럄
럅
럇
럈
량
럊
럎
럐
럣
러
럭
럯
런
럳
럴
럵
럻
럼
럽
럾
럿
렀
렁
렂
렄
렆
렇
레
렉
렌
렏
렐
렑
렓
렘
렙
렛
렜
렝
렠
렣
려
력
렦
련
렫
렬
렴
렵
렷
렸
령
렺
렼
렾
렿
례
롄
로
록
론
롣
롤
롥
롬
롭
롯
롱
롲
롷
롸
롹
롼
뢀
뢔
뢰
뢴
료
룐
룔
룜
룝
룠
룡
루
룩
룫
룬
룯
룰
룸
룹
룻
룽
룾
뤃
뤄
뤈
뤕
뤘
뤙
뤠
뤫
뤱
뤵
뤼
륀
륌
륏
륑
류
륙
륜
륟
률
륨
륭
르
륵
른
륹
륻
를
륽
름
릅
릇
릉
릍
릎
릏
릐
릠
리
릭
릯
린
릳
릴
림
립
릿
맀
링
맂
맇
마
막
만
많
맏
말
맑
맘
맙
맛
맜
망
맞
맟
맠
맡
맢
맣
매
맥
맨
맫
맬
맴
맵
맷
맸
맹
맺
맿
먀
먄
먆
먐
먕
먗
머
먹
먼
먾
먿
멀
멂
멇
멈
멉
멋
멍
멎
멏
멒
멓
메
멕
멘
멜
멤
멧
멩
며
멱
면
멸
몀
명
몇
몌
모
목
몫
몬
몯
몰
몸
몹
못
몼
몽
뫀
뫃
뫄
묘
묜
묠
묨
묭
묯
무
묵
묶
문
묹
묻
물
묽
뭄
뭇
뭉
뭊
뭋
뭍
뭎
뭏
뭐
뭔
뭘
뭡
뭣
뭥
뭦
뭬
뮁
뮤
뮨
뮫
뮬
뮷
뮹
뮽
뮾
므
믁
믄
믇
믈
믐
믓
믕
믛
믜
믤
미
믹
민
믾
믿
밀
밈
밉
밋
밌
밍
밎
및
밑
밒
밓
바
박
밖
반
밙
받
발
밝
밞
밟
밠
밤
밥
밧
밨
방
밬
밭
밯
배
백
밴
밸
뱀
뱁
뱃
뱅
뱆
뱉
뱌
뱍
뱔
뱧
버
벅
번
벋
벌
벏
범
법
벗
벙
벚
벟
베
벡
벤
벨
벫
벱
벳
벵
벼
벽
변
별
볍
볐
병
볕
보
복
볶
본
볼
볽
봄
봅
봇
봉
봏
봐
봘
봙
봣
봤
봥
봬
뵀
뵈
뵌
뵐
뵘
뵙
뵜
뵤
뵷
부
북
분
붇
불
붉
붋
붐
붑
붓
붕
붖
붗
붘
붙
붛
붜
붤
붸
뷉
뷔
뷰
뷱
뷴
뷸
븃
븅
븋
브
븍
븐
블
븗
븘
븜
븡
븰
븱
븸
비
빅
빆
빈
빋
빌
빔
빕
빗
빙
빚
빛
빠
빡
빢
빤
빧
빨
빰
빱
빳
빴
빵
빻
빼
빽
뺀
뺄
뺌
뺏
뺐
뺑
뺘
뺠
뺨
뺴
뺸
뻄
뻇
뻐
뻑
뻔
뻗
뻘
뻠
뻡
뻣
뻤
뻥
뻨
뻬
뼈
뼛
뼜
뼝
뽀
뽄
뽈
뽐
뽑
뽕
뽜
뽝
뽷
뾰
뿅
뿌
뿐
뿔
뿜
뿡
뿨
뿽
쀠
쀼
쁀
쁘
쁜
쁠
쁨
쁩
삉
삐
삑
삔
삘
삥
사
삭
산
살
삵
삶
삼
삽
삿
샀
상
샂
샃
샅
샆
샇
새
색
샊
샌
샐
샘
샛
샜
생
샢
샣
샤
샥
샨
샬
샴
샵
샷
샸
샹
섑
섕
서
석
섞
선
섣
설
섥
섬
섭
섯
성
섲
섴
섵
세
섹
센
셀
셈
셉
셋
셌
셍
셔
션
셜
셤
셧
셨
셩
셬
셭
셰
소
속
손
솓
솔
솜
솝
솟
송
솣
솥
솦
솨
솩
쇄
쇠
쇳
쇼
쇽
숀
숄
숍
숏
숑
숔
수
숙
순
숟
술
숨
숩
숫
숭
숮
숯
숱
숲
숳
숴
숵
숼
쉉
쉐
쉑
쉘
쉣
쉥
쉨
쉩
쉬
쉭
쉰
쉴
쉼
쉽
쉿
슁
슂
슈
슉
슌
슐
슘
슙
슝
슢
스
슥
슧
슨
슬
슴
습
슷
승
슺
슼
슽
슿
싀
싁
싄
싈
싐
싑
싕
싙
싚
시
식
신
싡
싣
실
싥
싪
싫
심
십
싮
싯
싰
싱
싲
싳
싴
싵
싶
싷
싸
싹
싺
싼
싿
쌀
쌈
쌉
쌋
쌌
쌍
쌓
쌔
쌤
쌩
쌰
썅
썌
썜
써
썩
썪
썬
썯
썰
썸
썹
썻
썼
썽
썾
쎄
쎈
쎌
쎔
쎙
쎵
쎼
쏀
쏘
쏙
쏟
쏠
쏨
쏩
쏭
쏴
쐬
쐴
쑈
쑐
쑤
쑥
쑦
쑬
쑴
쒀
쒄
쒈
쒕
쒠
쒬
쒯
쒸
쓔
쓰
쓱
쓲
쓴
쓸
씀
씁
씄
씅
씌
씐
씨
씩
씪
씬
씹
씻
씼
씽
씾
앀
아
악
앆
안
앉
않
앋
알
앍
앎
앓
암
압
앖
앗
았
앙
앚
앛
앜
앝
앞
앟
애
액
앤
앧
앨
앪
앰
앱
앳
앴
앵
앶
앷
앹
앺
앻
야
약
앿
얀
얂
얃
얄
얅
얇
얌
얍
얏
얐
양
얒
얔
얕
얖
얗
얘
얜
어
억
얶
언
얹
얻
얼
얽
얾
엄
업
없
엇
었
엉
엊
엋
엌
엍
엎
엏
에
엑
엔
엗
엘
엙
엠
엡
엣
엤
엥
엨
엩
엪
엫
여
역
엮
연
엱
엲
엳
열
엶
염
엽
엿
였
영
옂
옃
옄
옆
옇
예
옌
옘
옙
옛
옝
오
옥
온
옫
올
옭
옮
옳
옴
옵
옶
옷
옸
옹
옺
옼
옾
옿
와
왁
왂
완
왈
왉
왐
왑
왓
왔
왕
왘
왛
왜
왠
왤
왯
왱
왴
왷
외
왼
욀
욌
욎
욐
요
욕
욘
욜
욤
욥
욧
욨
용
욪
욬
욮
욯
우
욱
욲
욳
운
욷
울
욹
욺
욾
움
웁
웂
웃
웄
웅
웆
웇
웈
웉
웊
웋
워
웎
원
웒
월
웕
웜
웞
웠
웡
웢
웤
웥
웧
웨
웩
웬
웰
웱
웹
웽
윀
위
윅
윈
윌
윔
윕
윗
윙
윜
유
육
윤
율
윰
윳
융
윷
으
윽
윾
은
읂
읃
을
읅
읆
읈
읋
음
읍
읎
읏
읐
응
읒
읓
읔
읕
읗
의
읜
읫
읭
읰
읳
이
익
읶
인
읻
일
읽
읾
잃
임
입
잇
있
잉
잊
잌
잍
잎
잏
자
작
잒
잔
잖
잗
잘
잚
잠
잡
잣
잤
장
잦
잧
잨
잫
재
잭
잰
잴
잼
잽
잿
쟀
쟁
쟂
쟈
쟉
쟌
쟏
쟐
쟘
쟜
쟞
쟡
쟤
쟨
저
적
전
젆
젇
절
젊
젏
점
접
젓
젔
정
젖
젙
젛
제
젝
젠
젣
젤
젨
젬
젭
젯
젱
젶
져
젹
젼
젿
졀
졈
졋
졌
졍
졎
졒
졓
졔
졘
조
족
존
졷
졸
좀
좁
좃
종
좆
좉
좊
좋
좌
좍
좔
죄
죔
죠
죡
죤
죨
죰
죴
죵
주
죽
준
줃
줄
줅
줉
줌
줍
줏
줐
중
줒
줔
줖
줗
줘
줙
줚
줜
줬
줭
줲
줴
줼
쥄
쥐
쥑
쥔
쥠
쥥
쥦
쥬
쥭
쥰
쥴
쥼
쥽
쥿
즁
즇
즈
즉
즌
즐
즑
즘
즙
즛
증
즣
즨
즹
지
직
진
짆
짇
질
짉
짊
짌
짏
짐
집
짓
짔
징
짖
짗
짘
짙
짚
짛
짜
짝
짠
짢
짤
짧
짬
짭
짯
짰
짱
짲
째
짹
짼
쨈
쨋
쨌
쨍
쨔
쨕
쨖
쨜
쨩
쨰
쩄
쩊
쩌
쩍
쩐
쩔
쩜
쩡
쩨
쩰
쪄
쪔
쪗
쪘
쪙
쪼
쪽
쫀
쫃
쫄
쫌
쫏
쫑
쫒
쫓
쫘
쫙
쫨
쬐
쬬
쬼
쭈
쭉
쭘
쭤
쭬
쮜
쮸
쯈
쯉
쯔
쯜
쯤
쯩
쯰
찌
찍
찎
찐
찓
찔
찜
찝
찟
찡
찢
차
착
찬
찮
찯
찰
찱
참
찹
찻
찼
창
찾
찿
챃
채
책
챈
챌
챕
챗
챘
챙
챠
챡
챤
챱
챴
챵
챷
처
척
천
첝
첞
철
첢
첨
첩
첫
첬
청
첯
체
첵
첸
쳇
쳐
쳒
쳘
쳠
쳣
쳤
쳥
쳨
초
촉
촌
촐
촛
총
촠
촤
촥
촨
촬
촵
최
쵝
쵸
쵹
춉
춋
춌
추
축
춘
출
춤
춥
춧
충
춰
춱
췃
췄
췌
췤
취
췸
췹
츄
츅
츕
츠
측
츤
츦
츨
층
츷
츼
칍
치
칙
칛
친
칠
침
칩
칫
칭
칮
칯
칰
칱
카
칵
칸
칼
캄
캅
캉
캌
캍
캐
캔
캗
캠
캡
캣
캤
캥
캬
컀
컄
커
컨
컫
컬
컴
컵
컷
컸
컹
컼
케
켁
켄
켈
켓
켕
켘
켜
켠
켤
켬
켭
켯
켰
코
콕
콘
콜
콤
콧
콩
콬
콰
콱
콸
쾅
쾌
쿄
쿗
쿜
쿠
쿡
쿤
쿨
쿰
쿵
쿸
쿼
퀀
퀄
퀘
퀴
퀸
큐
큘
큥
큨
큩
크
큰
클
큼
큽
킁
킂
킄
킅
킇
킈
킠
키
킥
킨
킬
킴
킵
킷
킹
킼
타
탁
탄
탆
탈
탉
탍
탐
탑
탓
탔
탕
탗
탘
탙
탛
태
택
탠
탤
탬
탭
탯
탱
탸
턍
터
턱
턴
턷
털
텀
텂
텃
텄
텅
테
텍
텐
텔
템
텝
텥
텨
텻
텼
토
톡
톤
톨
톰
톱
통
톷
톹
톼
퇴
툐
툤
투
툭
툰
툴
툼
툽
퉁
퉅
퉆
퉈
퉛
퉤
퉵
퉷
튀
튄
튈
튐
튕
튜
튠
튤
튭
트
특
튼
틀
틈
틍
틐
틑
틓
틔
티
틱
틴
틸
팀
팁
팄
팅
파
팍
판
팓
팔
팜
팝
팟
팠
팡
팢
팤
팥
팦
팧
패
팩
팬
팰
팸
팹
팽
퍃
퍄
퍈
퍌
퍙
퍚
퍠
퍼
퍽
펀
펃
펄
펌
펏
펐
펑
펗
페
펙
펜
펠
펫
펭
펴
편
펼
폄
폈
평
폐
포
폭
폰
폴
폼
퐁
퐃
퐈
퐉
퐤
표
푝
푠
푤
푱
푶
푸
푹
푼
풀
품
풉
풋
풍
풒
풓
풔
풩
퓌
퓔
퓨
퓬
퓯
퓰
퓽
픂
픃
프
픅
픈
플
픔
픕
픗
픙
픞
픠
픨
픵
피
픽
핀
필
핋
핌
핍
핏
핑
핖
핗
하
학
핚
한
핟
할
핡
핢
핥
함
합
핫
핬
항
핮
핱
핳
해
핵
핶
핸
핻
핼
햃
햄
햅
햇
했
행
햋
햌
햎
햏
햐
햔
햘
햣
햤
향
햫
햿
헀
허
헉
헌
헐
헑
헗
험
헙
헛
헜
헝
헠
헣
헤
헥
헨
헬
헷
헸
헹
헽
헿
혀
혁
현
혆
혈
혐
협
혓
혔
형
혜
호
혹
혼
혿
홀
홈
홉
홋
홍
홓
화
확
홗
환
활
홤
홧
황
홰
횃
회
획
횟
횡
효
횻
횽
훃
후
훅
훈
훋
훌
훑
훔
훗
훙
훟
훠
훤
훨
훼
휄
휏
휑
휘
휠
휩
휳
휴
흉
흏
흐
흑
흒
흓
흔
흗
흘
흙
흟
흠
흡
흥
흩
흫
희
흭
흰
흼
힁
힇
히
힉
힌
힏
힐
힘
힙
힛
힝
힣
##증
##이
##8
##0
##명
##도
##롤
##로
##있
##기
##항
##을
##회
##개
##사
##면
##각
##해
##ㅂ
##는
##다
##고
##니
##시
##예
##안
##가
##겠
##아
##왔
##데
##러
##서
##브
##정
##잘
##같
##나
##오
##근
##의
##래
##요
##코
##무
##람
##은
##싶
##지
##만
##야
##랑
##건
##으
##꺼
##보
##진
##즈
##베
##리
##파
##소
##즁
##재
##들
##것
##네
##t
##를
##생
##했
##려
##쳐
##버
##혀
##여
##운
##거
##주
##심
##에
##어
##성
##물
##봤
##엉
##군
##뇨
##살
##ㅋ
##게
##ㅜ
##달
##화
##하
##실
##비
##인
##금
##상
##태
##한
##터
##앙
##ㄺ
##좋
##린
##타
##업
##구
##임
##월
##검
##틸
##수
##종
##적
##죠
##좀
##라
##까
##겨
##짐
##발
##표
##음
##디
##겼
##꾸
##열
##워
##죽
##함
##곤
##독
##ㅎ
##변
##꿀
##잼
##었
##단
##말
##싸
##깠
##ㄲ
##싺
##바
##류
##닌
##최
##난
##용
##갈
##때
##ㅛ
##내
##떻
##줘
##문
##자
##너
##점
##천
##히
##셔
##신
##ㅈ
##ㅇ
##ㅠ
##병
##새
##끼
##닥
##ㄴ
##잖
##스
##굼
##ㅓ
##루
##룩
##울
##칭
##록
##트
##붓
##효
##른
##받
##싫
##빡
##할
##갗
##애
##온
##샥
##갓
##속
##였
##교
##된
##치
##과
##제
##깝
##없
##렷
##악
##모
##뇌
##현
##런
##술
##크
##흐
##3
##색
##세
##접
##얍
##션
##일
##ㅣ
##징
##더
##ㅗ
##봐
##ㄶ
##흥
##힁
##힝
##읗
##합
##입
##학
##백
##질
##와
##란
##릭
##장
##ㄷ
##냅
##부
##국
##셨
##쩌
##영
##강
##능
##전
##반
##ㄱ
##메
##되
##절
##찍
##닝
##그
##ㅡ
##팅
##냐
##쪽
##j
##r
##a
##x
##u
##b
##e
##싱
##웆
##딩
##설
##공
##편
##식
##줄
##알
##릴
##마
##황
##듯
##ㅁ
##ㅊ
##았
##싯
##늬
##동
##권
##및
##찮
##웃
##깐
##챠
##작
##당
##쌤
##ㅏ
##듭
##년
##출
##ㄹ
##날
##킨
##집
##눈
##웠
##d
##o
##n
##g
##랏
##르
##륵
##ㅑ
##랬
##습
##우
##웅
##중
##던
##계
##져
##헤
##셋
##돔
##컷
##먹
##규
##양
##갰
##갔
##졌
##걸
##키
##뉘
##슨
##허
##뭄
##빵
##멍
##충
##처
##럼
##탑
##5
##c
##m
##ㅔ
##위
##ㅅ
##슴
##팍
##녀
##대
##뺴
##창
##체
##짜
##석
##럽
##죵
##녹
##감
##육
##빠
##숙
##결
##써
##분
##링
##클
##맛
##랴
##십
##쇼
##티
##박
##궐
##썬
##뽀
##느
##낌
##겟
##쓰
##긴
##배
##드
##번
##째
##혐
##센
##혁
##조
##따
##롱
##엇
##낭
##두
##억
##ㅌ
##ㅐ
##글
##씨
##맨
##춘
##준
##순
##넷
##선
##랐
##플
##핑
##1
##2
##깔
##약
##족
##묵
##피
##떘
##ㄼ
##험
##봇
##미
##떤
##불
##4
##초
##차
##남
##됐
##프
##콘
##k
##포
##섹
##늘
##텐
##직
##멀
##퍼
##답
##착
##딱
##범
##벅
##냥
##값
##뒤
##i
##y
##뉜
##픈
##맞
##많
##l
##욤
##짝
##돈
##잔
##밌
##격
##났
##롭
##잤
##뻐
##유
##켜
##렸
##쁘
##잡
##저
##껀
##급
##팡
##룽
##ㅍ
##잠
##법
##관
##램
##블
##씹
##밴
##씬
##쒀
##펙
##쩍
##큼
##올
##뉴
##좌
##취
##원
##닷
##객
##쌈
##쁜
##넘
##샐
##슷
##꽉
##깅
##별
##긁
##렁
##찾
##듷
##잇
##쩡
##방
##왓
##환
##놔
##넹
##청
##셈
##찬
##레
##않
##엔
##혈
##낸
##7
##쯤
##볼
##책
##벌
##경
##얼
##굴
##암
##겅
##혼
##행
##후
##s
##추
##본
##완
##길
##럴
##긑
##님
##놓
##츄
##쳤
##통
##h
##q
##뭐
##돼
##필
##간
##목
##엄
##덕
##노
##쉴
##담
##끈
##찌
##듕
##활
##듣
##곳
##룻
##륜
##돌
##ㅕ
##폴
##렇
##호
##줭
##튀
##낀
##깃
##ㅀ
##옥
##낼
##ㅒ
##매
##ㅆ
##립
##씩
##됨
##뤄
##겁
##싳
##랩
##떨
##죄
##민
##떄
##렴
##희
##짖
##땜
##력
##눔
##봣
##퀘
##움
##누
##쩔
##얄
##송
##젝
##턴
##뜨
##침
##뀐
##팠
##토
##랜
##칠
##끌
##짱
##깨
##찐
##걱
##판
##량
##숴
##름
##갸
##욱
##척
##랭
##커
##w
##6
##폐
##락
##북
##쉘
##껏
##테
##땨
##펴
##엘
##큐
##케
##닐
##쫀
##머
##샌
##겎
##료
##몸
##텀
##겻
##숫
##빔
##깡
##땅
##슈
##림
##욥
##긋
##밥
##봄
##께
##컨
##셉
##즌
##갑
##뻔
##될
##잉
##놀
##쫄
##향
##닙
##든
##외
##론
##융
##형
##뀌
##친
##핟
##딪
##망
##승
##틀
##겤
##헿
##렵
##꿈
##김
##욕
##옴
##련
##뿐
##졋
##쥬
##븗
##쟈
##앗
##멸
##못
##녓
##쨰
##챗
##딕
##렉
##벨
##썜
##골
##곡
##p
##씻
##믄
##끝
##맑
##왕
##늠
##뎅
##팩
##널
##졸
##녕
##햐
##쿄
##랔
##봉
##측
##택
##떠
##겜
##덜
##솟
##슬
##줌
##엏
##놨
##헉
##ㅝ
##쿼
##언
##퀴
##팔
##홍
##릎
##왜
##며
##싷
##밤
##밖
##쿠
##응
##쉬
##튭
##탐
##딨
##냈
##룸
##칸
##채
##됫
##랄
##등
##껴
##맹
##맣
##끄
##잎
##념
##펐
##례
##겹
##쾌
##톡
##벽
##막
##뭉
##톱
##역
##얌
##춰
##손
##탈
##떴
##뿌
##복
##캔
##엩
##z
##빙
##뺠
##흑
##훟
##헣
##먄
##꼬
##윽
##뎀
##풀
##칙
##쒕
##붕
##펜
##듢
##탆
##귀
##줬
##땐
##염
##헜
##칼
##협
##젼
##궁
##덩
##휘
##궈
##탄
##팀
##f
##닮
##앞
##므
##떼
##몰
##녁
##긔
##즘
##켓
##축
##푸
##눠
##놈
##렌
##겡
##탱
##탕
##툰
##쌔
##넣
##닉
##묭
##엿
##쎄
##룰
##폭
##붙
##퓨
##괴
##렀
##맥
##ㅉ
##싀
##압
##카
##텔
##뜻
##엽
##썽
##뉭
##뷰
##벼
##릏
##핮
##댔
##눌
##섯
##펑
##읔
##썼
##쁠
##잌
##듀
##콰
##캉
##높
##둬
##또
##맙
##닽
##귈
##얻
##둥
##얐
##셀
##연
##됬
##묻
##껐
##템
##옶
##떡
##랙
##빈
##폰
##득
##츠
##논
##즹
##씾
##뭔
##쓔
##총
##셍
##앱
##낡
##9
##듶
##럭
##곃
##령
##존
##읐
##쉑
##힐
##빼
##앝
##댜
##쓸
##평
##꺔
##춋
##덮
##읶
##댕
##솥
##왘
##몇
##롥
##률
##헹
##솦
##웨
##윤
##힘
##챙
##페
##짤
##볶
##꿨
##킥
##럈
##샘
##좔
##뚫
##띃
##멘
##뮬
##킹
##젔
##첨
##췃
##ㄳ
##둔
##햇
##뒹
##패
##걷
##품
##컼
##귄
##혜
##섭
##층
##먀
##략
##밑
##낳
##딜
##랍
##갯
##깉
##앟
##옭
##쇄
##곰
##딴
##갱
##댱
##견
##렾
##탸
##옹
##묘
##븸
##륌
##괜
##랫
##돋
##덥
##쌀
##빨
##춤
##웡
##춥
##휴
##똑
##밍
##렐
##벙
##귤
##킴
##뚜
##엠
##ㅙ
##랂
##앜
##찡
##댄
##끗
##긱
##뎄
##맘
##투
##젤
##릉
##엊
##뒈
##홓
##륹
##훠
##븐
##짬
##잏
##픔
##쟁
##먼
##륽
##옷
##셰
##균
##쓴
##퉈
##뤼
##밀
##봅
##둘
##웊
##푼
##몬
##쉐
##욜
##혹
##덯
##넵
##산
##벤
##눙
##늦
##챈
##띾
##힌
##듬
##퇴
##첵
##웎
##닁
##극
##뎌
##쑴
##맡
##ㅢ
##썰
##깈
##깄
##뾰
##톨
##ㅄ
##쏘
##짧
##쥐
##ㅘ
##똥
##넝
##엎
##끊
##읍
##뛰
##줍
##렙
##쭤
##탁
##찰
##깇
##농
##좃
##뜬
##튜
##앵
##릿
##냄
##덤
##맂
##톤
##쨍
##튼
##폼
##헸
##롬
##쭈
##촌
##깋
##눕
##납
##퍄
##짓
##큰
##샤
##끔
##꽈
##꼴
##븍
##컬
##뻤
##찝
##멒
##럿
##쨜
##뜰
##졍
##쌓
##힣
##갘
##확
##벗
##멜
##헌
##ㄻ
##곧
##릅
##쉽
##뚝
##익
##액
##둑
##ㅖ
##털
##꽃
##뎃
##룜
##꾼
##렛
##옛
##꺽
##밬
##얘
##틈
##껄
##슺
##얗
##읽
##냇
##솓
##녔
##냊
##꿔
##롷
##냉
##쪄
##슉
##띠
##킬
##쨩
##ㄸ
##샀
##뺐
##픽
##웹
##쯜
##찢
##뛸
##뉸
##엥
##옸
##켰
##냪
##랗
##풩
##묜
##릠
##맇
##씀
##삼
##핳
##뒀
##샇
##늊
##뼈
##눼
##풍
##쌍
##쾅
##참
##멋
##왼
##돠
##흡
##뷴
##룬
##풔
##탙
##틴
##썌
##찼
##밙
##웩
##광
##뜸
##굤
##뿔
##겊
##깎
##몀
##콜
##닊
##읅
##넌
##깬
##꿍
##컴
##싼
##룹
##욹
##숑
##맷
##툽
##샹
##훈
##렿
##쳘
##잰
##왱
##빌
##렂
##델
##펌
##넫
##펄
##철
##챤
##앖
##끕
##탓
##웞
##빛
##셩
##렬
##곱
##깜
##뵤
##쭘
##됩
##몽
##귱
##숀
##휏
##얽
##긍
##듁
##뽈
##v
##뢰
##듦
##쯰
##빴
##싹
##삭
##둡
##삽
##찹
##캐
##톰
##굳
##눴
##삐
##윗
##엙
##깍
##뎁
##앉
##텨
##앎
##홈
##룡
##볐
##눋
##댓
##팬
##졀
##팟
##뽕
##샵
##율
##퐁
##랸
##롸
##얀
##쏠
##햤
##쀠
##햅
##샅
##얒
##콩
##샷
##핱
##됔
##맫
##밸
##탠
##빕
##흘
##갼
##탯
##빰
##뚭
##획
##뱉
##엋
##땡
##랳
##냤
##늉
##젬
##궂
##탬
##혓
##혔
##랖
##즉
##긏
##츼
##쿵
##쨕
##뚣
##뱅
##뮤
##곻
##퓽
##끜
##엣
##룾
##즐
##솔
##퉅
##랻
##읭
##뻘
##낙
##싿
##ㅃ
##꾺
##곸
##짠
##맴
##엨
##겿
##킷
##캬
##젛
##냠
##뤠
##끓
##욮
##뤙
##닏
##찔
##갚
##쒸
##팝
##숨
##흉
##헐
##헗
##냡
##뤈
##꼈
##닭
##늫
##믐
##딤
##왂
##렆
##붇
##줃
##ㅞ
##벱
##밨
##넨
##걌
##갬
##낟
##랅
##닫
##둗
##믿
##겐
##넡
##쮜
##딘
##웕
##뎡
##퉁
##겄
##넛
##뇽
##칰
##낫
##뀨
##빽
##잍
##앍
##낄
##빅
##앤
##쬬
##젆
##젹
##촉
##쿜
##슙
##굿
##힏
##듸
##쿗
##펠
##뤕
##욺
##럾
##챴
##럇
##럐
##닠
##껑
##탔
##낯
##늗
##특
##갷
##힛
##읎
##앳
##둣
##핸
##겸
##앓
##찜
##릇
##숟
##썸
##궜
##쟤
##쁨
##뽑
##ㄽ
##댁
##갠
##햌
##쫘
##먐
##왈
##욘
##쇠
##됴
##칵
##햏
##홀
##쟌
##쉨
##땀
##젠
##삶
##흠
##팸
##꼭
##컸
##슐
##칯
##쟏
##홧
##쥰
##낚
##촵
##숭
##냑
##멈
##샨
##늌
##큨
##삑
##씁
##훌
##즛
##슥
##캠
##웈
##푱
##깼
##랮
##팢
##픞
##얖
##삿
##싣
##쟜
##럊
##곁
##쳣
##썹
##잦
##촐
##냘
##켄
##띵
##붜
##겆
##맵
##댇
##쁩
##퐃
##옝
##쫓
##흔
##뵜
##튤
##늄
##뎋
##덟
##텅
##폈
##뚤
##쌩
##넓
##핫
##짼
##웇
##펀
##댑
##쥼
##긿
##힇
##셭
##젇
##췄
##둦
##갖
##옼
##앻
##픠
##눞
##훃
##얇
##갅
##옆
##뭋
##넜
##픕
##뷸
##렺
##롲
##젿
##졷
##궤
##셌
##싪
##뜩
##봥
##엍
##잒
##뚱
##륑
##쑤
##셧
##엗
##힙
##벫
##썻
##탘
##겋
##흙
##죔
##냔
##럄
##젖
##귺
##몫
##쫌
##깁
##슽
##킄
##삘
##놧
##힉
##뫄
##썩
##뒙
##큘
##앨
##뚸
##켕
##훼
##괘
##싴
##꼰
##끅
##늕
##탭
##앰
##엌
##귗
##렝
##봏
##쉭
##픃
##씌
##쟡
##껍
##껫
##쉿
##롣
##넿
##왐
##풋
##댐
##맜
##앧
##쌌
##굨
##툴
##옿
##춌
##뜀
##녜
##밈
##놐
##숍
##밒
##닛
##쪘
##넟
##곘
##엤
##읻
##딧
##쫏
##헷
##눨
##씅
##겪
##굽
##ㄿ
##엑
##헬
##쏭
##퉤
##갥
##삉
##귿
##잚
##땃
##잭
##쯔
##샸
##짚
##샣
##엮
##렜
##픙
##틱
##퍽
##쟂
##찟
##잊
##눅
##칩
##걍
##덴
##랃
##땄
##묹
##쨔
##팓
##됑
##뮁
##갛
##셜
##붐
##쯉
##갤
##쮸
##뱍
##겯
##떳
##챡
##핏
##밞
##섬
##콕
##칱
##젣
##읆
##뻑
##앋
##쎈
##묶
##낮
##똒
##갹
##쩐
##뤵
##닜
##쉼
##붤
##됮
##됰
##뉵
##뵈
##샛
##쿤
##숲
##넴
##뭇
##뻥
##둠
##뭎
##뤃
##쿰
##숯
##읏
##퓬
##댈
##줅
##릐
##읋
##쩜
##눚
##쪙
##왉
##낑
##칫
##뿜
##솝
##뺌
##텥
##깻
##읜
##싑
##꺠
##샃
##낞
##얶
##욧
##훔
##핡
##헝
##웽
##됌
##핗
##큩
##돵
##밓
##틍
##쎼
##꼐
##븃
##핖
##좆
##윅
##껭
##갉
##닪
##굮
##킼
##뜯
##흫
##씪
##잫
##팁
##듈
##퓯
##캥
##넉
##촥
##덧
##풒
##챘
##퀄
##왁
##윙
##겍
##떙
##햣
##닞
##컹
##덭
##쎵
##쪼
##룠
##잃
##덱
##쉉
##뻡
##킵
##싁
##쎙
##굉
##얂
##쵸
##겧
##맀
##믹
##떵
##닿
##먿
##헥
##핵
##핬
##펫
##웤
##굶
##멓
##뺏
##밭
##솨
##늨
##풉
##뭘
##짢
##땬
##걀
##큽
##슂
##뵀
##멤
##훅
##뷔
##슼
##빱
##뀔
##븰
##둿
##얾
##캅
##딸
##쬼
##딈
##멩
##늙
##츦
##싡
##쭉
##밋
##밠
##쟘
##츷
##콬
##웋
##룝
##끠
##횻
##엡
##텼
##낲
##읕
##갂
##땠
##뱔
##쐬
##빤
##읫
##뻠
##핀
##깊
##밝
##홉
##죰
##쉥
##믁
##뚯
##뤱
##탉
##뗄
##옵
##뺄
##싐
##뵘
##잣
##첯
##늚
##쫙
##깥
##넼
##툤
##놰
##닢
##뵐
##랉
##랕
##얏
##넬
##쒯
##룯
##뿨
##컄
##쑐
##졎
##젙
##냨
##앿
##팦
##앹
##퉛
##짛
##맬
##뎸
##깸
##띤
##쎌
##웢
##앚
##꽂
##됳
##첝
##햘
##붸
##뤫
##꼼
##샂
##줏
##뿡
##췸
##쿨
##흗
##롹
##묨
##맏
##줗
##춧
##딥
##삥
##퍈
##텂
##킁
##컀
##빋
##떰
##툼
##숩
##둴
##팧
##ㅚ
##햄
##싚
##럵
##뷱
##롯
##굔
##땁
##긝
##졈
##릯
##뭍
##뵷
##푠
##찿
##댲
##쯩
##륙
##즣
##냦
##겉
##샜
##퐤
##츤
##걵
##쿡
##룐
##륀
##젓
##줔
##컵
##휄
##긓
##왛
##틑
##뱌
##뢀
##옃
##넏
##럳
##웜
##캗
##떈
##귬
##븱
##렓
##햔
##칮
##젶
##욷
##셤
##겾
##썾
##냣
##럻
##밎
##헙
##쳥
##붖
##궝
##뒁
##눟
##앶
##켘
##뗘
##쩊
##퍠
##텝
##횽
##숵
##랼
##뵙
##똘
##넥
##짇
##떢
##떔
##럎
##넢
##짆
##턷
##륭
##덷
##렑
##욨
##꼥
##썅
##윔
##웁
##쨋
##꾹
##뛴
##듄
##숔
##쿸
##뱁
##튕
##뱃
##첫
##쩄
##섕
##쳨
##칛
##갵
##텍
##딬
##똫
##뚐
##맟
##챵
##녘
##텻
##돗
##릳
##숱
##튠
##렣
##웬
##캣
##섲
##룔
##앴
##읾
##캌
##쉰
##겔
##죤
##뮨
##잿
##첞
##죴
##맢
##샬
##췌
##밧
##믇
##궸
##붛
##곈
##펏
##욬
##픂
##흓
##땟
##깟
##꺘
##핻
##밟
##멎
##걨
##섑
##댸
##퍌
##꺄
##놏
##굘
##헀
##렫
##곷
##횡
##풓
##줙
##춱
##엪
##뇬
##곶
##슿
##갿
##틐
##롄
##젯
##닡
##쟐
##붘
##콧
##됛
##럅
##웒
##싵
##웉
##퀀
##펃
##툭
##끆
##륻
##퐈
##넚
##앆
##싮
##밯
##킇
##틓
##뮾
##돰
##빚
##윈
##핚
##핥
##싄
##옂
##놤
##옾
##켈
##렠
##윀
##윜
##쒄
##랰
##핶
##걹
##뭥
##뺑
##띄
##딖
##숳
##퉵
##욳
##뻗
##빻
##깢
##뺀
##촨
##헑
##햃
##믓
##잴
##랠
##쑦
##렘
##츕
##닾
##뫃
##옮
##쒈
##톹
##엶
##뀜
##낰
##꺳
##벋
##짉
##줉
##멧
##뀡
##댯
##졓
##빳
##웧
##핢
##쨌
##믕
##잽
##얕
##헽
##잧
##쓲
##쓱
##찓
##얔
##싕
##훙
##뎠
##뻨
##땔
##딯
##닦
##챱
##엱
##쨖
##쁀
##몹
##좁
##쥽
##첩
##슧
##낗
##넙
##텃
##씄
##꼽
##셬
##쪔
##왑
##닳
##뚬
##갇
##휑
##곺
##괨
##뤘
##괄
##볍
##읈
##킅
##엳
##볽
##닣
##읒
##닸
##싰
##툐
##턍
##잗
##벚
##뎨
##둪
##퓰
##곗
##렼
##욪
##겓
##얃
##짹
##팤
##뿽
##눤
##켁
##듫
##맿
##켬
##숼
##윌
##웰
##뷉
##슘
##넞
##핼
##윳
##쟞
##괵
##쟉
##벵
##쟀
##섴
##늑
##쯈
##뛔
##쎔
##맺
##뎉
##믤
##짰
##냎
##솜
##챷
##껨
##붑
##겈
##녖
##낱
##랱
##늶
##뻣
##똪
##눜
##엲
##늰
##돟
##섵
##똔
##놑
##쥠
##쨈
##욲
##낵
##컫
##옺
##먕
##뉑
##냏
##혆
##픗
##좉
##ㄵ
##섣
##웱
##즙
##샆
##옄
##뇼
##믛
##톷
##욾
##퍚
##덢
##챃
##륏
##봬
##웥
##옌
##돨
##젏
##넒
##댬
##탛
##앛
##줼
##찱
##팥
##꼇
##욐
##롼
##붗
##늴
##싈
##쉣
##뫀
##뮹
##욌
##ㅟ
##횃
##짌
##뜽
##뗀
##닼
##꺌
##졒
##냬
##콸
##굑
##릍
##뎦
##캄
##쥥
##푹
##짙
##푤
##빆
##헠
##솣
##퐉
##헨
##찯
##꺾
##팽
##댛
##뱆
##짗
##훗
##읓
##뚠
##웄
##붋
##깰
##걳
##빗
##쳠
##꿧
##뉨
##쥑
##긌
##줚
##뢴
##줜
##끽
##탍
##겇
##둫
##훋
##턱
##쑥
##됃
##짯
##햫
##줲
##럯
##렦
##믈
##뙈
##댣
##벳
##곕
##짏
##햋
##윰
##냫
##슢
##줴
##푝
##렏
##켯
##볕
##맸
##뽄
##쳒
##궷
##돕
##댂
##킈
##꽊
##댤
##깩
##벟
##띨
##렄
##괼
##늪
##쌉
##츨
##뭏
##늼
##캤
##줖
##쥄
##킠
##흏
##엫
##놘
##앺
##삔
##굄
##댝
##샢
##겢
##딮
##옫
##첬
##곦
##틔
##녛
##앷
##됀
##톼
##홰
##썯
##둉
##꺈
##끵
##굥
##슁
##퉆
##븡
##쇽
##읃
##쥭
##긇
##륨
##륟
##쥴
##딲
##쌋
##콤
##ㄾ
##뽜
##럣
##핌
##쑈
##뮫
##뉻
##샊
##멇
##탗
##룫
##맠
##솩
##줐
##벏
##궞
##긒
##꿉
##즨
##븋
##덛
##픵
##옙
##븜
##깧
##쵹
##죡
##앀
##꿑
##칍
##ㅋㅋ
##ㅋㅋㅋ
##는데
아니
ㅋㅋㅋ
진짜
##는거
##me
##ame
name
너무
내가
나도
그냥
##으로
근데
##야지
그래
##니까
오늘
##고싶
그런
##에서
지금
##렇게
이제
##니다
##하고
##으면
##이야
어떻
어떻게
##다고
##거야
##ㅎㅎ
그거
우리
##어서
그럼
##하는
##하면
##인데
##라고
그러
이거
##다가
##아아
##겠다
생각
운동
학교
##거같
##해서
하고
##구나
##까지
##시간
##은데
##이라
내일
##ㄱㅋ
아무
##들어
모르
##하지
미친
그래서
##ㅠㅠ
##한테
사람
##세요
많이
##리고
아직
##것도
존나
##는게
##이랑
뭐야
##이지
##00
하면
##는중
##는거야
친구
들어
하나
##아서
##고있
그럴
##부터
해야
그건
##해야
이런
##자기
ㄹㅇ
이게
##잖아
ㅋㅋㅋㅋㅋ
##인가
그게
얼른
다시
하지
##려고
갑자기
##는건
##었어
##하게
왜이
이미
시간
그렇게
언제
너가
##고싶다
애들
##어어
어디
그런거
나는
이렇게
아이
한번
##것은
어제
좋아
다른
##아ㅏ
너도
##정도
##ㅅㅋ
##을까
머리
수업
##했어
##더라
괜찮
##하는데
##수있
공부
##겠지
##한다
##었는데
##이나
사실
미쳤
10
바로
##심히
##시에
##습니다
ㅋㅋ
무슨
사진
몰라
저거
빨리
##하다
ㅅㅂ
##대로
정신
##면서
있어
재밌
같이
##입니다
아니야
ㅎㅎ
##거든
하기
그렇
열심히
##그래
문제
힘들
기분
##구만
하자
##소리
##한거
그리고
이상
원래
없어
안되
그래도
보내
##은거
##이다
일단
여기
계속
시발
##겠어
##지고
맛있
##했는데
##길래
귀찮
안돼
응원
에바
다음
하는
##어야
얼마
##시지
##가서
요즘
피곤
##지게
진정
뭐가
##거같아
##ㄱㅋㄱ
이번
삭제
일어
대충
보고
##하네
##이네
##요일
게임
소설
오늘은
이것은
엄청
##사람
안해
밥먹
##지는
##지만
##보다
아침
##이터
##0분
메시지
왜이렇게
아닌
##는거지
엄마
##수도
죽을
취업
파일
##밖에
싫어
##새끼
눈물
뭐라
좋은
##겠네
##보고
누나
이러
고생
방금
##해야지
##ㅜㅜ
##냐고
했는데
##그러
전화
나가
##것으로
##있어
##하자
뭔가
일찍
삭제된
이걸
가능
물어
##것같
##되는데
##중에
메시지입니다
처음
인생
하루
##으니까
나오
안나
힘들어
##이면
##학교
거기
##했다
##더니
##았어
이해
프로
##아니
##고싶어
알아
해야지
잘못
##네ㅋㅋㅋ
먹어
##버리
카톡
혼자
##거임
아니라
지금은
안좋
##기가
##하는거
##간다
아마
##인지
아니면
##하나
뭐야ㅋㅋㅋ
아무것도
시작
말고
찾아
##버렸
##ㅎㅋ
##던데
##해보
##들이
##어ㅓ
기억
만들
##나서
##지마
누구
없다
조금
##리가
##스크
얼마나
느낌
않아
고민
##와서
그러면
12
자살
##었다
가서
그럴수있
집에
##하기
개웃
먹고
##라는
안보
얘기
##려서
##았는데
고양
다행
별로
오지게
아무튼
맘에
##지도
만들어
아주
이따
화이
노래
##는다
##자나
##아아ㅏ
##한데
누가
아니ㅋㅋㅋ
버스
집가
이름
##이고
그때
##이가
##같은
##리는
시험
거의
노트
먼저
##어요
ㅇㅇ
귀여
아까
과제
살아
저녁
##전에
##ㄴㅇ
##볼게
웹툰
있는
##을때
##검색
늦게
샵검색
##젝트
아직도
졸려
##ㅠㅜ
그랬
가져
전에
##합니다
대체
아파
##거같은데
너네
씻고
얼굴
##가는
##려주
##ㅎㅎㅎ
사람이
##ㄱㅋㄱㅋ
미친ㅋㅋㅋ
발표
##건가
##하하
##야겠다
연락
해서
되게
맨날
안먹
##워서
##할게
##이스
##자너
그걸
행복
기다
개발
제일
##거나
아님
않을까
점심
##가지
##만에
노트북
미치
영화
필요
그만
정말
코드
##에요
##난다
모르겠
완전
있는데
##았다
프로젝트
##교시
보면
##해도
##해주
##마다
끝나
##문에
##일이
미쳐
##에는
당신
저번
할게
##ㅠㅠㅠ
화이팅
짜증
치킨
소리
하지만
11
데이터
##동안
있음
##er
돌아
해보
고양이
있으면
조져
##로나
동생
한다
겁나
##놓고
##라이
##단다
스트
우린
있었
했어
이모
죽어
나랑
대단
한데
##생각
##거지
##적으로
##하세요
##라도
벌써
##이었
하는데
##처럼
ㅋㅅㅋ
선물
##에에
##학년
사라
##명이
##해ㅋㅋㅋ
##텐데
##다니
##으니
##스트
나만
미안
##기도
##다는
##디어
##할까
ㅋㄱㅋㄱ
개학
파이
##가면
##가야
##000
그럴수있지
세상
최고
해봐
##지막
##리면
오늘도
놀아
영상
자야지
##애들
##레이
##하고있
디코
20
못해
##야ㅋㅋㅋ
ㅈㄴ
도착
싫다
##같아
##in
마지막
저런
##기로
ㅅㅂㅋㅋㅋ
병원
괜찮아
귀엽
없음
인정
##는지
##오오
##없어
이런거
제출
##으러
##네요
##고싶은데
기분이
같은
매우
뭐하
##수가
그치
마음
어우
왜그래
있지
일어나
끝내
아프
오래
##을듯
##먹고
아니고
##아아아ㅏ
ㅇㅈ
그정도
나름
빅데
##만원
##건데
그런가
오랜
자고
##하면서
면접
방학
배고
어떤
없어서
##가지고
##on
##헤헤
보여
##하니까
##할때
##십쇼
##아아아
가야
아빠
없지
역시
해도
##진다
##버려
##라서
나왔
자기
잘자
##친구
##어야지
스트레
나한테
##숙사
병신
왜그러
##는걸
##시다
피곤해
부럽
올라
자꾸
하는거
##래ㅋㅋㅋ
응원해
먹을
소공
##이이
뭐지
받아
심심
##때문에
##al
고기
기숙사
포기
##티콘
아침에
멘탈
약간
자세
##st
ㅇㅎ
기대
잠이
##으으
##장님
어떻게하지
여기서
때려
일본
정도
##아파
##져서
하면서
나중에
어쩌
##이라고
##하니
##스럽
저렇게
##ㅇㅈ
##애애
##된다
##or
##림도
##하는게
이유
있을
##하시
근육
잠을
혹시
##당히
밖에
##해봐
##자고
##는건가
드디어
레전
없는데
저게
##에도
##렵다
학교에서
ㅎㅎㅎ
거지
많아
무엇
자야
##보면
학교가
궁금
어려
정리
##이는
##러워
##인격
##ㅇㅇ
들가
있다
제대로
코로나
한시간
##한게
##ar
##줄게
##시간에
##이라도
하기싫
안좋아
##했네
##군요
힘들다
이모티콘
ㅠㅠ
인나
##지않
말을
선생
어때
회사
##주일
레전드
결국
라면
물론
재미
카카
##아리
##지면
##라인
아이스크
제발
하고싶
##는건데
저번에
알려
청소
한국
##진짜
##들은
##ㅏㅇ
##으면서
좋겠다
집에서
##나봐
노력
뭐인데
솔직
창업
확인
힘드
##오면
##운데
##적인
##마자
당연
말이
먹었
유튜
##하냐
##였어
##갔다
개웃기
ㅋㅎㅋ
누워
어여
제가
좋다
##ㅏㅓ
짜증나
파이썬
따라
몰랐
안가
해주
화장
##세여
##났어
새로
안들
##니깐
##버림
##ㅛ어
##졌어
##거라
##느낌
10분
눈물이
솔직히
30분
못자
와서
준비
##다구
##러가
##어나
아이스크림
광주
뚝딱
사이
이야
##나요
##한다고
친구가
밥먹고
개꿀
나와
내려
##어도
##at
아니지
##ㅠㅜㅠ
오랜만에
긱사
떨어
아닐
##는거임
아닌데
곱게
배가
안함
허리
##있는
##해요
##가리
##하다가
##할거
모르겠다
니가
설마
아나
안하고
어쩔
자자
조지
학습
##an
미친놈
100
걱정
쉬어
영어
의미
##던가
애들이
스트레스
다운
대신
##겨ㅋㅋㅋ
##et
##느데
12시
유튜브
고맙
할거
힘내
우리는
in
있고
##이니
##기는
##왔어
##야야
##할듯
하고있
들어가
자살마
그니까
다녀
어림도
없는
좋지
카트
##치고
##냐ㅋㅋㅋ
##od
##머니
시간이
고마
생일
##린다
##자가
##란다
##먹어
##어어ㅓ
이상한
엄마가
못하
서울
싶다
안들어
##운동
##온다
##고있어
일본어
15
가면
맞아
무서
오ㅑ
일주일
항상
##는것
##지가
##려나
##말이
##히히
##던거
##볼까
##페이지
진정해
죽을거같아
가지
뭔일
중학교
프사
하다
##좋아
##너무
##pt
문명
쌤이
추가
##주세요
##에게
##수업
그런거야
생각해
설명
아재
아냐
있어서
잠깐
##어가
##ㄴ데
다음에
그것도
둘다
만나
안하
##말고
두개
말해
뭐여
아는
아쉽
일이
##겠습니다
##했지
##었음
##먹을
##차피
##하는중
이번주
뭔소리
비슷
안하면
왜그
중간
피부
##이없
##야돼
##보단
##리를
##려면
생각해보
ai
뭐해
알고
이래
##시면
##같이
##자마자
물어보
고민중
개빡
저장
조용
하려고
##일까
##zz
미친다
교회
어깨
어차피
온라인
해줘
현실
##도록
##기싫
##스타
ㅋㅋㅋ그
다른거
다음주
추천
##이ㅣ
##는줄
진짜ㅋㅋㅋ
에바야
아마도
카카오
20분
다이
아래
아녀
이랑
잠들
하다가
하는중
##나가
##소서
##여서
##ㅏㅜ
그대로
너는
##가능
##아ㅓ
##야해
##봤어
##었지
##xt
##이라니
해야되
보냈
보니까
않았
우선
자신
자소서
##겟다
진짜로
그런것은
이러고
이야기
돈이
마이
몇시에
살짝
상관
잤어
절대
한명
##이래
##에ㅔ
##까진
##난거
##ㅇㄹ
##르고
##먹음
그러게
운동을
내일은
어디서
귀여워
선생님
갔다
봐봐
오류
이가
이쁘
##리지
##봤는데
ㅋㅋㅋ아
모르겠어
그렇지
관리
야발
지랄
##있음
##있어서
##해볼게
아무도
귀찮아서
구글
되지
불러
애매
으으
이불
##인줄
##라ㅓ
고통
나갈
노예
만드
뭐라고
밥은
보는
어느
이정도
한달
##한거야
##원이
정신이
빅데이터
개웃기네ㅋㅋㅋ
ㅜㅜ
간다
감사
내용
미래
성공
정상
화가
##이였
##기만
##지를
##게요
##ㅁㅊ
##차나
그런게
그럴수
5인격
나옴
남자
들고
쉬는
에어
오후
중요
지하
핸드
##을거
##해줘
##운거
##하려고
##일어
##프다
우리학교
##거같음
##해야되는데
##어어어
기억이
on
넘어서
다리
돌려
불편
상황
상당히
생겼
##있는데
그러고
모르게
당신의
ppt
너의
바꿔
설치
안자
없고
여러
여수
익명이
카페
##을거야
##시는
##시쯤
##지어
##ㅏㅏ
##oo
##우면
##느라
##it
##렸어
##거같다
애들이랑
이따가
ㅋㄱㅋㄱㅋㅋㅋ
대박
만든
못함
알려주
질문
한거
해결
##왔다
##은게
##만들
##ㅇㄴ
##ㅏㄴ
하나도
##ㅅㅋㅅㅋ
ㅇㅋ
결과
그리
나쁘
알았
좀만
##을걸
##아가
##같은거
##나면
##때마다
##번째
##님이
어떻게해
##이라서
바꾸
심지어
올려
저기
졸리
회의
##이구나
##시고
##어ㅋㅋㅋ
##하누
##ou
##sm
머리가
귀찮아
끝나고
듣고
마스크
먹어야
상상
새끼
시끄
안했
안됨
하니까
할까
##이트
##는것도
##니ㅋㅋㅋ
##시켜
##야하는데
##쳐서
##말이야
무슨일
##버렸어
방법
봤는데
왜저
임티
자랑
전공
코딩
##같은데
##보내
##습니까
##분이
##토리
##하지마
사람들
##ㅜㅜㅜ
거기서
배고파
이유가
30
ㄴㄴ
나온
디스
라고
뭐시
뭐인지
신박
어ㅐ
위에
저는
하는게
##없이
##ac
##식으로
##ip
##땜에
운동하고
요즘은
이번에
왜그래ㅋㅋㅋ
개인
그저
맞지
먹으면
사용
서버
시내
안할
주말
중국
하네
하라
했다
##이여
##있지
##래스
##버릴
##구요
##라면
##re
##공부
학교에
ㅋㅋㄱㅋㄱ
1도
2장
txt
ㅋㄱㅋㄱㅋ
가끔
다니
몇개
부모
사과
신청
인공
학생
##있다
##을게
##왔는데
##하렴
##스러
##받아
##되면
우리반
10시
##요일에
같은데
검색
글긴
되면
됩니다
매일
무려
사랑
요리
##겠는데
##지ㅋㅋㅋ
##버린
##거리
##하긴
##겨서
##ㅑㅇ
##초에
##le
생각보다
좋아하는
##것같아
ㅋㄱㅋㄱㅋㅋ
##ode
13
ㄴㅇ
계란
끝났
나더
넣어
밥을
보낸
분명
살려주
아예
업서
없네
옆에
이젠
저건
탈주
할수있
환장
##는디
##주고
##스팅
##르면
##우우
##먹었
##ㅅㅂ
친구랑
저녁에
아닐까
40분
달라
뒤지
안쓰
인터
저도
페북
##나나
##으려고
##스터
##드로
미친거
하지마
이상해
진정하세요
끝내고
중간에
지하철
ㄱㅊ
그림
난리
맞춰
수가
웬만
있는거
죽여
직접
크림
했지
##이상
##야징
##것만
##하라
##적이
##장히
화장실
개꿀잼
2시
더워
많은
목소리
보자
시원
신기
쓰고
안오
없으면
오면
오른
인났
자러
자라
자체
자연
자야겠다
잘거야
##해라
##는겨
##야하나
##려줘
##게임
##알아
##우고
일어났
개웃겨ㅋㅋㅋ
다르
되는데
링크
수고
안봐
안와
알아서
위험
자면
장고
##이징
##기를
##나게
##보니까
##거면
##어ㅏ
##인듯
##라마
##셔서
##알았
##불러
##호호
##고있는데
왜이래ㅋㅋㅋ
어쩔수
도와
모델
점점
하체
##을텐데
##니가
##나는
##하는거야
##한건
##라구
##드림
##프로
##ss
우리집
생각이
물어봐
미치겠다
##ing
1시간
2주
6시
구래
기업
기본
눈이
동아리
되는거
뒤에
보이
안녕
조심
##시키
##가락
##나오
##하러
##하라고
##라리
##갔어
##대체
고생한다
ㅠㅠㅠ
가고
가족
계정
굉장히
너랑
놋북
사고
새벽
생기
알지
애초에
오타
자바
자격
죽으면
죽지마
찍어
클래스
평소
하늘
##리스
##주면
##인이
##그로
##줄까
아무리
##겠지만
누나도
##하하하
부럽다
조용히
ㅈ나
나아
노드
말도
빡치
선택
아아
있었는데
자렴
좋은데
##기고
##다니까
##야함
##야되는데
##거얌
##라니
##ㅎㅋㅋ
지금도
아무말
##사람이
아닌가
기다리
누군
도대체
마크
보기
신경
안남
앞으로
즐겨
체육
하연
한다고
힘든
##라나
##올게
그래야지
##고싶음
누나가
같아
굳이
김치
나가서
날씨
드라마
로그
말하는
반응
##나고
##에선
##었네
##장이
##그랬
##준비
ㅋㅋㅋㅁㅊ
##에서도
우리도
집가고싶다
2개
st
다들
반에
부족
상태
자취
택배
##해지
##야ㅑ
##보니
##보자
##애ㅐ
##였는데
##되나
ㅋㅋㅋ미
왜이래
먹어야지
ㅋㅅㅋㅅㅋ
3개
8시
9시
가기
간단
납치
대화
따로
실행
실시간
애니
에이
입고
있나
작년
졸업
포폴
##이긴
##는뎅
##버리고
##ㅇㄱ
##잖니
##없는
##세트
##ㅁㄴ
##따라
아니니
정신차
이번엔
3시
내꺼
당황
모름
뭐임
뭐든
슷봇
안했어
안된다
여자
연습
예전에
웃기
월급
정확
차라리
큰일
한글
할머니
헬스
##가슴
##아앙
##같다
##려구
##성이
##자식
##스로
##모르
##ㄹㄴ
19
50
감자
놀러
먹으
먹었어
멍청
모든
몸이
안된
애기
이럴
전체
절반
주인
확실
##겠니
##데ㅋㅋㅋ
##할거야
##고싶은
##라고요
왜이러
눈물나
자살마렵다
1시
1학년
3일
pt
가야지
낫지
돈을
되는
슬퍼
아픈
않은
어그로
저러
할때
##있고
##다ㅋㅋㅋ
##러ㅏ
##정이
##타고
##부분
##되는
##ㅡㅡ
##ㄹㅇ
##많이
우리가
##하지만
미쳤네
디스거
자격증
##가슴살
18
개새끼
누워서
담에
빠르
빼고
수면
수행
있긴
자려고
집중
현타
##지랄
##했다고
##엉ㅇ
##en
##ㄹㄹ
##ml
##조건
##is
##렸는데
그래야
##까지만
이미지
인생이
아나ㅋㅋㅋ
고마워
어느정도
디스거스팅
갈아
강의
넘어
닭가슴살
대회
바보
오우
이것도
인간
인스타
존내
찬물
##가요
##에다가
##하셨
##ㅛ다
##할지
##om
##렸다
##쿼트
모르는
하나만
해야되는데
그런거지
한번도
##더라구
재밌어
맛있게
어려워
하기싫다
나쁘지
부모님
가는
때문
말이야
먹음
뭐더라
미국
빨래
언어
이어
정보
하렴
##이니까
##래요
##보여
##달라
##하구
##까요
##ㅇㅋ
##끼리
##없다
##냐면
##ra
##잔하
##잇어
그런것으로
생각중
##해야겠다
아이디
##버리자
에어컨
3시간
5분
가자
가지고
너한테
능지
된다
똥멍
맛난거
무시
싶은데
알았는데
인격
잠만
장난
할만
##이로
##해여
##리는거
##하고싶다
##인다
##한것
##었나
##ㅓㄴ
##우어
##se
##고있음
미쳤어
안해도
뭐라는거야
##000원
카카오페이지
오른쪽
2학년
re
계획
그랭
뒤질
만족
무조건
뭐먹
봐도
봐야지
손절
양치
인남
있을까
자동
자습
죽지
출근
칭구
##고만
##가고
##아요
##아야
##보이
##하다고
##수록
##봐야지
##갔는데
##짜리
##뭐야
##pu
그러지
해야징
##했어요
아침부터
하루종
누구랑
근육통
ㅋㅎㅋㅎㅋ
인터넷
7시
가장
개귀
글씨
까먹
놀다가
누웠
대답
라이
많다
무섭
샤워
안내
연결
오전
으어
잤는데
조지고
쥰내
지나
치즈
퇴근
##있으면
##다녀
##나라
##주는
##달라고
##ㅓㅇ
##ㅅ어
##분에
##10
##친다
그러니까
사람들이
친구들
이런것은
언제나
##어어어ㅓ
11시
동생이
1교시
2시간
개소리
넷플
딱히
뜽우
못먹
시벌
안될
언니
왔어
이새끼
잔다
적당히
진심
크센
하는거야
##이드
##자리
##싫어
##였나
##ㄷㅋ
##ot
##르르
##돌아
ㅋㅋㅋㄱㅋㄱ
하지말
재밌게
##거든요
문제야
안되지
##아니야
안보여
이름이
하루종일
li
교육
나서
놀고
눌러
되고
뒹굴
먹고싶
먹고싶다
못잤
받고
스쿼트
슷님
아아아ㅏ
연기
이는
인사
좋은거
주변
초코
캡쳐
토요일
하라고
할거야
##이도
##있네
##다닥
##시네
##하구나
##자인
##메이징
##되는거
##듯이
##동아리
##졌다
##피곤
##머리
그런것도
좋아해
##아ㅏㅏ
##이스톡
##오오오
ex
se
sh
강제
나올
든다
많은데
부분
설정
시켜
신나
안그래
어린
어렵
없나
에러
저걸
좋겠
추워
한테
헤어
확진
##같음
##지지
##리네
##ㅜ어
##인거
##ow
##ㅑㄴ
##십셔
##ㅌㅋㅋㅋ
##랄까
그런걸
##해야돼
일단은
나오면
이해가
오래걸
아빠가
다이어
살려주세요
17
you
가까
고려
금요일
너만
대가리
뚝배
먹는
모두
세계
수정
스토리
실패
심장
안더
약속
없이
오지
은근
주세요
채팅
최대
타이
편의
하게
##이크
##이에요
##만큼
##리는데
##했더니
##주차
##ㅜㅠ
##상태
##린거
##수는
##었으면
##ue
##았네
##중이야
##ct
##드는
##번호
##레기
아니다
어떻게든
##거같아서
##이라는
사람은
다른데
문제가
ㅋㅅㅋㅅ
이래서
핸드폰
중국어
편의점
1분
4시
th
걔가
그려
넣고
답이
뒤지게
살기
수영
안사
안에
안대
안했는데
앞에
어떡
읽어
자유
출발
취소
커피
하세요
##이버
##가타
##같네
##오고
##들고
##었다고
##였음
##봐서
##되지
##쌤이
##긴한데
##듣고
아니냐
##하는건
해야돼
귀여운
모르겠는데
생각해보니까
gsm
ㅁㅊ
간지
건강
검사
관련
기능
둘이
디자인
뛰어
배불러
봤어
시바
쓰면
안맞
안경
않음
알림
알았어
올해
왼쪽
자서
자리
잘게
조질
쥬지
집가서
함께
해커
화나
##이써
##이얌
##사가
##가는데
##아지
##아프
##할래
##봐도
##봐야
##되서
##ad
##un
##11
아니여
어떻게하냐
어디로
그렇다고
응원할게
에바인데
게임을
기다려
##헤헤헤
그런것은가
졸리다
가는중
나머
나와서
댓글
말아
모른
목포
보안
보고싶
사주
싶어
알고있
암튼
움직
으아
의식
이것
이용
이ㅛ
일요일
충격
피자
허허
##이ㅋㅋㅋ
##나ㅋㅋㅋ
##은거야
##지말
##리기
##파일
##들도
##주행
##하고싶
##ㄲㅋ
##ㅇㅎ
##ㅓㄹ
##받고
##없어서
##되고
##그램
##웃기
##ㅏㄹ
##og
##위로
##십니까
##두고
##력이
ㅋㅋㅋㅇㅈ
그러치
미친거야
##것같은데
하루에
4개
py
zip
ㅇㄴ
가는데
걸려
금방
꿀잠
나이
나면
나를
나보고
두고
드라이
마렴
멀라
메로나
바람
배경
보이스톡
봐야
빠른
어찌
어이없
예정
옛날
올때
자주
즐거
집이
충전
한시
했네
헌혈
##가가
##ㅜㄴ
##상이
##라니까
##때문
##스가
##없는데
##반에
##ㄱㅋㅋ
##겟어
##ion
##많아
##쯤에
##럴까
ㅋㅋㅋ아니
##아아앙
맛있는거
##가지구
그치만
ㅇㅈㅇㅈ
궁금해
노력해볼게
중학교때
ㅁㄴ
나쁜
도망
말하면
모임
몰랑
본부
소름
심각
악마
안죽
않나
알람
어이
엑셀
으우
조와
지가
키우
타고
트레이
하시
하셈
해줄
##기면
##기에
##는듯
##안해
##아닌
##나도
##으ㅡ
##보는중
##게도
##하더라
##하구만
##었던
##문제
##자는
##ㄹㅋ
##갑니다
지금까지
머리를
진정해ㅋㅋㅋ
##새끼들
대단해
저런거
다이어트
목포대
25
300
5시
곤란
관심
나갔다
님이
마자
맞다
먹자
모기
수준
신발
싫은데
싶어서
안올
안풀
어딨
완결
왜지
웃긴
이후
있으니까
해볼까
화내
##이블
##로로
##있는거
##아ㅋㅋㅋ
##지롱
##건강
##하ㅏ
##구마
##라라
##ㅎㅋㅋㅋ
##애ㅑ
##준다
##쳤어
##ㅆ어
ㅋㅋㅋ개
##에서는
##하는지
운동해야지
괜찮지
미쳤나봐
힘들게
하자가
##냐고ㅋㅋㅋ
느낌이
않아요
##all
당연히
뭔소리야
해커톤
1년
16
40
결제
괜차나
군대
그딴
그것으로
답변
된거
많아서
뭐냐
박살
반복
번호
보는데
비싸
서로
소개
슬프
신난다
안써
앞을
야야
예전
왔다
왔는데
우유
익숙
잘해
집간다
차단
천천
축하
치고
틀어
포맷
폭주
호다닥
화난다
##이구만
##아이
##만한
##th
##하잖아
##한대
##치는
##부턴
##av
##줄알
##걸까
##처리
##쓰고
##됐어
애들한테
한번에
진정하렴
이해할
##버리네
다행이네
마음에
##스럽다
알려줘
마이크
ㅋㅋㄱㅋㄱㅋㅋㅋ
로그인
천천히
개너무
고쳐
낮잠
말하고
목표
못가
뭐하는데
봅시다
부러
사장님
상처
손가락
애가
야야야
옆에서
올리
와파
있다고
자다
존버
창체
충분
폰으로
한게
헷갈
##이요
##이죠
##이ㅛ
##나옴
##보다가
##파이
##네ㅋㅋ
##하려
##한지
##갈게
##ㅛ는데
##일로
##일에
##ㅣㄴ
##입고
##릭스
##부럽
##영화
##엇어
##18
##프트
##방에
학교를
##이지만
##잖아요
아이패
##ㅅㅋㅅ
10개
일어나서
엄마랑
시끄러
뭐시여
실시간으로
똥멍충
80
de
가만
걸어
괜히
그나
깜짝
나보다
더이상
똑같
말했
모야
뭐고
비밀
살려줘
아닝
안해서
없엉
없애
역겨
월요일
전부
죄송
지갑
하긴
해여
해볼게
환불
흐름
힘이
##이따
##이한테
##을수도
##시당
##안나
##가야지
##아냐
##러닝
##근데
##코드
##재밌
##했음
##하는거지
##인드
##구리
##라우
##라했는데
##단말이야
##없지
##영쌤
##ㄱㄴ
##ㄱㅋㅋㅋ
##그런
##르륵
##먹는
##먹어야지
##키로
##20
##미친
##포터
##il
아니라고
ㅋㅋㅋㄱㅋㄱㅋ
아무거나
이런식으로
언제까지
어디야
미쳤구나
정신나
정신건강
그렇구나
없어요
안되는데
에바다
죽을거같다
##버렸다
ㅇㅇㅇ
행복해
끝나면
해보자
그정도야
오랜만
스트레칭
##으으ㅡ
고민중이야
주말에
확진자
14
21
24
nc
node
그것
나의
난다
네이버
뉴스
느껴
답답
던져
데려
되겠지
드는
떡볶
마싯
마법
못하고
무료
바빠
보다가
보는중
설문
소리가
수학
숙제
스스로
시키
신입
실수
씻어야
않았어
언젠
여름
예쁘
완료
왜냐면
인나서
일을
입력
정주행
조심히
종례
좋음
즐기
진행
챙겨
초딩
파탄
할수
흑우
##기화
##사진
##해짐
##해져
##시작
##생활
##하죠
##라그래
##자로
##된거
##더만
##rl
##웠어
##ck
##ㅅ다
##겟지
##ql
##못해
##등학교
##줬어
##평가
##햇는데
##고싶당
그거는
그럴수도
어디가
엄마한테
##어ㅓㅇ
만들고
##ㄴㅇㄹ
그랬어
미쳐가
고맙다
이정도면
라이브
안그래도
가만히
3번
3학년
vs
교복
노는중
놀자
느끼
늦어
많네
맘대로
먹으러
못보
밤에
불쌍
사는
서비
수도
순간
써서
쓰레기
안마
안자고
얼어
우산
일부
있냐
있잖아
잘했어
잘거얌
지구
칭찬
타자
터졌
하는거지
화요일
##이에
##이름
##기야
##안돼
##아님
##나보
##은건
##지로
##으라고
##하셈
##하후
##수를
##ay
##마냥
##동생
##ㅏㄱ
##먹으면
##드리
##드라
##뭐야ㅋㅋㅋ
##퓨터
오늘따라
##하고있어
하고있어
내일부터
아무생각
들어오
하나하나
해야겠다
공부해
사진찍
그렇네
안되면
소설을
죽을거같
누나는
처음부터
안나와
##하기싫
##라는것은
씻고와
때려치고
##기싫다
눈물나네
2시에
50분
tr
나갔
나혼
나간
네가
단어
달려
더러
도움
되어
두배
말자
못한다
무리
밖에서
보고있
보면서
신고
실허
안받
어머
어캐
어메이징
으음
이동
이자식
자기가
조합
조졌
취향
침대
컴퓨터
택시
토익
플레이
하이
한대
해요
효과
##이냐
##이었어
##는다고
##아치
##은듯
##지요
##지능
##거는
##주에
##어ㅑ
##ㅜㅇ
##라는데
##때는
##때까지
##병신
##ee
##줄은
##릴까
##ㄹㄱ
##df
##계란
##ㅅㅇ
##긴다
##ㅐㄴ
##ke
##본다
생각도
##00원
애들은
공부를
ㅋㅋㄱㅋㄱㅋ
시발ㅋㅋㅋ
고생하네
미치겠네
최고야
ㅋㅋㅋ그치
감사합니다
쉬는시간
무슨일이야
아무말이나
주인공
1번
23
ㅋㄱㅋ
ㅡㅡ
가르
가격
가볍
건도
그랴
눈치
당장
되는거지
두번
만약
말하는거
모바
목요일
무릎
뭐로
뭐하는
바꿨
바나나
박제
밥이나
보낼
비가
빡쳐
빨간
씨발
않을
양심
억울
여긴
연애
오렴
완성
용돈
유산
작성
줄게
중독
진로
텍스트
투표
하셨
합격
##이란
##시뮬
##러리
##같아서
##리오
##생겼
##살아
##인거야
##업서
##꾸나
##었니
##말을
##잖어
##ㅓㅜ
##였던
##일어나
##ㅗㅇ
##장에
##부르
##ㅡㄴ
##았음
##우유
##져있
##ch
##ㅅ는데
##미쳤
그러다
그러지마
한번씩
있어요
재밌다
보내줘
보고서
안나오
노래방
살아있
대단하다
놀아야지
##one
보여주
왜그러는거야
##스럽게
당연하지
새로운
무서워
웬만하면
찬물로
뚝배기
3장
db
im
ㄴㅁ
가방
같은거
귀차나
기회
담임
돌리
될듯
뒤져
때문에
맛이
몇번
뭐뭐
미리
바꿀
바닥
받으
부르
스테
시러
싸우
안걸
안하는
앉아
않고
와이
완벽
이써
있니
잡아
조지게
존재
좋고
좋게
즐겁
찍고
페이지
편하게
폰이
폰을
푸쉬
허리가
헤헤헤
후려
##이렇게
##로우
##로드
##시가
##가는중
##겠음
##정신
##오늘
##무서
##진거
##들이랑
##했으면
##버려서
##화면
##하진
##린데
##라는거야
##히는
##히ㅎ
##스러워
##할수도
##치면
##학생
##ut
##먹고싶다
##씨ㅋㅋㅋ
##형이
##망이
그래요
그런데
운동은
미친듯이
이런걸
아이폰
한번만
다른사람
미쳤다
문제는
엄청난
선물이
##에에ㅔ
카카페
힘드러
ㅋㅎㅋㅎㅋㅋ
누워있
보냈습니다
관리자
##시쯤에
인공지능
평소에
그나마
가볍게
1시에
4명
pdf
tar
zzz
가고싶다
감기
갔는데
겨우
경찰
깨달
녹음
눈에
많구나
말까
머야
먹어서
메모
못하는
버티
복잡
부끄
산책
생일이
셔츠
스타
실습
싫은
양아치
웃겨
위해
이놈
자다가
주무
죽지는
죽는다
착한
참고
출석
탈퇴
풀어
프론
하려
해석
회원
##이러
##이찌
##도ㅑ
##로그
##을거같아
##는ㄷ
##다음
##시퍼
##겠군
##아픈
##왔지
##보는
##한번
##라가
##병원
##트로
##일듯
##더라고
##식이
##찮아
##get
##우는
##감이
##몰라
##는거같은데
그런듯
모르고
들어와
아이디어
이상한거
##이다스
맛있겠다
귀찮다
메시지를
나가면
##고싶어요
만들어서
선물과
##에에에
사라지
사라져
미안하다
아프다
##하시고
아나콘
자살마렵
##어어ㅓㅇ
전공동아리
뭐시기
클래스룸
간단하게
헬스장
넷플릭스
정신건강에
ncs
zzzzz
2번
200
4시간
7교시
for
is
me
sql
감당
같아서
결론
공기
교수
근처
기계
꿀잼
남았
남친
너꺼
두시간
두번째
들을
뜯어
라는
먹었는데
뭔일이
뭔데ㅋㅋㅋ
미칠
받았
보라
빌려
사회
상대
슬픈
슷칼
싫음
쓰는
아조
없냐
없다고
염병
예측
오케
음성
인성
잠시
차이
처리
터져
테스트
텐션
판타
평균
하하하
했던
헬창
환경
휴먼
##이어
##아녀
##같으면
##나와
##오세요
##야겠어
##것가타
##어엉
##하느라
##한걸
##었습니다
##ㄲㅋㅋ
##갈까
##ㅈㄷ
##없음
##ㅣㅇ
##입니까
##란색
##마렵다
##쌤한테
##ㅏ아
##걸이
##엇는데
##준다고
##잡고
##잇음
##wp
##끝나
##ㅄㅄ
어떻게알았
그러면서
운동도
모르는데
사람을
##해야징
시간도
애들도
어디갔
다른애들
미쳤ㅋㅋㅋ
무슨소리
아니야ㅋㅋㅋ
그렇다
##그래서
안되는
보내고
밥먹으러
이해해
그랬으면
아파트
얼굴에
점심시간
필요해
미쳐가는
데이터가
귀엽다
##아아아앙
멘탈이
##stall
때려치
어쩌다
하기싫어
핸드시뮬
여러개
말도안
정신차려
수행평가
본부장님
트레이너
서비스
target
프론트
아나콘다
슷칼봇
1000
45
an
hwp
가는거
갑작
거임
고구마
공지
그쪽
글고
깔끔
넘무
노가리
눈을
대리
동네
뒤집
듣는
들가서
마이다스
몇시
무ㅜ
뭐하고
뭘까
발견
배터
보러
부러워
불가능
사면
살려
생성
서류
소장
손에
시뤄
쓰러
아아ㅏ
앞에서
어색
업뎃
없습니다
오이
욕을
이뻐
이한테
이것으로
이친구
있으
있네
있었어
점수
좋았
지건
지혜
찢어
체크
최소
출력
치면
치료
터지
토끼
풀업
하냐
하겠지
한거야
한시에
할래
합니다
##이잖아
##도착
##로는
##아버
##데요
##데이트
##보러
##보드
##했나
##여워
##하겠다
##한듯
##라스
##갈때
##갈듯
##자료
##셔야
##ㅠㅜㅜ
##할수있
##온거
##치가
##치료
##일반
##봐봐
##식을
##마리
##ㅏㅎ
##먹으러
##대서
##ㅌㅌ
##맞아
##났는데
##관계
##간당
이거는
생각하면
모르겟
하나는
이런게
어제도
수업이
수업을
무슨일이
이러면
처음에
##버렸네
누구한테
화이또
개발자
미안해
ㅇㅈㄹ
배고프
심심해
##애애ㅐ
거지같
창업일반
ㅋㅎㅋㅎㅋㅋㅋ
##ata
##ang
install
뭔일이야
생각해보니
오후에
이어폰
하지말자
ㅇㅈㅇㅈㅇ
아이패드
떡볶이
푸쉬업
가라
갈게
같다
같음
겨울
결정
기절
나야
나눠
나처럼
들으
따뜻
때리
랜덤
러스
레벨
마늘
말투
먹지
먹고싶어
먹는다
모를
뭐래ㅋㅋㅋ
바쁘
받을
부터
블랙
생긴
시리
쌤한테
안바
알차
없잖아
오오
이틀
이대로
이시간에
일요일에
입장
정답
조아
주면
죽이
편해
평가
학원
##기기
##만해
##꺼야
##하겠
##하신
##라ㅏ
##줘서
##였지
##였누
##일걸
##ㅣㅣ
##학습
##와써
##와중에
##ap
##우ㅏ
##md
##드려
##순간
##선물
##저씨
##sw
##65
##김에
##앞에
##카드
##빼고
##힘들어
##봅시다
내일도
들어가서
해야하나
##해야하는데
그게ㅋㅋㅋ
시간을
시간표
##어어엉
머리에
사진을
맛있어
안돼요
피곤하다
소설은
취업해서
찾아보
그럴수있어
당신은
돌아가
최고다
마음이
보여줘
먹을거
##지않아
뭐여ㅋㅋㅋ
개빡쳐
우선은
이용권
그딴거
모바일
판타지
1등
5시에
he
xml
ㅁㄹ
ㅣ발
간장
개같
걔네
경력
공사
과거
구름
귀신
나을듯
남았다
내놔
돌리고
되는거야
드림
마시
맞음
멸망
못해서
뭐하고있
박아
반대
받으면
방에서
보니
보는거
볼게
부탁
분석
산다
상담
생김
수요일
쉽게
쌤들
쓰는거
아깝
아는데
어쩐
어이가
여유
오는
외국
우오
의자
이로
인증
입니다
잇어
있던
잘거
전기
존경
죽겠다
증말
쪽팔
차피
찾아서
초록
초대
최근
카드
컴으로
코랩
크롬
터짐
튀어나
포함
한개
한가
해놓고
현재
화면
활동
##기분
##을라나
##왔엉
##의미
##래도
##무리
##지매
##야게
##했니
##버스
##혀서
##어ㅜ
##ㅋ자
##하ㅜ
##하겠지
##인게
##인건가
##었거든
##바지
##때가
##내고
##내용
##헤ㅔ
##드백
##준거
##19
##찾아
##환장
##찌개
##줬는데
##욜에
어떻게하누
##까지는
그런거임
공부해야되는데
사진이
몰라서
##ㄱㅋㄱㅋㅋ
일어남
##사람은
##새끼가
##것같음
나오는
##해보자
가져와
세상에
그정도면
나왔어
자세야
다이소
남자애들
상상도
새벽에
기다리는중
수면제
야야야ㅑ
sqld
2년
35
4장
4시에
5개
do
data
갈고
갔어
갔다가
개판
구워
그와중에
기준
끝냈
나두
나간다
날아
놀라
달달
담당
대환장
돈벌
동물
되나
딸기
맞나
머가
몇시간
바지
반도
백수
보다
보렴
봐서
봐보
비교
사무
사줘
사자
사촌
소중
손목
실화
싸발
쌉가능
쓸데
아라
아ㅏ
아지매
않다
않지
어지
어른
어따
업데이트
없으니까
열어
예약
오인격
의문
있습니다
자료
작업
잘라
잘잤
잠은
정해
좀비
주고
차가
초밥
표현
프리
하구
하는건
하고싶은데
하는건데
햇는데
화상
##이군
##기엔
##사는
##고기
##고야
##안남
##가루
##아빠
##러ㅑ
##오는
##래서
##만들어
##건지
##진않
##려다가
##운게
##거여
##거에요
##주지
##물어
##ㅜㅠㅜ
##인걸
##타임
##워크
##ㅎㄹ
##단말
##너ㅏ
##히힣
##루ㅏㅓ
##트가
##할수
##할걸
##교육
##크림
##ㄱㄱ
##ab
##ol
##먹어서
##양ㅇ
##졌는데
##ㅅㅅㅋㅅㅋ
##럽게
##랴고
##ㅐㅑ
##12
##노래
##든다
##졸려
아니에요
생각을
운동하자
운동해야되는데
##거같은
##이라구
모르겠지만
##하지않
들어갈
해야하는데
##인가요
시간에
##수있지
있어야
이상하게
응원함
에바ㅋㅋㅋ
##사람들
밥먹어야
##지는줄
고생이
##그러면
##버리면
말고도
누구야
별로야
점심은
##해주세요
치킨먹
##명이서
귀엽지
마음만
나왔는데
심심하면
##지않을까
다음주에
생겼어
왜저래
ㅋㅋㄱㅋㄱㅋㅋ
즐겨요
like
27
3주
4교시
60
cmd
js
or
pr
wh
ㅇㅅㅇ
가고싶
강아지
개시
것도
골라
공유
과연
구해
국룰
귀차
그분
그친구
그것만
기름
남음
내고
내말이
너를
놀러가
느려
됐어
되는건가
들었
마라
만원
맞는
맞추
멍충
메이
목이
몰래
몸에
못한
번역
사서
살까
새해
생활
서포터
설거지
속도
실제
싶으면
써야
썼어
씨게
안듣
않니
온다
으악
이찌
익명
임베
임마
있엉
자도
자퇴
잠이나
조회
죽을까
진자
진ㅋ자
집을
초기화
크시
팀원
팔아
하실
하드
하고싶다
했더니
호호
홈트
후회
훠훠
훨씬
##이거
##요ㅠㅠ
##지나
##보는데
##들을
##려워
##거랑
##에다
##어로
##봤자
##게써
##하실
##실에서
##구낭
##적은
##겼어
##말은
##바닥
##천원
##ㄴ나
##ㄴ느데
##할거같아
##속에
##런스
##일수도
##질듯
##되어
##그냥
##랬는데
##중인데
##ㅅㅋㅋ
##iv
##py
##카페
##웨어
ㅋㅋㅋ진짜
##는거여
어떻게하
##고있었는데
##해야겠어
수업시간에
미쳤네ㅋㅋㅋ
기분좋
응원하고
하는지
피곤해서
죽을거
프로그램
##아니고
카톡으로
12시에
가져오
안먹고
미치ㅋㅋㅋ
모르겠음
도착했어요
올라가
##이이이
뭔소리야ㅋㅋㅋ
이쁘게
##ace
빠르게
뭐라는거야ㅋㅋㅋ
최대한
드라이브
두배로
러스님
2명
2반
22
3분
8시에
com
ht
ㅎㅋ
ㅗㅜ
개쩌
거리
계산
교과
꿈에서
나무
나같으면
남아
넘게
넘어가
대기
대학
독점
돼지
땡큐
마렵다
말은
말씀
맛잇
모아서
물리
미니
믿어
밥도
배송
버리고
봉사
뿌듯
쉬어야
싶은
아가
아픔
안알
안됐
얘가
역겹
예뻐
오빠
용량
위로
으으으ㅡ
이만
일해라
자는
잡고
전혀
졸귀
졸려서
좀더
죽으
지도
지내
지옥
진지
진작
짱깨
참여
책상
취미
표정
하도
할듯
할아버
했으면
회귀
희망
##기간
##다는데
##시오
##안하고
##나지
##요ㅋㅋㅋ
##지네
##만나
##야ㅐ
##으신
##으론
##리게
##ter
##했누
##주의
##물이
##ㅜㅁ
##하당
##실에
##인생
##었다가
##때부터
##내가
##자야
##ㅇㅁ
##ㄴㄴ
##할라
##속에서
##없고
##없네
##부렀
##ㄱㅊ
##ew
##마트
##았다고
##날에
##르는
##허허
##위치
##써서
##ㅌㅋㅋ
##잤어
##완성
##엄마
##pl
##끝나고
##렌징
ㅋㅋㅋ왜
너무해
그래ㅋㅋㅋ
오늘부터
그러겠지
학교는
하나씩
이런것으로
아이고
어제는
##아ㅏ아
##정도는
괜찮은데
공부해야지
미쳤냐ㅋㅋㅋ
##하다니
있어도
아니라서
개웃겨
안보내
얘기를
집가고싶어
살아야지
아파서
모르겠고
##에에에ㅔ
마지막에
##아아아악
먹을게
다운받
하다만
해야되나
쉬는시간에
환장한다
자연어
할머니집
카카오페이지에서
타이밍
나머지
의식의
26
3년
500
6개
6시에
7시에
ju
te
감동
거절
결혼
고로
구매
급식
기사
깔아
내친구
냄새
너두
너희
누르면
단톡
동시에
드립
듣기
리더
말라
머기
머겅
먹는중
멀미
배우
보이는
부담
비번
빡쳐서
선배
쇠질
수술
아싸
아뉘
아쉬
안그
안떠
않는
않는데
앱프
얘들
여튼
예아
예상
외출
웃음
원하는
위해서
이도
이리
일반
자는데
잘나
적응
전엔
전부터
제목
조하
진화
창문
커엽
토마
하라는
하십쇼
한판
해봄
했음
했길래
행동
후에
##이를
##이거든
##있게
##해따
##안에
##가봐
##겠누
##겠다고
##서요
##오는데
##지는거
##지말고
##보면서
##리다
##주네
##ㅜㅠㅠ
##하겠네
##하거나
##인건
##상황
##었엉
##말이다
##난당
##때도
##내ㅑ
##자를
##울듯
##트를
##였다
##였네
##세지
##전이
##그거
##았지
##동네
##ㄹ아
##ㄹㅋㅋㅋ
##di
##우니까
##던거임
##먹어야
##대ㅋㅋㅋ
##조각
##미까
##45
##났다
##관리
##블릿
##별로
##볼겡
##간다고
##돌아가
##누구
##랜드
##연재
우리나라
생각해도
운동중
모르겠네
미친년
##는중이야
친구한테
##해야함
왜이럴까
10시에
몰라요
그렇고
문제지
보내주
##겠어요
눈물난다
뭐라도
고생했다
처음으로
인생을
나오지
##아니라
잘못했어
혼자서
기억도
고민이
다행이다
귀여운거
가져다
얼굴이
그만큼
##해주는
조져야지
##라이더
있었으면
배고프다
기대할게
##아파서
청소하고
무서운
오ㅑ그러
피부가
##일까요
불편해
하연이
작년에
확실히
양치하고
조와요
미쳤나봐ㅋㅋㅋ
유산소
2층
3시에
5명
70
9시에
ch
ㅅㄱ
ㅠㅜㅠ
가도
개좋아
건조
검정
광고
굴러
그놈
그전에
극혐
긍정
기부
기간
기침
기획
끌어
끝날
너넨
노동
늦었어
담배
도전
돈도
돈은
드니
들간다
들가면
등교
똑같은
마인드
막상
만날
말랑
말한거
멀쩡
모아
못했
못찾
뭐래
미용
민영쌤
보상
본인
봐줘
부정
붙여
빡친다
수능
쉬고
싶음
아플
아닙
안지
안옴
안한다
않냐
알게
없구나
연재
오바
오전에
왜구
우울
우와
유지
으윽
이사
이지랄
임태
입을
있던데
점호
조진다
좋습니다
주먹
죽고싶
진차
채용
출첵
카메
컨퍼
크아
클렌징
타입
태블릿
터질
특강
특별
판매
하고싶어
한정
할인
했거든
허헣
협박
흑흑
흥미
##이기
##이제
##이션
##이란다
##있었어
##기다
##을수
##해줄
##다다
##시야
##시게
##가면서
##겠구만
##아프다
##야됨
##보셈
##소개
##어는
##어라
##하군요
##점이
##ㅇ어
##새낀
##ㅓ야
##치기
##과제
##세계
##장은
##am
##as
##um
##ㅁㄹ
##op
##우스
##헤ㅎ
##랴ㅐ
##엇다
##프라이
##맞지
##올라
##청이
##레이터
##힘들
##패딩
아니잖아
ㅋㅋㅋㅅㅂ
##이야ㅋㅋㅋ
##하는건가
친구를
그럴만
그럴까
그럴리가
##해야해
##해야하지
##아ㅏㅇ
몰라ㅋㅋㅋ
그렇긴
힘들지
기분탓
안되서
다음엔
일어날
이러면서
일찍자
물어본
안좋은
##아아ㅏㅏ
얼굴을
안먹어
안먹었어
영화를
코드를
치킨을
##아아아ㅏㅇ
나왔다
##애애애
##애애애ㅐ
어려운
하고싶은
한국어
몰랐지
int
카트라이더
ㅋㅋㅋ아나ㅋㅋㅋ
노예야
##oom
시끄러워
신박한
안쓰고
죽여줘
자체가
먹으렴
어린이
모두가
소름돋
충분히
##부럽다
깜짝놀
얼어죽
target00
레벨업
어쩐지
갈고리
html
32
asm
df
xl
ㄱㅇㄱ
ㅁㄴㅇ
가위
가슴
같고
개쩔
개많아
걔랑
과일
괴롭
교환
구라
구런
구랭
귀환
기초
끝남
끝났어
끼고
나고
노는
놀고있
니네
닝겐
다를
달아
데스크
되냐
등짝
라벨
마셔
만렙
말려
말하
말한
맞는데
맥북
먹었다
멀티
며칠
몇몇
모습
못하면
문의
뭐죠
바라
방에
배워
버그
보지
보이지
볼만
부대
빠를
살아서
속상
스피
슬프다
습관
싫어서
심해
싸움
아으
안정
안전
안드
압수
약을
어후
어딜
어몽
어렵다
언급
없을
없으니
열고
은행
의견
이안
이라
이말
이쁜
인데
일은
일상
일상이
자르
자고싶
잔인
잘가
잘하고
잤다
존중
주문
죽는줄
지키
지나가
직전
쩔어
컨셉
크다
크게
클릭
킹정
태워
터트
터진다
테이블
퇴사
피해
필터
하더라
하길래
한두
함수
해보고
호호호
혼나
후기
휴대
##이ㅏ
##도도
##사나
##는대
##다닐
##니터
##시험
##안되
##가자
##러서
##정상
##지렁
##지는데
##리도
##들면
##들으면서
##했냐
##했던
##거싶
##주도
##에바
##어리
##어여
##봤을때
##화가
##인거지
##라미
##까봐
##바로
##자만
##자르
##신다
##ㅇ이
##스는
##ㅓㅏ
##울까
##애가
##였으면
##였구나
##흐흐
##국에
##냐ㅐ
##eb
##릴게
##당한
##먹었어
##짜나
##ㅌㅊ
##ks
##ic
##방학
##볼래
##님은
##누ㅋㅋㅋ
##머거
##쿄쿄
##놨는데
##언니
##됩니다
아니네
그러다가
운동이
운동이나
##까지야
미친새끼
친구야
언제가
어디에
다른건
##정도로
괜찮음
##수있어
미쳤지ㅋㅋㅋ
미쳤냐고ㅋㅋㅋ
몰라도
힘들어서
안돼ㅋㅋㅋ
##하네ㅋㅋㅋ
전화를
##버렸지
##하기로
졸려죽
가져가
##이스터
돌아댕
##이었나
##가야해
아프면
자기전에
잘자렴
기숙사에서
거지같은
레전드ㅋㅋㅋ
개웃기네
30분에
다운로드
다녀오
죽을거같아요
어깨가
에어팟
중요한
그리구
맞춰서
자러갑니다
##프로젝트
신경쓰
ㅋㅋㅋ미친
안된다고
못잤어
this
ㅁㅊㅋㅋㅋ
바나나우유
스테이크
교수님
응원하고요
asmr
3명
55
cl
ho
가린다
개욱
건가
관전
그동안
기달
기록
꺼져
끝이
나눈
나감
네트
놀랐
놀랍
놓고
늦잠
단체
당첨
대구
대표
뒤로
들으면
딥러닝
딴짓
똑똑
똑같이
레드
레몬
리눅
만화
매번
머가리
멀어
못봐
못감
문서
바뀐
바꾼
반쯤
발라
베란다
봅시당
사귀
삼각
성범
손이
스킨
스팀
시골
신났
싸가지
쓰지
아하
안한
안봄
안끝
안드로
않습니다
야식
야추
어짜
없었
없었어
에러가
염색
예배
오셨
올게
올리고
옮겨
왜ㅋㅋㅋ
으잉
의심
의욕
이력
이라고
인수
인났어
일기
있는게
있으니
자네
잘까
잠온다
재빈
저따
적어
전남
젠장
조진
조절
주소
주식
직업
쨋든
철봉
첫번째
촉촉
콜라
탈출
파마
파란색
팔이
페메
평생
풀고
하하
하얀
할건
할일
홍하
후딱
후하후
##03
##있나
##기전에
##시죠
##예정
##안하
##아ㅜ
##데기
##서여
##래ㅑ
##야겠
##야되
##으ㅏ
##보고있
##소설
##것네
##했구나
##했거든
##에만
##하루
##하넹
##하십쇼
##하려면
##수로
##라는거
##디오
##말랑
##때려
##히ㅣ
##신청
##새기
##ㅓㄱ
##트리스
##치네
##ㅗㄱ
##봐ㅋㅋㅋ
##ㄷㅋㅋㅋ
##영상
##냐구
##ail
##uck
##릴때
##았으면
##웃겨
##de
##졌으면
##ㅔㅔ
##위에
##ㅌㅋ
##피터
##미다
##케이스
##될듯
##옹ㅇ
##쓴ㄴ데
ㅋㅋㅋ이
그러니
그러는데
이거나
##시간이
아무래도
모르지
##한테도
친구는
해야할지
시간나면
어제부터
수업듣
괜찮은
##한다는
하기시
하기가
안해주
아침운동
아닌듯
고생했네
##하자마자
##아니냐
그럴수있징
안보이
##아아ㅏㄱ
그랬는데
너네는
발표자료
11시에
##이었음
개학하면
2020
2019
병신같은
##는걸까
자세다
한국사
힘드네
당연한거
사이트
힘내렴
만나면
온라인수업
그러게말이다
만드는
미래가
##시켜줘
방법이
##버릴까
인공능
ㄱㅊㄱㅊ
마크툽
##그랬어
여자애들
저러고
##ent
##한것인데
res
뭐먹지
주변에
고려해볼게
안더ㅐ
##ung
##thon
말도안된다
교과서
컨퍼런스
휴대폰
##이스터고
리눅스
어짜피
2교시
5일
con
my
nsw
us
wor
zoom
ㄱㄴ
ㄷㄷ
가려
가운데
개오
개어
개많
거부
걸렸
격리
고장
공개
과자
괜차
괜찬
구경
그쯤
그다음
근손
깨끗
꾸준
끊어
남았어
네모
노잼
놀다
다해
단백
당당
돼서
됐다
뒤척
따땃
리스트
마시고
만나서
많지
많음
머거
먹은
몇명
모의
모자
몸은
몹시
못할
뭐랄까
미뤄
받은
배달
버리
버려
베라
별거
보셈
보세요
보이면
보인다
복사
봤다
비빔
빠져
뽑아
사인
생코
성인
성격
순서
스크
슬슬
신호
싶었는데
씨샵
아임
아메
아우
아뮤
아미친
안열
안하지
안하는게
않어
않은데
알면
알앗
알겠습니다
어니
어휴
언능
엄빠
엘베
영광
요약
우우
원본
위치
이랬
있자너
있나요
자괴
자극
자는건
작은
잘찍
잠와
장재
제재
제품
조짐
좋겠어
죠랄
짐싸
짱친
찍어서
처럼
초반
추억
쿠키
쿠팡
텍본
통화
퇴화
피드백
하니
할줄
할말이
해줄게
했니
현금
환영
##이즈
##이팅
##이었는데
##이래ㅋㅋㅋ
##80
##도가
##롤로
##있냐
##을땐
##해준
##다운
##시발
##안함
##가도
##가다
##가고싶다
##아라
##아픔
##왔네
##러ㅏㅜ
##정을
##정리
##지금
##만명
##야겠네
##들의
##버거
##여행
##주라
##게따
##하여
##하던데
##인트
##한가
##음밥
##함ㅋㅋㅋ
##ㅎㅁ
##갈비
##때매
##자의
##자야지
##신이
##신기
##신데
##ㅈㄴ
##받는
##치게
##과목
##와따
##능력
##쪽이
##쪽에
##js
##ak
##es
##줄수
##집니다
##중이
##대고
##분을
##박스
##겟네
##ㅐㄹ
##값이
##ig
##lo
##방이
##놔서
##본적
##놓으면
##간거
##립니다
##겁니까
##언제
##넣고
##폭탄
##는데요
ㅋㅋㅋ잘
ㅋㅋㅋ오
ㅋㅋㅋ어
ㅋㅋㅋ나도
오늘의
그런것
##거야ㅋㅋㅋ
##하는겨
그러진
이거를
생각해봐
운동하면
사람도
사람의
아직은
하나가
그럴듯
해야할까
언제부터
좋아요
좋아할
##ㅅㅋㄱㅋㄱㅋ
미쳤나
저거는
정신병
하기로
원래는
보내면
에바야ㅋㅋㅋ
싫어요
나오는데
카톡을
만들면
느낌이야
다행이구나
누가봐도
집가면
집가는
##이고만
시험공부
행복한
필요하면
사라짐
해봐야지
##레이션
20개
뭐하니
어떤거
##버려야지
왜그러지
왜그러세요
##이이이ㅣ
몰랐음
긱사에서
의미가
못하겠다
15분
왜그랭
갔다와
한달에
##일어나서
ㅇㅋㅇㅋ
업서요
할수있어
일어났는데
누군가
체육복
인간관계
자동완성
##보이는데
ㅋㅋㅋㄱㅋㄱㅋㅋㅋ
뒹굴거리
강제로
뛰어내
python
이후로
배터리
간장계란
독점연재
말랑말랑
안드로이드
이력서
단백질
자괴감
010
1차
29
400
90
9월
go
jav
pu
pip
ㅎㅇ
ㅏㅇ
ㅜㅜㅜ
가디
가입
간당
강훈
개이
개잘
걔도
거야
거짓
걸러
걸릴
계약
고개
고등학교
굴려
귀가
귀찬
글러
기운
꺼내
날짜
남은
내면
내려서
넣으면
네프
논문
놀았
눈썹
느낀
늦지
달라서
담주
답을
대가
대한
도로
독서
되서
되긴
들이
들은
들었어
들으면서
띄워
레이
롱패딩
마무리
많고
많으면
말구
말해봐
먹을까
모으
못들
못봤
무수
문학
물구나
뭐해ㅋㅋㅋ
미아
민증
박고
반배
반팔
받아서
배부
보려고
복붙
볼때마다
봤지
분야
불지
빠지
빠꾸
빡침
사와
사마
살면서
상쾌
샐러
생겨
선도
세수
세럼
센세
손톱
스포
슷님이
시이
시켰
식빵
아오
안고
안주
안줘
안갔
안하는데
안난다
안오면
알수가
야야ㅑ
양파
어어
어뵤
어머니
에너
엔딩
오고
오븐
옷을
왜인지
유명
음소
음식
이자
이참
일년
일있어서
입으면
잘때
잘하는
잘했다
저정도
전자
전쟁
제정신
조건
졸사
졸령
좋을
주제
죽기
지워
지우
찐따
차려
참아
청년
쳐들어
초콜
치과
컬러
케이스
코리
키보드
태어
피건
필수
핑크
하려면
할거임
해명
해봤
해준
해줌
해킹
했지만
##이구
##로운
##면증
##해질
##해져서
##해줄게
##다ㅏ
##고시
##가네
##아도
##데이터
##나와서
##오는거
##코딩
##으려
##으셈
##보지
##보소
##보임
##보ㅓ
##보세요
##리카
##게노
##달에
##하래
##하고싶어
##인뎅
##인지는
##한단다
##적이야
##말해
##너ㅜ
##ㄴㅁ
##른다
##일거야
##합시다
##ㄷㄱ
##ㄷㄹ
##부가
##부지
##쪽은
##쪽으로
##ui
##알고
##ㅁ자
##았나
##쌤이랑
##ㅏ아ㅏ
##날이
##먹자
##먹었는데
##체가
##배추
##드러
##드만
##조라
##조절
##피스
##미널
##kf
##뒤로
##방법
##엔딩
##sf
##매ㅑ
##ㅆ다
##싳다
##떨어
##머겅
##ㅝㅏ
##앞에서
##봅니다
##산다
##읍니다
##얘기
##햌ㅅ
내가봤을때
어떻게하니
##인데요
이거지
생각나
내일까지
##이지롱
친구도
들어야
##해야하나
어디인데
10만원
맛있는
에바지
이번시간
게임이
안해요
싫어하는
눈물만
나가야지
나오고
먹어도
찾아봐
##ㅎㅋㅎ
##아아ㅏㅇ
버스타고
##리는구나
거의다
아까워
살아있어
안먹음
영화관
##해주고
데이터를
동생은
있었음
죽어라
##다는걸
개학연
최고지
부럽따
포기하고
##으으으
##하시네
무엇인지
확인해
내려가
걱정하지마
고맙구나
할거면
아쉽게도
고통스럽다
##일어남
##하하하ㅏ
하연이랑
이럴때
##ray
화내지마
##하기싫다
##oney
헤헤헤ㅔ
잠시만
어떻게알았누
##셔야죠
알차게
head
실제로
할아버지
자연어처리
ㄱㅇㄱㅋㅋㅋ
라벨링
java
음소거
이참에
1주일
3월
ar
ab
al
ap
fr
get
gpu
log
np
ㅆㄱㄴ
ㅏㄴ
ㅣㅇ
가게
갈구
감시
같기도
개똥
개많이
개무서
건너
걸려서
걸어가
검은
경험
고소
공포
교재
그린
김재
까먹음
끝까지
날림
남았는데
너어
놀래
놀랬
놑북
눈감
늦은
다리가
답장
돈많
되었다
된다고
드리
등록
뜨거
런닝
레게노
리턴
마트
마치
마저
마우스
말해도
멍때
메일
멘션
모루
모니터
몸을
못쓰
못잔
못했어
못했네
물음
뮤ㅓ
미쳣
밀어
바르
바늘
바쁜
방과
배는
배열
배아파
버전
본다
비정상
빡세
사야지
살면
살게
삼성
삽질
생겨서
소스
씻어
아퍼
아리가
아저씨
안잘
안봤
안갈
안입
안감
안본
안보고
안만들
앉아서
않았는데
알겠
알바
암호
약탈
양식
양배추
어서
엊그
열려
옆구리
오히
오오오
올린
올렸
와우
왜가
요청
우주
유일
으어어
의도
이득
이딴
인제
읽씹
잃어
있는거야
있는건
자율
잘했네
잼민
저래
저새끼
적어도
전문
좀이따
좋긴
주사
죽어서
죽었어
죽고싶다
줄어
즐길
직장
집안
차리
찾으면
크런
태그
토욜
특히
파스
파티
패턴
포커
폰은
폴더
프린
피가
할말
해라
핵폭탄
햄버거
했잖아
헤헤
형찬
호로
회복
후리스
휴가
히히히
힘듦
##이게
##이든
##도우
##로도
##있다가
##해진다
##니ㅋㅋ
##시국에
##가져
##아침
##정은
##오자
##오ㅗ
##으셨
##보기
##보고싶
##보고싶다
##리퍼
##리는게
##생님
##생김
##했습니다
##했으니까
##여지
##주세여
##ㅜㅍ
##하고싶은데
##구먼
##라며
##열심히
##바이
##바디
##용ㅇ
##ㅛ네
##자도
##신고
##ㄴ어
##ㄴ우
##스티
##온다고
##치마
##색이
##세효
##일이야
##더랑
##학기
##질거같아
##영이
##반응
##되네
##그럼
##ba
##설명
##마개
##마디
##ㅏ후
##집에서
##눈물
##nd
##르ㅡ
##던거같은데
##먹기
##갔다가
##졌네
##허브
##대요
##번에
##준이
##ib
##왓어
##청소
##얼굴
##놨어
##귀찮
##줬으면
##놈이
##렀다
##99
##품이
##먼저
##캠프
그래야겠다
그거랑
##하는것
##하는구나
그러네
생각하는
운동해
##거같애
해야될
ㄹㅇㅋㅋㅋ
어디까지
나는구나
좋아함
공부중
10명
재밌음
그렇군
##그래ㅋㅋㅋ
##소리가
##한거임
여기까지
맛있는데
##이네ㅋㅋㅋ
##것같아서
안나가
거기에
##같은게
있는지
그랬나
너네도
##할게요
스트리
자기소개
어쩌고
##ort
학교가기싫다
한국인
안들려
##ate
걱정마
못하겠
비슷한
내용이
##이였는데
알았지
저기서
생기면
하늘이
힘든데
stu
ㅋㅋㅋㄱㅋㄱㅋㅋ
안더ㅣ
##웃기네ㅋㅋㅋ
##아닌데
##라우드
라이브러리
미치겠네ㅋㅋㅋ
와이파이
최근에
사무직
미용실
카메라
필터링
네트워크
놀랍게도
근손실
간장계란밥
사마귀
방과후
아리가또
1개
1반
be
dog
if
new
ui
url
ㄱㄱ
ㅜ머
ㅡㄱ
감고
개터
개빨
개싫어
개피곤
거점
게이
경우
계곡
고정
고인
고치
고3
고추
구러
구분
귀마개
규렁
그로
글쎄
급하게
기술
김밥
까먹고
깼어
끝난
끝이야
나요
날로
날려
남겨
놀았어
높아
누우면
느그
늘어나
능력
늦었
다함
단점
달고
대부분
덕분에
데바
된거지
뜬금
말하기
말하니까
말하는거야
맞네
머신
명령
몇일
몇분
못잠
못봄
못할듯
못알아
무지
무한
뭐하지
바래
반대로
받음
받았는데
발목
베이
보네
보통
보고싶다
보고있는데
복부
부계
불면증
비싼
빵빵
사야
사전
살이
살빼
선넘
소문
손님
쉬자
슬리퍼
시비
시점
시2
시즌
신천
싫다고
심한
쌍욕
아버
안조
안깨
안친
안썼
안한거
안하고있
안받아
안그러면
않으면
어두
언니가
연동
영원
오는거
오셔서
요새
위에서
으읅
으림도
응ㅇ
이를
이마
이쯤
이왕
일러
입이
입사
있단다
자고싶은데
작가
잠도
잠든
접속
정치
제로
제공
조졌어
졸린
좋겠네
주는
주지
주피터
죽는
죽음
준거
줄여
지역
집은
짜장
찐으로
찾았
천재
퇴원
튜토리
트러
패드
편집
평화
포토
하진
학겨
했던거
형이
화해
확장
효효
##증나
##이당
##01
##도는
##로워
##있으니까
##기보단
##을것
##을수가
##고가
##니더
##시기
##시는데
##겠징
##러ㅜ
##러스
##잘못
##나ㅓ
##오렴
##은걸
##만드
##야해서
##보안
##보냈
##보이는
##것들
##운드
##거니
##어디
##어때
##성을
##성은
##군데
##하거
##하심
##하군
##하ㅓ
##하길래
##하냐고
##인계
##상담
##좋다
##린다고
##라다가
##음에
##겼다
##었더니
##단당
##단계
##바바
##갈거야
##ㅛㅓ
##ㅛㅣ
##내서
##자서
##스턴
##스탠
##받음
##받으면
##할것
##할거임
##할텐데
##애들이
##교시에
##된다고
##없다고
##모드
##런ㅇ
##질까
##부다
##그그
##알지
##마저
##당함
##ost
##웅ㅇ
##중에서
##던지
##져요
##양이
##럽다
##따위
##23
##프레
##뒤지
##올까
##잇지
##방에서
##경우
##ht
##호ㅗ
##움직
##케어
##든데
##밤바
##끄러
##페이스
##웡ㅇ
##렐라
##쟁이
##캐시
##쨋든
아니요
ㅋㅋㅋ뭐
ㅋㅋㅋㄱㅋ
ㅋㅋㅋㅇㅋ
그래프
오늘자
우리엄마
##라고ㅋㅋㅋ
생각은
생각나서
##거같지
모르니까
##고있어서
해야하지
이런느낌
##인가봐
사진은
재밌는
이상한데
안되는거야
다음화
하는것도
소설이
죽을라
뭐라는지
##하자고
뭔가를
물어보고
처음이야
조금이라도
느낌으로
123
개웃김
고양이나
고양이가
다행이지
노래가
너네가
연락이
그만해
소리를
고양이는
고양이를
##라이브
죽어도
##레이징
디코에
##ind
마지막으로
왜그래ㅋㅋ
##이이ㅣ
심심해서
##하니깐
이유는
이유를
##하시는
근육이
무엇일까요
청소기
떨어짐
떨어져
학습을
다녀와
생일선물
아쉽다
이번주는
왜그랬
왜그렇게
추천좀
##아ㅓㅜ
자신감
##일어났
다리찢
여러분
여러번
개인적으로
##스러움
##버린거야
40분에
안봐서
기업가
자취하면
왜이래ㅋㅋ
정신차리
아픈데
##이로구나
개귀엽
눌러서
어떡함
##헤헤헤ㅎ
이것이
즐거워
악마야
틀어놓고
역겨워
언젠간
초딩때
진지하게
##0311
가디건
거짓말
물구나무
샐러드
초콜릿
##리카노
너어무
물음표
오히려
데바데
튜토리얼
1인
2일
2만원
38
3세트
4월
4번
5시간
6월
6교시
75
dm
it
money
not
pl
tra
가봐
가는게
가고있
가기싫
간디
갈궈
감이
갑니다
개신
개맛
개병신
개미쳤
거울
게다가
교통
귀요
그렁
길어
깃허브
꺄아아아ㅏ
꼰대
꿀꺽
꿈을
나을
나주
나에게
난리를
날이
너밖에
너에게
넣어야
노랑
논다
놀면서
놀았다
늘어
닥터
단순
답도
대장님
덥다
데리고
도시
돈가
돌리면
되네
되고싶
두달
뒤틀
뒤에서
듀ㅣ
듣는중
들어서
등신
디게
떄려
떡락
런타임
마이스터고
만ㄹ
말안
맛없
맞춤
먹기
먹는거
멀랑
멋진
메뉴
목걸이
못찍
못했다
뭘로
미루
미련
미역
미챴
민트
민망
바다
바뀌
바꿈
반년
반톡
받는
방향
배웠
배추
버튼
보충
본인이
봐주
봐바
부숴
분위
불안
붙어
블로그
비벼
빡친
뿌려
사러
사감
사고싶
산업
소화
손으로
송정
수분
순삭
숨쉬
시뮬
신데
실망
아팠
아아아
아는게
안심
안뜨
안괜
안씀
안하네
않네
알겠어
약먹고
어떨
어떠
어쨋든
언더
없군
없자나
엽이
예쁜
오져
오는데
와장
왠지
울지마
위한
유튭
으엉
으메이징
이지
이때
이렇
인소
일정
입어
있구나
있길래
있자나
자게
자전
자써
잘하면
잘모르
재능
재료
저때
전자기
정장
졸ㄹ
좋네
줄까
중에
지각
지식
직전에
집착
집이나
짜릿
찍은
찬성
찾음
채널
챗봇
초등학교
커서
커플
컴터
터진
토너
틀고
팀플
파파
팔굽
패스
팩트
편함
하래
하필
하던데
한것
한끼
한입
한줄
합시다
해외
해봤는데
헤드
홍보
후후
##도안
##도를
##있니
##있다고
##기때문에
##항항
##을지
##개발
##사리
##사누
##면접
##가입
##겠냐
##겠넹
##겠구나
##아악
##아ㅣ
##아웃
##정으로
##나다
##나무
##나는데
##오네
##근이
##요ㅎㅎ
##지는게
##으라
##으려나
##보네
##리ㅏ
##것처럼
##했다가
##혀있
##거고
##어져
##어ㅏㅜ
##게찌
##ㅜ테
##화까지
##하세여
##실러
##인간
##인다고
##앙ㅇ
##구야
##발표
##디코
##었누
##었잖아
##말까
##용으로
##내려
##자낭
##끼고
##된대
##치킨
##뇌가
##와도
##부로
##셨어요
##ㅡㅇ
##ed
##줄겡
##줄거야
##줄알았
##작업
##눈뎅
##우ㅏㅓ
##중간
##던거야
##먹은
##먹는다
##키우
##ㅔㅇ
##ㅅ지
##대가
##대를
##체크
##십시오
##박고
##느냐
##드리고
##13
##미가
##됐다
##됐네
##kg
##yp
##픈데
##롭게
##유가
##렸지
##저것
##엔가
##길에
##놓은
##호ㅎ
##매일
##겁니다
##테이
##테니까
##끝내
##궁금
##므로
##ver
아니었어
아니란다
ㅋㅋㅋ하
ㅋㅋㅋ너
ㅋㅋㅋ그래
##는거잖아
##는거같아
너무하네
너무좋아
그거를
그거때문에
##하는것도
생각하고
운동함
운동한다
학교갈
내일이
모르면
사람이야
##는거야ㅋㅋㅋ
들어갔
##고있었어
그럴때
##해야되
이게뭐
아이작
아이템
좋아하는데
##아ㅏ아ㅏ
괜찮다
괜찮니
공부는
공부하고
##한다면
##한다구
사실상
10번
정신과
재밌엉
기분이가
하자고
안되네
##은거임
여기는
맛있음
안돼서
하는구나
이번달
##하네요
게임은
##보다는
취업해야지
##ㅜㅜㅠ
나가고
##하자나
##하자너
물어보면
##것같다
##것같은
하루가
나오네
안나옴
이해를
카톡이
##해보세요
조금만
안보임
얘기해
노래를
버스가
버스타
버스에서
이름을
이름은
이름만
과제를
살아있다
씻고올게
연락을
노트북이
필요한
할게요
짜증이
##이었구나
##다는줄
파이팅
못해요
인정합니다
제출함
##할때마다
잘자룜
기숙사에
##으으으ㅡ
거지같아
자야게
자야징
자야겠어
몰랐어
사이즈
미친놈인가
의미에서
##야야야
뭔일로
말해줘
##먹을거야
이번주에
않았을까
상관없
이쁘다
상황이
모르게따
만든거
페북에
개꿀잼ㅋㅋㅋ
다르게
수고하시고
어쩔수없
노드를
빡치네
누군지
김치찌개
날씨가
납치당
당황스럽
글씨가
안내려
##ㄷㅋㄷㅋㅋㅋ
your
가까이
##상태로
안사라
이것저것
##웃기네
나이키
곤란해
##줄알고
개너무해ㅋㅋㅋ
##재밌어
마법의
신입생
tran
도움이
플레이어
##였던것
imp
바닥에
후려갈
스타일
회원가입
아조시
무슨소리야
미쳐가는구만
지혜쌤
초록색
그놈의
##새낀가
데스크탑
어몽어
인수인계
전남친
홍하연
인공능지
꾸준히
아뮤튼
ㅎㅇㅌ
에너지
개학연기
빡세게
엊그제
호로록
영원히
팔굽혀
1달
1일
1세트
2배
2세트
33
5월
59
8월
ad
fi
fit
git
jo
ma
sal
tpu
tail
up
ver
wm
가을
가리
가상
가깝
감정
개놀
개념
개같은
걸리
걸림
것으로
고백
고르
공감
관계
관짝
교정
구치
구현
구질
구조
그는
그땐
그중에
근력
까지
깨워
꼬리
꼬마
꼬맹
꽂아
꿈꾸
끄고
나좀
낫다
내리
넘쳐
놀게
농담
다했다
다같이
달빛
닭갈비
대면
대운
대상
더럽
도ㅑ
돈으로
동안
동숲
됐는데
되니까
되냐고
될까
될거야
두시
뒤지고
뒷목
듣고있
딱딱
랭커
류나
마감
만남
말하지
맛집
맞고
맞어
맞짱
맞겠지
멈춰
모양
모인지
못본
못하는데
무거
무난
뭐니
뭐했
뭐하면서
뭔시간
바이
바른
받도록
발음
밤새
방송
배불
배부르
백업
밴드
버텨
벌레
변수
변경
별루
보드
보십쇼
부를
불어
비율
빡시게
빨라
사망
사는게
살다
살자
상체
생명
생길
생크림
세개
소금
속이
쇼핑
수치
쉬어야지
스티
스펙
스토
스르륵
스프라이
시각
시킨
신체
실종
심장이
쌤이랑
써야지
쓰는데
쓸모
씨ㅋㅋㅋ
아ㅓ
아픕
아시는
안다
안스
안잡
안하는거
안와서
안듣고
앞머리
얌전
어딘
얻어
업무
없징
없는게
여섯
예를
오라
오키
오프
오셈
오토
오라고
와따
와플
울어
웹은
윈도우
으어어ㅓ
윽엑
음악
의사
이예
이태
이새
인가
인지
일도
입학
입원
잇는데
있거든
자는거야
자러가
잘생
잘그
잤지
장점
장애
재원이
정문
졸린데
주거
주워
죽은
죽진
준선
증명
지굼
지켜
지급
진동
집어
찜질
찝찝
참치
찾았다
천마
친절
케라스
키워
키크
테트리스
투자
트위
티비
파우
판단
포트
푸항항
풀려
하누
하던가
하하ㅏ
한건
할때마다
합법
해볼
해ㅋㅋㅋ
확정
회색
힐링
힘을
##롤ㄹ
##있더라
##기능
##을뿐
##사항
##사러
##사님
##해지는
##해보고
##해놓고
##해지면
##는가
##니ㅏㅇ
##시로
##아누
##아닐
##왔당
##서는
##정보
##나간다
##오기
##오라
##오옹
##무나
##무슨
##지야
##지에
##지우
##으세요
##보라
##보니깐
##리스트
##들겨
##네ㅎㅎ
##ts
##버전
##버ㅏ
##거루
##거장
##주소
##에여
##어를
##ㅜㅅ
##하거든
##하겠습니다
##한겨
##좋은
##구는
##라ㅣ
##디션
##ㅎㅇ
##었구나
##단지
##ㅛ지
##줘요
##ㅇㄷ
##ㄴㄹ
##스템
##받았
##받아서
##할뻔
##할겡
##할거같은데
##할수가
##애랑
##속으로
##치를
##흐히
##합니까
##란체
##부리
##셨어
##rue
##ag
##ass
##마스
##ㅏㅂ
##눈중
##헤헿
##양반
##졌지
##걸림
##대회
##써야
##겟음
##쓰기
##센터
##불편
##43
##남음
##남았
##if
##잔아
##ㅍㅇ
##쒀여
##레스팅
##경이
##qkf
##엄청
##ㅕㄴ
##ㅆ는데
##누나
##머신
##못함
##축하
##렀어
##렀는데
##씁니다
아니지만
아니근데
ㅋㅋㅋ큐
ㅋㅋㅋ뭔
##는거고
##는거라
##는거시야
오늘까지
##고싶네
##고싶었어
그런사람
이제는
그거로
그러고싶
##다가도
생각난
생각하지
운동하
운동하는
학교로
##이라는데
##이라니까
##들어가
사람들은
아직까지
들어왔
들어가야
들어갔는데
##고있다
그럴걸
그럴땐
해야함
해야하는
그건가
##해야되지
다시한번
##었어요
시간은
괜찮은거
정신적으로
재밌는데
그렇군요
문제를
힘들듯
하자있
##소리야
안되나
안되냐
안되는거
보내줄게
시발련
응원합니다
다음시간
하는걸
일어났어
##이네요
##사람도
아닌거
취업은
취업하고
뭐라하지
좋은거야
이러다
고생했
##있어요
물어볼
하루만
나오니까
안나요
알아야
잘못해서
먹어써
##버리는
안좋으면
시작도
##하기도
다행히
화이트
웹툰이
웹툰도
웹툰을
노트북으로
프로젝트를
미쳐버리
당신이
저번주
있었지
대단한
벌써부터
세상에서
해봐야
##하고있는데
##기로함
병원가
괜찮아지
같은반
뭐하냐
뭐하다가
뭐하는거야
그정도로
아빠랑
##버려써
##장님이
정도로
있을지
##하시면
무엇을
궁금한거
##ㅇㅇㅇ
들가렴
인나면
재미없
하고싶었는데
하고싶은거
해주세요
100개
영어로
inpl
안들어가
설명을
아래가
해야되지
한명은
애매해
노예가
미래의
그럴수이찌
시끄럽
왜저러
나온거
안할래
##스러운
사랑해
인났다
도와주
체육관
ㅋㅋㅋ미쳤
정확히
한글로
한글파일
할머니댁
개귀여
개귀여워
샤워하고
교육청
뒹굴거
shap
좋겠음
오래걸려
모른다
ㅋㅋㅋㅇㅈㅇㅈ
어이없어
안올라
##aver
해여지
미쳤구나ㅋㅋㅋ
24시간
언젠가
터졌으면
true
주인공이
그랴서
본부장님이
깔끔하게
나눠서
프리미
진작에
한두번
의욕이
nsw0311
아메리카노
아미친ㅋㅋㅋ
장재원
반배정
##sfor
시2발
포토샵
미역국
자전거
##테이토
구질구
shape
2월
2분
2000
3교시
3주차
5년
5000
b양
ct
dj
fuck
gg
gun
kd
sss
web
ㄹㄱㄴ
ㅇ으
ㅇㄹ
ㅇ누
ㅈㄹ
ㅓㄴ
ㅣㅂ
가려고
간나
간다고
갈때
개운
개구
걔한테
거실
거긴
거슬
거즘
건물
겠다
고래
고문
과외
교장
구멍
권한
그라
그립
그새끼
극단
글로
기적
길게
깔고
깜빡
깼다
끝나서
나태
날렸
남았네
낭비
내로
내부
내돈
내맘
냥이
넘기
넘겨
넣어서
녹는다
놀지
놀고싶다
누난
다섯
단발
당근
덕질
도커
돌고
돌려서
되겠다
되는게
되잖아
된거야
들면
들감
또라이
랭킹
리액
마인
마침
많았
말로
말함
말넘
맞으면
매니
매직
매쉬
머갈
먹을때
메가
메리
못하는거
못봤어
무기
물을
뭐냐고
뭔데
반장
반환
밥이
배드
베이스
병특
보고싶어
본적
볼까
부반
불법
붙이고
빌어
빡칠
빼면
사양
산학
살살
살찌
샀다
상의
생존
생산
서브
설탕
수강
쉬었다가
쉽지
슈발
시계
신이
신난당
싫고
쓰자
쓰는게
씹어
안왔
안타
안말
안ㄹ
안켜
안에서
안할거
안돌아
않게
않는다
알았다
알겠는데
암살
애를
앱은
어ㅏ
어째
에반
에그
여친
역할
영향
옆으로
오버
올림
올린거
왜안
운영
웹디
으아아
으우우
으어어ㅓㅇ
읎어
의무
이의
이중
이빨
이사람
이말이야
이것만
인난
인날
인바디
입술
잇음
있을듯
자가
자지
자를
자제
자본
자는게
작품
잘했
잠오
잠들어
장인
저주
저한테
전설
전까지
정모
조사
조큼
졸라
좋아서
준다
줄여서
중량
지들
지루
진ㅁ자
질러
집으로
집이야
짧게
쪼개
찍을
차타고
책이
책임
체험
친한
카레
캥거루
컨실러
텐서
톡을
파스타
패딩
편지
폰도
풀로
프레
플란체
하죠
하느
하겠다
하겠습니다
한겨
한마디
합성
해피
해본
해가지고
했자너
허브
허무
허벅
호랑
환승
후라이
흔들
##이겠지
##명은
##도독
##을떄
##사지
##사를
##사삭
##사이트
##해선
##다시
##다리
##아ㅡ
##아조
##같지
##은지
##만족
##으십쇼
##보냄
##보려고
##보인다
##진듯
##진거야
##리야
##리에
##리어
##파티
##소가
##소린
##했고
##여도
##여ㅕ
##여ㅋㅋㅋ
##거등
##주가
##에스
##에엥
##어울
##물을
##봤다
##하느
##하핳
##비싸
##인정
##터는
##타는
##타타
##임ㅋㅋㅋ
##수잇
##라이스
##라던가
##죽어
##ㅎ다
##었고
##바꿔
##갈아
##떻게
##문자
##자면
##자꾸
##점을
##ㅇ르
##ㅓㅓ
##ㅓㄴㅇ
##받은
##애ㅗ
##갓도
##속성
##치즈
##제출
##크크
##ㅣㅈ
##더라고요
##ㅗ바
##ㅗㄹ
##와야지
##장을
##ㄷㄷ
##부러
##셨다
##셨나
##셨네
##찍고
##그라
##그치
##그릇
##ring
##ast
##xy
##bl
##bs
##알았어
##마렵
##듯한
##았니
##당ㅎㅎ
##ㅏㄴㅇ
##ㄹㅋㅋ
##집이
##웠음
##웠는데
##dk
##naver
##ㅑㅑ
##ㅑㅐ
##우러
##우너
##우라ㅓ
##먹을까
##갔네
##졌다고
##처넌
##ce
##code
##녀석
##대기
##결과
##링클
##십분
##쓰면
##쓰는
##두면
##ㅐㅇ
##차가
##포크
##답다
##id
##iz
##맞고
##많아서
##롭다
##유도
##ㅍㄴ
##77
##볼께
##볼거야
##벌레
##후에
##필요
##활동
##폴리오
##머스
##머리가
##긋다
##께서
##든가
##든지
##형이랑
##틀어
##앗어
##채로
##텔라
##볶음밥
##둔거
##릅니다
##ve
##캬캬
아니니까
##는거면
그런지
지금부터
어떻게사누
##ㅎㅎㅋ
그거도
우리학년
그러긴
그러고싶다
##겠다는
생각했
생각함
학교가서
학교가면
##거같고
##거같긴
하고잇
##이라면
모르겟다
##하지말
미친게
미친넘
사람한테
뭐야ㅋㅋ
들어도
들어올
들어가는
##고있었다
해야해
##해야겠네
##해야되나
그렇게까진
언제적
한번더
##ㅅㅋㄱㅋ
머리도
머리아파
##더라도
공부도
10년
재밌겠다
아니야ㅋㅋ
그렇습니다
##그래밍
안되고
보내준
여기도
여기가
맛있지
맛있었
귀찮은데
하는것으로
##어야돼
엄마아빠
취업을
취업할
취업하면
이러다가
물어봤
잘못된
##버리고싶다
말고는
찾아볼게
만들었
12번
자살이
##지도않
만들어야
##는다는
과제는
졸려요
연락처
기다리고
점심시간에
노트북을
필요가
모르겠엉
프로젝트가
돌아다니
해보셈
한다면
죽어가
##이었던거임
##으니깐
##기도하고
##아아아ㅏㅏ
##ong
아빠한테
왜그러니
왜그러는데
기대해
어쩌라고
##하시네요
ㅎㅎㅎㅎㅎ
궁금해서
선생이
회사가
먹었지
안가고
못자서
사이에
조지는중
미친놈들
미친놈아ㅋㅋㅋ
100점
의미로
하고있는데
고마웡
비슷한거
온라인으로
현실은
20분에
##이라니ㅋㅋㅋ
보냈는데
않았나
불러서
고통받
모르게써
먹어야징
새끼가
전공캠프
신박하게
##reba
부모님이
인공눈물
난리치
시원한
위험해
위험한
##그랬는데
때문이지
정보보안
##해여지
누웠는데
오래걸리
올해는
##헤헤헤ㅔ
조와용
여름방학
예쁘게
vscode
##나보네
아무생각없이
가르쳐
완벽한
부끄러
for문
근처에
##ㅄㅄㅄ
때려치자
노가리까
과거의
의자에
입니다희
미니게임
기부니가
스피커
hoxy
단체로
저따위로
reset
선도부
api
돈많은
스트리머
머신러닝
트러블
train
돈가스
분위기
transfor
import
어몽어스
스티커
오프라인
정문정
포트폴리오
ctrl
말넘심
##rebase
2차
3대
31
78
aw
gui
to
xd
ㅇㅁ
ㅋㄱ
ㅠㅜ
가정
가진
가루
가셈
가렴
가는거야
가고싶어
감각
같으면
개싫
개슬
개같네
갠프
갤러리
걔는
게시
고파
고쳤
골드
공구
공간
과정
과학
구냥
그랫
그거야
그생각
그뒤로
금요일에
기도
기어
기상
긴장
까고
꿈에
끈기
나라
나중
나온다
나은듯
날리
날린
날리고
내기
너야
너보다
너ㅜㅁ
넓은
노지
노션
녹아
놀까
농협
놓침
누락
늦었다
니도
다닌
다크
달리
던지고
덤벨
돌았
동갑
동윤
됐지
되나요
두명
둘중
드래
듣기만
들었는데
디비
따라서
땡쿠
뛰면
러닝
룰렛
리뷰
마루
마렵
마세요
만점
만져
만났
말이지
맛은
맞을
맞을걸
매트
먹구
먹으려고
명세
모집
못나
못들어
못먹음
무역
문화
문자
뭐였
뭐하세요
바껴
받는다
발로
방식
배를
배민
백만
범죄
벚꽃
변형
보건
보실
보일
보냄
보는거야
보고싶은데
보러가
볼래
부지
부장님
비어
뺴고
뿌링클
사기
사물
사는데
살만
살고싶
삶을
샀는데
상금
색깔
색칠
생겻
샷건
서운
선풍
설득
세시
소계
손을
스벅
스탠
시도
시킬
식단
신용
신나게
실무
실타
실망이
심하게
싸바
싸울
쏘리
쓴거
씻어야지
아어
아진짜
아ㅣㄴ
안졸
안했다
안할게
안온다
안피곤
알고있어
암걸
압축
양호
억지로
얼음
없대
없는거
없지만
없는걸
여천
연수
영양
영혼
예매
오리
오크
오호
오니까
오도독
온다고
올거야
올리면
와아
와라
와꾸
와써
왔지
왔엉
왕창
왜아파
요리를
우체
운다
웃김
월욜
웹프
유심
으로
으웡
으어어어
은영쌤
읎다
이니
이정
이메
이어서
이시간
이ㅛ어
인기
인구
일하는
일그러
입금
있죠
있다가
있던거
있습니까
자식
자고있
자고싶다
잔거야
잘장
잘만들
잠안
잡혀
재고
재워
재원
적당
전신
정의
제사
제외
졸립
좋구나
주기
주의
죽고
죽자
지웠
지나면
지우고
징징
찍음
차이나
찾았는데
쳐맞
초반에
축제
춤추
치마
친목
카프
칼로
캐비
캐릭
캐치마
캠프
클라우드
태풍
터치
토할
통과
트롤
파베
파업
판다
팔에
패기
포인트
플래
피고
하러
하던
하핳
하는건가
하던거
하시면
한계
할지
할걸
할텐데
합쳐
핫스
해달라고
했다고
했었는데
현질
혐오
혼란
환자
휴식
흑염
흘러
흠터
##이안
##이너
##이레이징
##87
##도있고
##개는
##사이에
##는곳
##다녔
##고사
##아나
##아오
##아까
##아저씨
##나올
##오니까
##오라고
##지니
##만이
##만하면
##으어
##꺼는
##리나
##파게
##소프트
##들아
##들어서
##것가
##것보다
##네모
##려요
##려야지
##주는거
##성화
##달까
##하단
##하대
##하노
##하단다
##인증
##인나
##인디
##인것으로
##인거임
##구여
##월야
##검사
##종대
##워워
##함을
##ㅎ어
##변수
##바늘
##바퀴
##갈거
##ㅛ엉
##내내
##자재
##자세
##히ㅎㅎ
##셔야지
##ㅇ누
##스런
##스토
##스텔라
##빡쳐
##할께
##할땐
##할수록
##애랴
##온당
##치지
##크센
##세기
##봐써
##질거야
##장으로
##ㄷㄴ
##국이
##강의
##전화
##되었다
##되었습니다
##ris
##ur
##ect
##마라
##쌤은
##ㅏㅡ
##ㅏㅌ
##ㄹ라
##날듯
##날뻔
##랬지
##우리
##키고
##럼ㄴ
##대는
##대가리
##링크
##긴해
##긴했는데
##드라이브
##따고
##따가
##낭비
##선을
##랐네
##랐어
##플레이
##25
##21
##남았다
##뒤에
##ll
##팡이
##관이
##취업
##원을
##원해
##왓다
##낸다
##행복
##sh
##놓은거
##통이
##곳이
##곳은
##곳에
##씩만
##67
##몸이
##꿈꾸
##등이
##끄고
##놈이야
##썼어
##연습
##존나
##댜ㅐ
##뒹굴
##랍니다
##튜디오
##확인
아니구
ㅋㅋㅋ나
ㅋㅋㅋ웅
ㅋㅋㅋ뭐야
진짜ㅋㅋ
진짜인데
너무좋
그런말
그런느낌
##하고옴
##이야기
어떻게함
어떻게했누
그거만
그거밖에
우리동생
우리동네
##하는걸
이거도
이거만
생각하
학교간다
##거같네
모르지만
미친새낀가
친구들이
들어간
들어옴
들어와서
들어가면
하나밖에
##고있지
해야겠어
##잖아ㅋㅋㅋ
##려고했는데
언제해
어디여
그런거였어
##ㅅㅋㄱ
괜찮을
괜찮고
공부나
미쳤습니까
ㅅㅂㅅㅂ
재밌지
그렇죠
문제임
힘들엉
##소리를
없어도
보내줄
##은거지
엄청나
안해봐서
밥먹어야지
죽을뻔
취업하고싶다
파일이
나가기
이걸ㅋㅋㅋ
물어봄
물어봤는데
##것같고
처음엔
인생도
인생은
하루를
##버리겠다
안좋다
안좋은데
##인지도
##ㅎㅋㅎㅋ
##어ㅓ어
기억안나
만들자
누구누구
##하기싫어
이따위로
노래들으면서
##볼게요
##을때는
그랬지
전에는
씻고옴
안먹어서
개발을
코드가
미쳐간다
미쳐돌아
저번주에
11월
돌아오
이모지
선물로
개학하고
##가야징
##000개
최고의
##int
제출하라
아프고
그정도는
방학식
##헤헤ㅔ
##아아아앍
가야해
가야되는데
부럽구나
올라온
포기함
ㅇㅎㅇㅎ
때려쳐
정도는
##orn
있을거야
자야되는데
하고싶지
힘드렁
힘드뤄
##적인거
좋다ㅋㅋㅋ
몰랐네
##다구요
떨어지
떨어지면
조지자
미친놈이
없는듯
서울대
무서워서
오ㅑ그래ㅋㅋㅋ
일주일에
뭔소리인지
개빡친다
미친다ㅋㅋㅋ
아래에
##에ㅔㅔ
갔다와서
오류가
구글에
구글링
##을거여
우리학교는
바꿔서
카페에서
##ity
결과가
바꾸면
회의중
배고파서
##ack
학교에선
끝났다
탈주치
환장ㅋㅋㅋ
인터스텔라
진정하세요ㅋㅋㅋ
더워죽
자러감
보이콧
##시키고
계정으로
생기부
##리스마스
##하하하ㅎ
조용히해
반응이
3개월
190
확실하게
1학년때
바보야
계획서
##put
##다녀서
seab
부분만
타이핑
어떡행
모른다고
배경화면
옛날에
악마가
어딨어
목표가
설문지
미쳐가네
일부러
##라는것은가
나혼자
더러운
싸우자
공기계
미쳐가는구나
좋았을텐데
외국인
why
개시끄
새해복
하드웨어
##pyter
물리치료
배송비
6개월
just
말라죽
아쉬워
웃음벨
토마토
아닙니다
xls
빠를듯
레드이레이징
##ight
publ
크런치
짜장면
귀요미
맞춤법
신데렐라
와장창
전자기기
팔굽혀펴
아픕니다
이태원
##아닐까
##ㅜㅅㅜ
nsw0311naver
구질구질
kdn
핫스팟
흠터레스팅
##파게티
1화
310
58
5인
6만원
cpu
ebs
iris
kn
ms
mar
no
none
pc
sc
sw
tl
ㄹㅈㄷ
ㅋㅅㅅㅋㅅㅋ
ㅣㅋㅋㅋ
가보
가즈
가득
가야겠다
갈까
감성
개고
개나
개미
개못
개쩐
개같아
개같다
거인데
걸어서
경품이
고먐
교무
구역
국수
국밥
그떄
그랜
그랄
그럭
그럈
기기
까까
깜찍
깨질
깨닫
꿈이
나다
나재
나네
나타
나쁠
나홀
나같은
남자가
납니다
내년
내눈
내역
내보내
내인생
너뮤
네네
노란색
노가다
놀람
뇌가
뇌절
누르
누르고
눈뜨
능지가
닉네
다했
다녔
다하고
다했어
닥쳐
닥치
달성
달라고
답은
대여
더ㅐ
더러워
더럽게
던지
덜덜
독립
돼요
되니
되는거임
되려나
될지
될걸
두들겨
둘러
드셨
들지
들갔
들가야
들린다
등등
땡깡
떠나
레이블
로션
루피
룸메
리얼
마카
막막
말했어
말해주
맘스터
맛없어
맛나게
망가
망치
맞긴
맞는듯
매달
매력
매운거
머ㅓ
머릿
먹다가
먹으면서
먼치킨
멀리
몇달
몸무
몸살
못사
못잘
못써
못하게
못하니
못하는게
못나가
못산다
물로
물건
뭐했다고
뭔진
바퀴
바지를
박매일
받기
발이
발작
버즈
버터
번개
법칙
베스트
보임
보지마
복구
복권
볼거
봤더니
부오
부황
분류
븅신
비주
빌려주
빙의
빡빡
빨아
사탕
사려고
사고싶다
사나고
사운드
살고
살지
상메
서서
서바이
성실
성장
소세지
수록
수집
숙면
쉬는중
쉬었다
슈벌
스마트
시즈
시국
시카
시카페
시밤바
시스템
실기
실물
싶지
싹다
쌤도
써도
쓰게
쓰라
아잇
아앗
아뉭
아는거
아씨ㅋㅋㅋ
안아
안부
안잔
안잠
안챙
안샀
안햤
안한지
안궁금
않아서
알수
알겠지
앱을
야쓰
양반
얘도
얘를
어땠
어쨌
얼릉
없단다
없을걸
엑소
연속
예민
오시
오신
온거
올려서
왜해
욕은
용사
우욱
운전
울지
웃겨서
워크
웹을
웹페이지
유리
유치
유저
으으으
음료
의지
이기
이죠
이겨
이론
이벤
인문
인원
일으
일생
일자
일하고
입에
입어야
있더라
있겠지
있지만
있냐고
자각
자아
자정
자긴
자는거
잘하
잘듯
잘게요
잤니
쟤네
저것으로
전시
전나
전달
점검
접수
정성
정설
제5
조졌다
졸작
졸리면
좋니
좋을까
좋을텐데
주로
주석
죽지만
줘도
쥐어
즐기는
즐기고
지낮
집앞
집와서
집왔다
징짜
짖어
짜고
짜란다
짬뽕
찍은거
찍어야
차로
창밖
찾기
찾고
찾다가
책을
책읽
천사
체고
추울
축축
춥다
취침
컴백
컵라면
켜놓고
코테
키가
키울
타임
탈락
태권
터져서
턱걸이
테러
토르
톡방
트랜
팅글
파리
파라미
퍼렁
편하지
평범
폰만
폰케이스
필기
하징
하품
하세여
학년
학번
한전
한잔
한참
함정
했나
확률
효율
후드
후추
흐음
히히
##이ㅓ
##있는게
##있을까
##있었는데
##회의
##개학
##사이즈
##해봄
##해줌
##해졌어
##는ㄴ데
##고민
##시러
##가꼬
##아래
##아재
##아어
##아직
##아야지
##왔더니
##러ㅏㅇ
##서관
##나니까
##나왔어
##나온다
##오지게
##근육
##지역
##랑은
##꺼지
##보게
##보수
##베베
##리긴
##리즘
##리는중
##들음
##것이지
##것인가
##생이
##생겨
##했었는데
##려도
##려했는데
##려무나
##운건
##운거야
##주로
##어치
##살지
##하ㅎ
##하도록
##인을
##린장
##구이
##구랭
##적도
##적이다
##라는게
##음ㅋㅋㅋ
##겼는데
##워어
##ㅎ아
##었냐
##말로
##싸바
##바르
##갈게요
##ㅛ으면
##줘야
##문으로
##자ㅏ
##히면
##히고
##셔도
##셔요
##ㅠㅝ
##ㄴ거야
##잖나
##스포
##ㅓㅑ
##ㅓㅅ
##할건
##할라고
##치는데
##제한
##크로
##일도
##일을
##일까지
##일이라
##일부터
##일텐데
##장고
##장에서
##ㄷㅈ
##부분이
##셨는데
##영ㅇ
##전환
##전까지
##ㄱㅎ
##되는거야
##그룹
##릴듯
##마고
##마나
##동이
##웃겨ㅋㅋㅋ
##당연
##dent
##gsm
##르ㅏ
##우엉
##우러ㅏ
##중임
##먹으
##먹는거
##먹는중
##키지
##허쉴
##위가
##ㅅㄱ
##창렬
##빠져
##분은
##분들
##분석
##맛이
##랴ㅋㅋㅋ
##십니다
##느거
##쓰지
##두둗
##24
##차이
##포테이토
##답니다
##let
##났네
##롭따
##관련
##넹ㅎㅎ
##경영
##sd
##쳤는데
##뭐지
##돼서
##ㅕㅁ
##칠까
##랭크
##잉ㅇ
##놀아
##겤ㅅ다
##pace
##끝나면
##떠서
##복을
##귀여워
##줬다
##몰랑
##카락
##잌ㅅ
##둥이
##층에서
##빨리
##투테
##힌다
##퍄ㅐ
##짓을
아니었
아니였
아니구나
아니거든
아니자나
아니어도
ㅋㅋㅋ난
ㅋㅋㅋ뭐야ㅋㅋㅋ
ㅋㅋㅋ오늘
##는거니
##으로도
##으로는
오늘이
지금이
이제부터
어떻게알아
그거에
##하는줄
##인데ㅋㅋㅋ
그러냥
그러는거야
##아아악
생각좀
생각해서
생각하니까
운동하다
학교도
##이라뇨
##이라며
내일의
모르는거
모르겟어
##ㅠㅠㅜ
##한테는
사람으로
사람이랑
##이랑은
친구로
들어오면
들어왔는데
해야할
##해야됨
왜이럴
언제자
언제쯤
언제인데
언제끝나
애들끼리
어디갔어
아이스
좋아하는거
머리는
머리자르
머리카락
수업도
괜찮어
괜찮다고
괜찮겠지
##수있음
##수있는데
공부한다
사실을
ㅋㅋㄱㅋ
정신을
##면서요
그렇구만
힘들면
힘들었다
##한거지
이상형
안되겠다
맛있다
맛있었어
다음날
얼마전에
일어난
소설도
밥먹어
밥먹는중
죽을게
취업시켜줘
파일로
##밖에안
좋은걸
누나한테
전화번호
가능해
하루만에
나오는거
거기가
##했다는
이해하기
##아니면
##아니니
잘못했다
카톡은
##하는거임
찾아야지
찾아보고
##ㅎㅋㅎㅋㅋ
##해보여
##어ㅓㅓ
만들었어
조금씩
느낌인데
120
그럴수있음
##라는줄
얘기해봐
다행이
다행쓰
귀여움
귀여워서
과제도
과제가
살아남
늦게자
그랬음
너네집
씻고올
연락함
점심때
점심먹고
영화보
영화보러
완전히
치킨은
소리야
데이터셋
동생이랑
한다는
##이었지
##이었네
##이었누
사라지는
##다니는
##하고있음
뭐하라고
방학이
##할때까지
아빠는
자기는
왜그러냐
응원해ㅋㅋ
먹을거야
소공은
고기를
어쩌다가
자야겠
어려움
정리하고
정리해서
##art
하기싫어요
##지않니
회사에서
레전드네
제발ㅋㅋㅋ
##진짜로
##갔다옴
안가져
아이스크림을
사이클
##할거얌
##and
힘내라
자살마려
좋지요
생일축하
150
##는것보다
##는것보단
##히히ㅎ
##히히ㅣ
##히히히ㅎ
두개나
아쉽네
중간중간
피부를
##이없다
알고보니
##이ㅣㅣ
자신이
귀여워ㅋㅋㅋ
으으ㅡ
고통스러워
나갈거같아
미래를
정상이
##이였다
##해줘서
생겼다
바꾸고
저기요
왜저래ㅋㅋㅋ
안할거야
##버릴게
다니는
##스러워서
##버린다고
##버린건가
보낸거
##우우우
뒤지겠다
웬만한
웬만해선
목소리가
신기한
오른손
인났는데
자연스럽게
##ssion
물어봐봐
미치겠다ㅋㅋㅋ
구래서
간단한
모든게
모든걸
3일동안
아픈거
수면유도
갈아엎
강의듣
할만한
req
누웠어
친구들이랑
##어어어ㅓㅇ
live
자유시간
배불러서
알림이
나머진
즐거운
ㅋㅋㅋ아니ㅋㅋㅋ
사장님이
##ㅅㅋㅅㅋㅋ
죄송합니다
##그런가
정신나갈
바빠서
씻어야겠다
나혼업
하이드로
그러지마ㅋㅋㅋ
돌리는중
##아픈데
뭔일이여
보라색
아조씨
하하하ㅏ
바쁘다
시리얼
쪽팔려
대환장ㅋㅋㅋ
##단말여
메이비
익명이가
ㅗㅜㅑ
jupyter
test
안그럴
굴러다니
만렙부터
모습을
속상해
class
기달려
스킨케어
의심치
works
당당하게
from
login
npm
잼민이
##스티벌
고인물
신천지
개웃김ㅋㅋㅋ
파파고
달빛조각
류나경
스프라이트
트위터
프리미엄
sss급
마인드로
매니저
매쉬포테이토
무기력
허벅지
aws
부지런
선풍기
싸바싸바
캐치마인드
흑염룡
seaborn
나재희
레이블링
마카롱
비주얼
어쨌든
이죠랄
제5인격
태권도
파라미터
1월
3만원
4주차
57
5만원
65
6시간
7장
7시간
99
am
act
bl
gan
gen
kt
ml
of
wind
ye
ㄱㅋ
ㅆㅅ
ㅈ같
가짜
가세요
가이드
가형이
가리는구나
갈래
갔지
강화
강당
갖다
갖고
같다고
개심
개더
개씨
개멋
개지랄
객체
갤럭
건의
걸까
걸으면
게이야
경로
계셨
곰팡이
공동
광산
괴담
교감
구체
구럴
군머
귀에
규칙
그를
그말
그루
그제
그르
그녕
그룹
그릇
그느낌
글을
금지
기각
까먹어
까먹었
깔려
깔아야
깨고
끌고
끝냄
나음
나을까
남주
남은거
내는
내취
내방
내에서
너므
노아
노란
노는게
놀아서
높은
누우
누어ㅓ
눈만
다봤어
단단
닮았다
담주에
당분
대해
동기화
되찾
되겠네
된건가
뒤통
뒤지면
들으러
들리는데
등장
때가
띄어
마리
마약
마블
마셈
마치고
만난
많았는데
많았네
말지
말할
말라고
말한다
말했다
말이라도
말린장
맘이
맛난
맛깔
맞은
맞췄
머지
멘붕
모지
모동
모레
모기가
목요일에
못버
못하지
무너
문법
물이
뭐였지
뭔데요
뭔소린
뮤슨
미세
밑에
바위
박혀서
반이
반성
받았어
발에
방이
버섯
벗어
벼락
보시
보람
보관
보호
보기만
복숭
본능
볼수록
봐라
봤네
분이
분리
불태
뽑고
사상
사발
사이가
사달라
살인
살았
살빠
삼고
삼십분
색이
서술
설빙
세게
세팅
세미
세종대
셀프
소고
소주
속으로
숫자
쉬면
쉬워
스샷
스르르
스위치
식자재
신전
신나서
실력
실례
심란
썼는데
쓴다
아끼
아줌
악용
안이
안시
안꺼
안ㄴ
안날
안쉬
안쓴
안가면
안하니까
안했지
안하는중
안아프
안무서
알면서
애플
애뮬
야스
야이ㅋㅋㅋ
약이
양성
어허
어필
어카
어릴때
얼탱
없게
없는거야
없더라
엔터
엠플
여서
여성
여전
연쇄
열정
영아
영업
옆구
예의
오픈
오는거야
오기로
온도
옷은
옷갈아
왔당
왤캐
외에는
욕이
웃어
웃통
월요일에
유ㅐ
육개
으ㅡ
읍서요
이루
이란
이럼
일하기
일욜에
읽고
있는거지
있다는
자라고
자기도
자버림
자아가
잘만
잘되
잘먹
잘준비
잘생겼
잠옷
잤나
잤다고
저럴
저것도
저지랄
전교
전번
전처리
절친
절망
제안
조온
조선
조또
조지는
좀따
종류
종점
좆병신
좋았는데
주라
중임
줬어
줬는데
증발
지는
지난
진도
진척
짐짜
집들어
집도착
짖짜
짤이
쩐다
쫄보
찌부
찍으면
차마
차이가
착각
착해
창피
채워
처벌
천장
천둥
최애
최초
추석
취저
취급
치어리
친척
친군데
컨디션
코스
코트
키고
킹시국에
태건
톡으로
투명
틀딱
파악
팔꿈
팔로우
편하긴
포르
폰트
플랭크
피티
피폐
픽미
핑계
한꺼
한쪽
한약
한마리
할라
할겡
할수도
해당
해놔
해놨
해탈
해봤어
햄스터
했고
허용
허전
허쉴
허락
현장
형들
형님
호출
화남
화형
화나서
환상
후보
희희
##증이
##이런
##이는게
##이더라
##이었다
##있었
##있었네
##기사
##기업
##기름
##기보다
##사로
##사고
##사라
##사에서
##해졌
##해ㅋㅋ
##해버렸
##해드림
##해ㅛ는데
##는지도
##다냐
##다던데
##다보면
##고구마
##니ㅏ
##안했
##안와
##안해도
##가기
##가니
##겠따
##겠찌
##왔음
##러지
##서를
##서치
##브리
##나니
##나ㅜ
##나ㅏ
##나가는
##나ㅓㅜ
##오누
##의자
##래ㅑㄴ
##지방
##지겠다
##만하네
##만한게
##야양
##꺼면
##보낸
##보낼
##보라고
##진게
##베이스
##리베
##리면서
##재미
##들만
##네ㅔ
##했잖아
##려궁
##쳐도
##거로
##거다
##거가
##거라고
##거잖아
##심을
##에사
##물고
##게하네
##ㅜㄱ
##ㅜ라ㅓ
##화이팅
##하징
##하십셔
##실래요
##비로
##비가
##인권
##인거같아
##한사람
##한건가
##터져서
##앙아
##타클
##구축
##수준
##적이지
##디스크
##열고
##워ㅋㅋㅋ
##ㅎㄴ
##었나봐
##바라
##바위
##ㅛㅇ
##자노
##너ㅏㅜ
##신가
##ㅈㅇ
##ㅇㅍ
##ㄴ거
##ㄴ애
##ㄴ느
##ㄴ는데
##스도
##스레
##ㅓㄷ
##른데
##할머니
##애자
##속도
##없나
##흐름
##세야
##세상
##일만
##일찍
##봐요
##와야
##와와
##ㄷ르
##전부터
##되니까
##되는거지
##냐ㅋㅋ
##rr
##ext
##식도
##식은
##줄도
##줄래
##알앗
##마음
##마넌
##았더니
##ㅏㅁ
##년도
##집으로
##웠다
##os
##nt
##node
##르기
##르트
##습니
##계정
##먹으니까
##갰다
##멍청이
##위해
##ㅅㅎ
##ㅅㄹ
##대면
##써도
##클립
##클래스
##티브
##느넫
##드릴
##드립니다
##번은
##조요
##조져
##글씨
##씨가
##준대
##플레
##포기
##im
##ial
##ist
##맞춰
##잔항
##잤는데
##저녁
##저럭
##블럭
##넘치게
##잇고
##레레
##엔드
##후라이
##본적이
##간거야
##노트
##ㅆ지
##민턴
##칠게
##테니
##밥이
##갑자기
##될까
##될수도
##끝남
##언가
##냈어
##등급
##꼬치
##ft
##렌지
##넣어
##퓨저
##카톡
##댔어
##연애
##햇음
##산소
##산성
##짓도
##헌터
##뚝딱
##펌프
##낫어
##옆에
아니겠지
ㅋㅋㅋ고
ㅋㅋㅋ진
ㅋㅋㅋㄱ
ㅋㅋㅋ그러
너무한다
너무피곤
나도ㅋㅋㅋ
오늘만
그런거같아
그런의미
지금이라도
이제야
어떻게해요
어떻게아누
##다고ㅋㅋㅋ
그거지
우리랑
##인데도
그러는
그러나
그러냐
그러고있
그러던데
생각에
운동하려고
학교야
학교때문
하고와
##이라던가
아무갓도
##들어가면
모르니
모르네
##하지말고
들어주
들어줘
들어봐
하나로
하나를
그럴거같아
##해야할까
이런것도
이게뭐야ㅋㅋㅋ
##는건지
언제하지
그런거는
아이는
아이콘
다른반
다른걸
##아ㅏㄱ
수업은
수업시간
괜찮을듯
##수있는
10장
사진만
정신은
재밌는거
재밌어서
하기도
그렇넹
문제네
힘들었
힘들겠다
기분이야
보내지
보내주세요
보내줄까
귀찮고
안돼여
응원혀
응원해ㅋㅋㅋ
하는겨
##어야징
얼마안
요즘도
피곤행
피곤하고
피곤하지
이번에는
게임중
엄청나게
안해줘
밥먹을
죽을래
파일을
싫어해
##겠네ㅋㅋㅋ
이러고있
전화로
전화해서
나가는
나가는데
##하자면
뭔가가
가능하지
물어볼게
처음들어
인생에
하루도
하루하루
안나네
힘들어죽
이해는
이해안
알아보
##버리는줄
안좋음
시작함
시작해서
찾아가서
만들기
누구도
집에만
다행이고
만들어주
만들어줘
만들어야지
아주그냥
집가고싶
그때까지
##같은걸
시험을
귀여우
저녁을
##볼게여
웹툰으로
##을때도
그랬던
가져올
가져다가
가져가야
##하하핳
연락도
기다리면
점심에
노트북에
필요하다
그만둘
짜증난다
소리지
돌아와
해보렴
해보고싶다
##라이프
있었네
죽어ㅋㅋㅋ
대단쓰
대단하네
대단하군요
##생각이
##생각해
사라진
사라졌
세상이
최고임
놀아도
영상이
##하고있었는데
디코로
도착함
병원에서
귀엽긴
제출하면
그치ㅋㅋㅋ
마음대로
일어나면
그정도여
방학을
나왔으면
병신이
먹을만
받아야
받아주
##alk
자세히
정도만
##ord
학교에서도
거지같이
무엇ㅋㅋㅋ
학교가기
궁금하다
어려워서
정리해
있다면
##array
안좋아해
인나자마자
아이스크림도
알려줬
확인해봐
따라치
몰랐다
몰랐는데
##ation
아닐걸
허리도
조지네
미친놈이네
유튜브에
고맙당
input
하고있었어
그니까ㅋㅋㅋ
못하겠어
##는것만
하다보면
문명을
아재는
만나고
아는사람
##먹을거
왜그런
알고리즘
물어보니까
##기싫은
##기싫어
잠들면
하는중이야
자소서는
구글드라이브
으으어ㅓ
만드는데
이정도는
##이였네
##이였누
쉬는날
돌려조요
안자면
익명이는
##ook
대박이다
그리거
새끼들
방법을
왜저렇게
자랑스럽
신박하구만
##ach
시내에서
##ress
학생이
검색하면
글긴해
매일쌤
매일좌
130
끝났는데
분명해
개꿀잼이야
많은걸
신기해
자체를
자연인
어쩔수없다
어쩔수없지
도와줄
안녕하세요
가족끼리
아무말도
말하는건
stac
부족해
상태가
ㅋㅋㅋ미치
포폴은
뭐임ㅋㅋㅋ
정확히는
50개
##ㄹㄹㄹ
이미지로
인간적으로
##보이즈
이런것은가
안될듯
언니랑
뒹굴뒹굴
헤어졌
ㅋㅅㅋㅅㅅㅋ
the
둘이서
시바ㅋㅋㅋ
안맞아
안경을
조질게
##지말자
바람이
키우고싶다
관심이
예전엔
잘해따
축하해
올리브
똥멍충이
def
아니라고ㅋㅋㅋ
140
답답해
데려다
잘했어ㅋㅋㅋ
효과가
##eed
##였던거임
몇번을
상대가
다른애들은
and
대리만족
살려줭
어색해
무슨일이여
배고프면
##6543
이로울듯
동물의
실화냐
정해진
밥먹어야되는데
print
멍충이
번역기
기분좋게
개쩌는
안알려
유지보수
킹정이지
user
네모네모
무수한
컬러북
주사위
프린터
##아침에
명령어
일러스트
닥터자르
시뮬레이션
어떨까
언더스탠
한것인데
join
꼬리뼈
보드게임
스펙타클
파우치
inplace
프레임
후라이팬
사물함
우체국
캐비닛
패기넘치게
public
고먐미
교무실
그랜절
그럭저럭
닉네임
몸무게
서바이벌
이벤트
하이드로펌프
workspace
activ
window
노아련
당분간
모동숲
삼고빔
세종대왕
치어리더
픽미업
한꺼번에
1명
2달
3억
34
37
4반
6장
8개
8분
8시간
as
cd
en
el
fl
flo
gs
king
mp
mat
mode
num
os
ss
sp
war
ㄴ애ㅑ
ㅁ내
ㅂㄷ
ㅆㅂ
ㅇ어
ㅈ됨
ㅐㅎ
가네
가타
가벼
가다가
가지마
가는겨
각성
간거야
갈수있
감싸
갔네
강아
강권
같애
같던데
개무
개그
개짜
개느
개쫄
개또
개털
개열심히
갠적으로
거미
걸리는데
겁내
결재
고급
고졸
고치고
곱창
공차
곶통
과목
괜탆
구건
구내
구럼
국사
국어
군침
굶어
굽고
그의
그지
그날
그보다
그분이
긁어
길이
꼬우면
끄읕
끔찍
끼워
나니
나나
나지
나에
나란
나빠
나라면
납득
내림
내손
내생각
내스타
냉장고
널고
넣을
네임
노숙
논리
누울
누굴
눈은
눈떠
다가
다양
다닐
다썼
다듬
다먹어
담아
답해주
당회
댄스
더ㅣ
더욱
더워서
데이
도저
도둑
돈까
돔돔
돗자리
동의
동선
돼여
되는지
뒷담
디저
디퓨저
딱대
떠서
떠오
똑같아
뛰고
뛰댕
뜨고
뜻이
랜선
로직
로켓
로컬
루틴
리버스
링거
마실
마찬
만지
만만
만하
만듬
만지고
많어
많냐
많았다
말만
말든
말하는게
말했지
망했
망한
맞냐
맥락
머겄
먹긴
먹은게
멈추
멋있
메디
명복을
모해
모닝
몸뚱
못참
못자고
못먹어
못봤는데
못따라
무게
무음
무산소
문상
문찐
뭐길래
뭐이렇게
뭔상
뭔말
뭔상황
미적
미ㅣ
민아
믿고
바디
바르면
밖으로
반은
반란
반전
반토
받았다
받을게
발사
발언
발가락
방을
방해
배운
배에
백엔드
범블
벗고
변태
별게
보소
보게
보라고
보는거지
보지도
보니깐
보고있어
복도
봐요
봐야함
봤니
부서
부위
부롭따
분할
불합
불속성
블루
비는
비용
비와
비와서
비오면
빕스
빠위
뽑아서
뿐이야
사다
사오
사지
사장
사준
사유
사셈
사는거
사준다고
산거
살찐
살쪄
살거야
삶의
샀어
상큼
생선
서러
선언
성적
세일
세탁
손실
손상
수육
수익
순수
쉬엉
슈퍼
스팸
슨생님
슬펐
슷투
시전
시청
식구
신우
신세계
실은
심정
싶고
싸우고
싸웠어
썜한테
썰어
쓰면서
씻는다
아ㅣ
아부
아름
아랫
아부지
안달
안빠
안읽
안그러
안됩니다
않았다
알거같아
압력
액션
앵무
야매
약산성
얇게
어늘
어떄
어어어
없으
없넹
없었는데
없길래
없자너
없었음
없는거같은데
역대
예시
예제
오기
오네
오구
오징
오옹
오겠지
오지마
옷이
와중에
완존
왔으면
왜왜
외쳐
외우
요정
요상
용맹
우려
우어
우동
우웅
웃겨ㅋㅋㅋ
유진
유스
유전
유분
으앙
읍읍
이나
이네
이쁨
이라는
이생각
인싸
인턴
일만
일벌
일욜
일학년
잃을게
있겠
있게
있징
있닝
잌ㅅ
자ㅏ
자존
자ㅋㅋㅋ
자는거지
잔듯
잘쓰
잘하네
잘어울
잠와서
잡아서
잤네
장전
재질
저의
저리
저친구
적당한
전직
접근
정공
정작
조오
조만
조대
조흔
조오오오
존잼
졸랴
졸림
종교
종합
종아리
좆같
좆같아
좋으면
좋구만
좋았어
좌우
주시
주머니
죽는거
줄거리
중앙
중단
중1
중립
줘봐
줘야지
지리
지짜
집갈
집옴
집주소
짧은
짱이야
쫄려
찌그러
찍는
찍었
찍었는데
찾으러
찾으려고
책은
천원
첨삭
첫날
청포
체력
최종
최적
최신
최후
최선을
춥고
치워
캐나다
커뮤
커밋
컴활
케익
케이블
켜서
코카
쿠폰
크록
크레
타격
태양
탱탱
터지고
터미널
톡이
트위치
틀렸
팀프로젝트
팀크센
파맛
패키지
페스티벌
편안
폭탄
폭삭
풀면
풀리
풀렸
프렌
피료
하울
하차
하아ㅏ
하거나
하겠지만
학ㄱ
한강
한편
한동
한것도
한명이
한세트
한순간
한그릇
할라고
할일이
핥짝
함부로
해리
해ㅛ
해설
해놓
해산
해드림
해준다
햄찌
했누
했었어
했자나
했는지
했는디
허경영
헌터
헤이
현기
형제
형한테
호구
호텔
홈페이지
회식
회계
후하
후배
훨배
흉터
흡수
힘두
##이해
##이는거
##이어서
##이자너
##이였어
##이ㅛ어
##명서
##명이야
##있을
##있잖아
##있길래
##기념
##기네ㅋㅋㅋ
##회로
##개질
##개념
##사무
##해본
##해지고
##해버리자
##는구나
##는것으로
##다면
##다내
##니아
##니야
##니티
##시나
##시여
##시대
##시킴
##시켰
##시나요
##안하면
##가는게
##겠읍니다
##아이야
##왔누
##러러
##러ㅏㄴ
##서야
##정하고
##같고
##오게
##오께
##오는게
##요요
##요ㅠㅠㅠ
##싶다
##지기
##지인
##지워
##지션
##지ㅣ
##지컬
##건디
##으래
##리자
##리냐
##소스
##재고
##들이야
##것이
##것이다
##것보단
##생긴
##했었
##했지만
##려는
##쳐야지
##여야
##여야지
##운다
##거려
##거양
##거면서
##거리는
##주렴
##봤지
##게ㅋㅋㅋ
##달러
##화를
##화장
##하세
##하겠어
##하려나
##하겠는데
##비는
##비만
##비비
##인겨
##인짜
##인척
##한줄
##좋겠다
##좋은데
##린지
##타면
##타서
##수다
##수화
##수육
##수밖에
##라다
##라ㅜ
##라ㅋㅋㅋ
##워ㅏ
##단어
##말에
##바엔
##최고
##난리
##갈수도
##ㅛ아
##ㅛ음
##자금
##자라
##ㅈㅇㅈ
##ㅇ아
##ㅇㄻ
##ㄴ아
##ㄴ누
##스키
##ㅓㅁ
##루나
##루루
##효효
##받을
##애앵
##온거야
##된게
##과의
##제품
##없으면
##모야
##모으
##모습
##30
##일으
##일줄
##ㅣㅏ
##ㅗ아
##ㅗㅎ
##ㅗ오오
##질러
##질거
##와ㅋㅋㅋ
##란ㅇ
##장애
##부러워
##되냐
##그ㅡ
##그림
##ㅡㅎ
##냐ㅓ
##rd
##us
##ey
##공사
##공원
##알았는데
##마크
##ㅁㅇ
##작가
##눈거
##눈뒈
##dr
##gv
##랬어
##웅ㅜ
##중이라
##헤드
##먹다가
##먹고싶어
##먹었다
##먹으려고
##갔나
##키키
##허ㅎ
##55
##cl
##mi
##ㅔㄱ
##대도
##대단
##감성
##분야
##맛에
##티는
##박아
##느네
##쓰는데
##쓰레기
##긴함
##긴하지
##배를
##배경
##드가
##조아
##따로
##따리
##엇음
##ㅐㅐ
##순이
##순위
##선배
##선언
##불고기
##프리
##많네
##lf
##돈데
##유연
##켜서
##급으로
##팡팡
##올려
##렁이
##잇어서
##놔야지
##않아
##후후
##길까
##쳤다
##간지
##ㅕㅇ
##ㅕㅁㄴ
##호홓
##ㅆㅋ
##봣는데
##퀘어
##판을
##큐브
##밥ㅂ
##밥솥
##놀고
##친거
##못자
##pg
##믄데
##끝났
##며뉴
##응ㅇ
##랄게
##역시
##귀찮아
##덩이
##엿어
##987
##힘드
##페이
##맘에
##맘대로
##냄새
##샤워
##웹툰
##겄다
아니양
아니자너
ㅋㅋㅋ무
ㅋㅋㅋㅎㅎㅎ
ㅋㅋㅋ그래서
ㅋㅋㅋ내가
ㅋㅋㅋ당연
##는거같
너무한거
나도임
그래보여
##니까요
##고싶지
##고싶어서
##고싶었는데
그런식으로
##에서만
지금의
어떻게되
어떻게하면
##ㅎㅎㅋㅋ
그거라도
우리의
우리팀
우리끼리
우리들의
이거라도
생각했는데
운동좀
운동하다가
운동해여
학교가야
내일을
아무나
##들어감
##들어야지
모르나
미친거같아
존나빡
존나웃기네ㅋㅋㅋ
친구집
들어간다
들어왔어
들어갔어
##고있니
해야됨
해야해서
해야겠네
하지도
그렇게까지
어디다
어디감
어디가는데
한번은
어제까지
다른게
다른거야
##정도가
##정도만
수업들
수업중
공부하는
미쳤지
미쳤냐
미쳤냐고
10월
10초
무슨말
정신사나
재밌었어
이상하지
이상해요
없어짐
안되겠어
보내줌
보내준거
여기에
여기까지만
귀찮지
귀찮게
귀찮음
귀찮으니까
응원한단다
##어야겠다
피곤하면
##하네ㅋㅋ
게임하는데
소설만
소설봐야지
소설쓰는
이것은가
밥먹는
아침마다
엄마는
죽을거같음
취업도
파일은
뭐라해
##보고서
이러니까
고생해
고생했어
방금도
방금까지
나가도
##있어도
가능성
##것같지만
##학교에
거기도
프로필
잘못하면
카톡에
안좋아서
##하나요
시작했어
찾아는
##버렸군
##버렸구만
##해보셈
기억력
##스크림
고민을
12시간
자살해야겠어
안보면
안보이네
안보인다
다행이고만
별로다
별로인데
##아아ㅏ아ㅏ
아까운
저녁은
##ㄴㅇㅁ
웹툰은
가져옴
전에도
얼굴도
연락은
안먹을
기다리는
개발이
필요한거
그만보내
모르겠넹
모르겠어서
프로젝트도
짜증나서
119
해보세요
있었던
선물을
선물은
사라질
##다니면서
##할까요
파이토
세상은
놀아주
영상을
##레이즈
##레이드
못해먹
도착해서
##같아요
마지막이
귀엽게
인정이지
##없어ㅋㅋㅋ
제출해
뭐하닝
뭐하냐고
일어나는
끝내야지
끝내주세요
아프니까
그정도만
면접을
방학때
##헤헤ㅎ
보여서
##할때도
가야하는데
가야하나
자기주도
잘자고
왜그러는거시야
하는거임
뭐지ㅋㅋㅋ
받아들이
##alse
포기했어
때려침
정도면
있을거
무엇인가
들가는중
코로나때문에
한시간이면
재미가
재미ㅛ
하고싶음
알려줄까
청소를
##ㅏㅇㄴ
노력은
확인하고
힘드니
힘드니까
먹었니
먹었길래
##하냐ㅋㅋㅋ
짜증나는
짜증나네
안들어서
10분에
준비해
준비중
아이스크림은
사이버
긱사에
조지려고
##ant
영어는
의미지
##etrue
하고있었는데
자살마려워
다녀왔
##어어ㅓ어
##운동은
15개
153
맞아요
무서운거
##좋아해
문명은
잠깐만
만나러
비슷하게
왜그려
ai가
저장해서
온라인개학
현실에서
ㅋㅋㅋ그랴
ㅋㅋㅋ그렇
잠들고
##었지롱
해야되는거
않았엉
자소서도
진짜로ㅋㅋㅋ
이야기를
상관이
##에ㅔ에
이쁘네
지랄맞
애매하면
애매해서
고통스럽
기억이안나
상황에서
여수에
##ㅅㅋㅅㅋㅅ
임티가
자랑이다
코딩하는
30개
디스코드
##acetrue
개인프로젝트
하라는데
##이여도
##ree
사과를
우리반은
검색해서
사랑니
끝났으면
분명히
2시까지
시원함
안와도
모델이
물어봐야지
2주동안
안녕히
##나오고
가족들
오타가
죽지마ㅋㅋㅋ
##하하하ㅎㅎ
날씨의
납치범
대화를
졸업하고
졸업하면
정확도
정확하게
왜이러지
왜이러냐
왜이러는것
180
갈아입
인스타에
생각중인데
똥멍청이
무시하고
자동으로
근육통이
인터넷에서
까먹었다
누웠다
진심으로
캡쳐해서
ex4
session
shit
어렵지
어렵네
좋겠구나
핸드폰으로
관련해서
잘게영
##아프고
##ㄲㅋㄱㅋㅋㅋ
본부장
심각하게
키우는
트레이닝
안풀려
왔다갔다
##줄알았는데
개너무해
아이패드로
비밀번호
살려줘ㅋㅋㅋ
오랜만이네
그것이
파탄나
불쌍해
##ayb
##라는것은지
씻고와야겠다
나혼자만
어메이징하다
ㅋㅋㄱㅋㄱㅋㄷㅋ
건도가
건도랑
중독이야
살아있니
즐겁다
깨달음
부끄럽
싫은걸
회원님
자살마렵네
결론은
텐션이
환경구축
어쩌다보니
45분
갑작스럽
뒤집어
몇시까지
창업일반학습
시리즈
반대편
한가운데
35분
기준이
끝냈다
쌉가능이지
쓸데가
쓸데없이
어지러
어지간
어따가
##러ㅑㅐ
##단말이지
##하지않아
pro
러스님한테
뿌듯해
쉬어야겠다
안알려주
##부렀네
단톡방
##dio
검정색
아닙니까
왜구랭
기분탓인가
intarray
가슴이
개쩔어
구런가
부대장님
존중해
대표님
베란다에서
하기시뤄
2020년
거부반응
괜찬하
따땃한
복사해서
쿠팡맨
##aka
계약서
레이아웃
무수히
이자영
코리안
코리아
태어나서
array
감시자
김재남
눈감고
뜨거워
유일한
##ibal
아버지
이쯤되면
ㅋㅋㅋㅇㅋㅇㅋ
다리찢기
안괜찮
짜릿해
firebase
salt
very
근력운동
뒷목잡
얌전히
오라클
ㅋㅋㅋ큐ㅠ
기적의
리액트
배드민턴
부반장
수강신청
안타깝
텐서플
##에스엠
##애ㅗ애
스피커로
transform
스탠드
주기적으로
캐릭터
ㅅㅂㅅㅂㅅ
xlsx
know
개쩐다
맘스터치
시카페어
퍼렁색
왜이럴까요
수면유도제
달빛조각사
ㅆㅅㅌㅊ
그를수있지
내취향
말린장미
복숭아
아줌마
어카누
조온나
포르테
##노트북
닥터자르트
activity
float
반토막
앵무새
유스퀘어
최적화
해리포터
창업일반학습지
1회
1주
1트
1위
1원
1층
1키로
28
2가
2번째
3달
36
3층
3000
3번째
4트
44
47
5천
5트
5장
5교시
600
7월
bit
css
call
col
ey
gra
key
kaka
lo
mr
mou
mayb
n번
next
out
pa
ph
post
su
so
ti
var
we
ㄱㄷ
ㄱㅇㄷ
ㅂㅂ
ㅅㄹ
ㅅㅄㅄㅄ
ㅈ된
ㅈㅅ
ㅈ같다
ㅋㄹㅋ
ㅋㄱㅋㅋㅋ
ㅎ하
ㅐㅑ
ㅡㅇ
ㅡㅋㅋㅋ
가래
가치
가니까
가아아ㅏ
가고있어
각인가
간겨
값이
갔을때
같더라
개띠
개뿔
개부럽다
개에바
개불편
개비싸
개창렬
건들
걸린
걸리면
검토
결합
경비
계좌
고모
고딩
고픈
고앵
고대로
고기가
골때
골라서
공복
과다
광역
구성
구독
구ㅏ
구석
규ㅣ
그에
그뉵
그소리
그양반
근무
근황
금액
급여
기타
기르
기존
까르
깔아서
깨면
깨서
깨어
깨우
꼰머
나은
나뉘
나느
나경
나누
나는데
나아서
난데
날까
날리는
날아가
날렸다
남아서
낫다고
낫겠지
낮에
내야
내린
내내
내렸
내이름
너나
너눈
너ㅋㅋㅋ
너어어어
넘후
넘기고
네이
네버
노략
녹차
놀면
놈이
놓쳐서
놔두고
누어
누구나
눈도
눈앞에
느리
늘려
늙어서
늦음
님의
다먹
다씀
닥자
단거
단추
단축
단위로
닫고
달리기
당일
대졸
더블
데미
도랏
도굴
도서관
독감
돈지랄
돈없어서
동글
됐다고
되었
되찾아
될수도
두부
뒤지는줄
드러
듣지
듣는데
들리
들려
들켰
들었다
들리는
등이
땅에
땡긴다
떠날
떡상
똥겜
뚜까
뚫고
뜨신
뜨개질
띠용
레이어
렌즈
로맨
롯데
리셋
마야
마디
마당
마라고
막내
만능
만두
많으니까
말에
말할게
말하지만
맛에
망해
망했어
망했다
맞았
맞아서
맞지만
맞았어
맞는거같은데
매개
머구
머르
먹네
먹는거야
먹은거
메인
메옹
메이드
면역
명서
모태
모라
몬스터
몰아서
몸도
몸통
못만
못살
못잡
못하네
못한다고
못만들
무척
무등
무협
무덤
무튼
묻고
뭐사
뭐함
뭐누
뭐먹어
뭐ㅑㅇ
미스터
밀린
밀림
밀가루
바바
바빴
바지는
반말
반박
반찬
받지
발생
발전
발바닥
밤이
밤샐
밤마다
밥안
밥머거
배도
배울
버틸
번도
번쩍
범인
법규
변신
보는게
복날
본거
본거야
볼수
볼만한
봐써
봐볼게
봤거든
부른
부르고
부르면
불가
불안해
붕어
브랜
비타
비맞
비쌀
빌게
빠졌
뻐킹
뼈밖에
뽀득
뽑기
뽑을
뿌리
삐졌
사줌
사귈
사이다
사먹을
상영
새나라
샌드백
생물
선거
설교
섭취
성과
세시간
셀프로
소소
소비
소리는
소프트
손은
수는
수리
수료
순천
술마
숨을
쉬바
쉬다가
쉬면서
스틸
스듀
스튜디오
승준이
시급
식으로
신주
신난
신곡
신났어
실버
싫엉
싫으면
심히
싱가
싶네
싶따
싶지만
싸이
싸게
싸워
싸강
싸웠
쌤들이
써놓
쓰기
쓰레
쓰는중
씻거
씻으면
아수
아씨
아유
아낀
아푸
아멘
아휴
아몬
아아아앙
아몰랑
악력
안건
안쳐
안물
안구
안까
안울
안깝
안찍
안볼
안찌
안햇
안뜸
안젛
안믿
안왔어
안찾아
안만들어
안든다
안졸려
안돌아가
안움직
않겠
않지만
알어
알리오
앱이
앱스토
야생
야채
야랄
약수
어깡
어둡
엄준
업성
없니
없오
없긴
없구만
없었으면
에서
에포크
엘리베
여행
여쭤
여캐
여덟
역류
역으로
연봉
열두
엿같다
영수
옆집
옆자리
예고
예외
오해
오아
오상
오자
오일
오세요
오호호
오피스
온거야
올까
올렸는데
옵티
와야지
왔습니다
왜애애ㅐ
왜자꾸
외가
외주
외전
요거
욕설
욕조
용감
우으
우편
우움
운이
울렁
웃으면서
웅ㅇ
웅장
워드
원해
원서
원인
원숭
월야
월욜에
위원
유럽
유료
으응
으아ㅓ
은학
읭읭
이고
이르
이분
이길
이케
이기고
이ㅓㄱ
이시국에
이클립
익종
인내
인천
일곱
읽었는데
입었는데
있구
있ㅇ
있대
있을때
자니까
자고싶어
작아
잘좀
잘랐
잘보고
잘해주
잘라서
잘해요
잘하셨
잠에
잠자
잠드
잠잠
잠자는
잡으면
잤니ㅋㅋㅋ
장례
재즈
재난
재우
재채
저분
저두
저글
저딴
적은
적게
적금
적용
적절
전지
전생
전독
전용
전국
전날
전대
절름
점수가
정기
정화
정규
정녕
정빈
제이
제거
조각
조쿠
졸아
졸았어
종족
종료
좋지만
좋으니까
좋겟다
좌웅
좌뇌가
주서
주택
주르륵
죽게
죽었
죽어야
죽고싶어
죽어요
죽었으면
줬다
즐겼
증사
지진
지났
지방
지극
진ㅉ
짐을
집감
집까지
집이다
집간당
집앞에
짜피
짬짬
찡찡
차를
차에서
참을
참교육
찾는중
책도
처량
처참
체지방
쳐도
쳐다
쳐서
쳐박
쳤는데
총알
추웡
추워서
치우
카뱅
커버
컨트
켜놓
켜져있
코무
코노
코끼리
쿠션
큰거
킹능
타면
타협
타자가
탄수화
탔어
탕수육
태어나
터졌다
텍대
템빨
토요일에
톡도
통장
파서
파란
파릇
판교
팔을
퍼즐
편한데
평일
폐인
피뽑
하아
하여
하신
하트
하ㅏ
하얗
하겠어
하더니
하니깐
하시는
학기
한장
한듯
한셀
한숨
한동안
한거지
할매
할짓
할말은
핥아
합병
해먹
해줄까
해봅시다
해버리면
했는
했을때
했으니
현명
협상
혓바늘
홀로
화를
화려
화질
화나는
확통
환멸
활성화
황금
황제
황지인
회장님
흐어
히라가
힘듷
##증인가
##이동
##이누
##이놈
##도와
##롤롤로
##있던
##있구나
##있을때
##기지
##기들
##기자
##항구
##사기
##사야
##사줘
##사이드
##각인가
##해진
##해볼겡
##다란
##다보니까
##다보니
##고지
##니라
##니깡
##시도
##시아
##시바
##시피
##시킬
##시는거
##시겠다
##예약
##안오
##안됨
##안했는데
##가에
##가격
##아어어
##왔졍
##데ㅋㅋ
##러고
##정거장
##같군
##나이
##나왔
##나ㅣ
##나감
##나는거
##오니
##오래
##오지
##오류
##근처
##요ㅋㅋ
##무니
##무디
##지잖아
##만함
##야ㅋㅋ
##건뎅
##으시
##으르
##으며
##보는거
##진다고
##리닝
##파탄
##파릇
##것부터
##네일
##tr
##했으니
##했는지
##했나봐
##여어
##여ㅑ
##거리고
##주무
##주제
##주는데
##주라고
##주는게
##에이
##에용
##어이
##어떻게
##물로
##물에
##살자
##ㅋ가
##게해
##게트
##ㅜ머
##하셔
##하던
##하라는
##실까
##인거같은데
##상으로
##좋게
##타이
##구현
##구역
##임이
##수랑
##종료
##적이고
##라야
##라길래
##까고
##겨ㅋㅋ
##죽여
##함ㅎㅎ
##었지만
##말도
##말구
##말함
##ㄲㅋㅋㅋ
##바꿨
##바게트
##갈래
##줘라
##문을
##자다
##자들
##자체
##너가
##너라
##너너
##히어로
##ㅇ니
##ㅇ요
##ㅇㅋㅋ
##ㅠㅓ
##ㄴ다
##ㄴ가
##스에
##루ㅏ
##루다가
##른거
##받으러
##할건데
##온게
##치도
##치다
##치니까
##치고싶다
##과자
##모양
##흐ㅎ
##흐ㅔ
##일수
##일인가
##ㅣㅁ
##더야
##더ㅣ
##ㅗㄷ
##질해
##질뻔
##와요
##란말이야
##ㄷㅋㅋ
##부팅
##부락
##셨네요
##셨습니까
##되었
##되는건가
##그만
##그리기
##공격
##줄이야
##알려
##릴수도
##았고
##ㅏㅈ
##ㄹ래
##ㄹ려
##ㄹ어
##ㄹㄷ
##눈걸
##우ㅗ
##우어ㅓㅇ
##던뎅
##던건데
##계세요
##헤ㅎㅎ
##먹네
##갰어
##갔지
##키면
##허ㅏ
##위키
##ㅅ네
##대한
##대신
##랴구
##박이
##느중
##느거야
##쓰냐
##쓰는거
##센스
##조오
##랐다
##미리
##불가
##40
##초밥
##차별
##직전
##맞추
##많음
##돈으로
##잔니
##잤네
##유기
##렸네
##렸을때
##잡아
##저게
##저찌
##올리
##올거야
##올게요
##올리오
##취급
##넘어서
##잇는데
##방송
##환담
##쯤은
##볼때
##책을
##경우는
##후ㅏㅓ
##sp
##추워
##완료
##님도
##님한테
##hd
##간대
##덕분에
##노노
##곳에서
##돌이
##ㅕㅛ
##호ㅓ
##호흡
##매우
##ㅆ음
##뤄ㅏ
##력으로
##누러ㅏ
##토끼
##칠때
##척하고
##랭이
##68
##갑다
##친거야
##press
##씻고
##졸업
##언어
##등학생
##풀고
##붕어
##귀엽
##줬자나
##몰라서
##댔지
##댔는데
##연락
##덮밥
##패턴
##랫폼
##봅시당
##늦게
##벗고
##ㄻㄻ
##펀치
##엌ㅅ
##엑스
##퉤퉤
아니래
아니게
아니ㅣ
아니얌
아니니ㅋㅋㅋ
ㅋㅋㅋ우
ㅋㅋㅋ괜
ㅋㅋㅋ재밌
진짜루
##는거랑
##는거에
너무싫
너무행
너무해ㅋㅋㅋ
그래사
그래픽
그래야징
##고싶진
##고싶따
##고싶지만
그런적
##니다가
##하고이써
어떻길래
어떻게됨
그거임
우리아빠
##하는듯
##하는사람
##하는애들
##하는건데
##하면돼
이거밖에
##아아앍
생각한
생각인데
생각났어
운동할
운동하는데
운동해야겠다
##시간을
##시간이네
##ㄱㅋㄱㅋㄱ
##하지이
미친건가
##이지렁
##는중임
들어본
하나에
##고있는
##고있엉
##고있누
##해야게
ㄹㅇ로
이게머
하지않
언제든
어디인지
아이가
좋아짐
좋아하지
다른것도
##아ㅏ앙
##정도면
##을까봐
머리감
머리아프다
괜찮을거야
괜찮다니까
괜찮을거여
공부가
공부하는중
공부해야겠다
##한다며
미쳤넹
미쳤니ㅋㅋㅋ
미쳤나ㅋㅋㅋ
108
바로잠
ㅋㅋㄹㅋ
사진도
##하다보면
정신좀
정신병원
문제얌
힘들고
힘들었어
기분나
하자보이즈
##한거라
이상함
안되니까
안되는게
안되지ㅋㅋㅋ
보내는
귀찮은
귀찮앙
귀찮ㅇ
얼마안남
##ㄱㅋㄱㅋㅋㅋ
소설보는중
안해봄
밥먹자
아침도
아침은
아닌거같은데
엄마차
취업시켜
싫어짐
싫어함
##새끼는
뭐라는
뭐라함
뭐라해야하지
좋은게
이러시면
##그러지
전화가
전화오
전화와서
나가지
일찍일어나
힘들어ㅓ
거기까지
프로그래밍
##아니지만
##버리는데
혼자만
안좋은거
시작한다
시작하자마자
찾아볼께
기억남
만들지
##지마라
누구는
느낌임
느낌인가
자살각
자살할까
자살하고싶다
자살하고싶
자살헌터
집에선
안보영
안보는데
안보여서
얘기는
얘기함
다행이긴
노래부
노래듣
##아아ㅏ아
그때부터
##같은건
시험장
아까도
저녁먹고
있는듯
늦게잘
가져오면
대체되었다
너네반
얼굴로
##가는구만
##하하ㅏ
기다릴
기다랴
기다렸는데
필요함
그만좀
그만두
그만해ㅋㅋㅋ
정말로
코드는
치킨집
110
112
돌아간다
해보면
해보려고
해보고싶은데
조져지
조져짐
조져질
선물받
개학이
##가야하는데
놀아줘
놀아써
##애들도
##애들은
디코방
도착쓰
도착하면
저런것은
병원을
병원가야
귀엽고
인정ㅋㅋㅋ
뭐하러
마음의
일어나기
일어나고
일어나야
일어나써
일어나야해
아프니
##아아아ㅏ아아
##아아아ㅏ아ㅏ
방학은
어떤지
보여주고
보여주면
가야돼
나왔길래
잘자써
##친구들
나한테도
병신같
병신짓
피곤해죽
올라가는
먹을걸
소공이
받아라
받아써
고기먹
멘탈도
기대된다
어쩌라고요
##애애앵
##된다면
있을거임
근육을
##는건가요
무엇이
학교가냐
궁금한게
정리를
들가자마자
있다는데
코로나가
##ary
##지않나
라면을
라면먹
라면끓
재미를
재미없어
하고싶다고
알려줄
청소년
창업은
확인함
##적인건
##적인걸
먹었엉
유튜버
파이썬은
따라가
해주지
못자면
뚝딱뚝딱
나와야
허리를
학습시켜
미친놈들이
100명
다운받아
12시까지
inde
##왔어ㅋㅋㅋ
##야야야ㅑ
다녀올게
어림도없지
고마어
못하겠네
서울에서
죽을거같아여
가지팩
가지가지
프사는
추가로
생각해봤는데
아재가
두개만
왜그럴까
##이없어서
물어보자
개빡쳤
저장해
ㅋㅋㅋ그건
잠들었는데
보냈어
자신을
자신의
자신과의
마이너
한명씩
선생님이
이쁘지
구글이
애매하네
이불속에서
만드는거
어느날
성공한
정상적으로
화가나
중요한거
##을거얌
##해줘야
##일어난
##일어날
우리학교에
##어어어엉
##ㅏㅏㅏ
##만들고
##ㅇㄴㄹ
결과를
나쁘진
알았엉
올려야지
졸리당
새끼들이
코딩을
30초
디스이스
서버가
하라는거
##공부를
몇개만
학생회
##스러울
##스러운데
계란후라이
옆에있는
##우우웅
##ㅅㅂㅋㅋㅋ
안쓰는데
하지마세요
ㄱㅊ아
크림은
##하라그래
안오는데
자체는
링크를
도와줘
도와줄게
모델을
모델링
##프로그램
우리집에
물어봐서
생기지
노드씨
노드몬
보기엔
앞으로도
하연이한테
김치볶음밥
##준비중
str
부족한
부족해서
실행이
##이긴한데
연습중
웃기다
웃기게
감자탕
먹으라고
멍청이
현타와서
갈아타
넘어가는
언어를
##우어엉
read
만족해
죽지말고
칭구들
대답을
무섭게
연결이
개소리를
안될까
##otalk
좋은거지
초코파이
seung
170
고려해보자
채팅을
간지러
관련된
기능이
##헤헤헤헿
의식흐름
허허허
꿀잠자
어찌저찌
어이없음
충전기
알람을
엑셀로
해줄수가
25분
수준이
웃긴데
해커톤때
예전부터
헷갈려
##ㅣㄴ다
delet
없애버리
흐름이
정신나간
21세기
nodejs
답답해서
여름엔
예쁘다
미쳐가는거야
불쌍한
##이에여
침대에서
가르치
눈치보
용돈을
ㄴㅁㅇ
기회가
받으세요
스테끼
즐겁게
감기걸
주무세요
남친이
터져라
하하하ㅎㅎ
아나콘다로
무ㅜ야ㅋㅋㅋ
생성자
소장권
이친구는
지건마렵
##마리야
##ㅌㅌㅋ
##ango
가라앉
따뜻하게
##선물에
드림사이드
이로울
코랩으로
튀어나와
포함해서
##야게따
##하ㅜ하ㅜ
사촌동생
소중해
실화야
##진않아
275
구해다
국룰이지
번역해
생활패턴
후회중
##ive
ㅎㅋㅎㅋ
용량이
졸귀탱
##plot
타이밍을
text
감동했어요
고생했다ㅋㅋ
고생했다ㅋㅋㅋ
긍정적
노동인권
클렌징폼
하고싶은대로
32기가
이안님
이라온
직전까지
##거싶다
##ㅇ이ㅑ
돌아댕기
개욱기네ㅋㅋㅋ
바뀐거
##히ㅣㅎㅎ
usb
개오래
개오바
따땃하게
비빔밥
현금으로
뒹굴거리는중
개이쁘
개이득
대가로
독서실
분야가
불지르고
피건해
드리프트
암호화
걱정마세요
student
newnode
베이커
부계로
패드립
##스턴트
개맛있
만ㄹ이
사감쌤
자야게ㅛ다
당황스럽네
고백을
뭔시간인데
시각화
아시는구나
생각난건데
개귀여워ㅋㅋㅋ
django
고래밥
산학겸
이중인격
##ize
개싫다
게시글
백만년
보일러
설득력
이정빈
이메일
일그러진
카프레이즈
칼로리
##소프트웨어
##678
tlqkf
내보내기
대여권
음료수
띄어쓰기
뭔소린가
영아원
절친그룹
model
개또라이
도저히
마찬가지
메디큐브
뭔상관
불합격
슷투어
아부지가
조만간
청포도
크록스
##사무소
##9876543
파이토치
maybe
도굴왕
무등산
새나라의
아몬드
알리오올리오
엘리베이터
오상민
월야환담
저글링
전지적
절름발
컨트롤
킹능성
파릇파릇
index
delete
1대
1일에
2는
2인
3인
3초
3명이
4는
4가
4일
56
5주차
518
6명
6일
62
7번
7교시에
88
8장
9분
900
9시쯤
at
a양
a4
are
cu
car
cgv
dis
day
ejs
end
ever
false
ist
jdk
mv
nyp
need
pap
ret
right
sr
ser
s18
tom
tmi
use
vis
ㄴ어
ㄴ애
ㄴㅇㄹ
ㅈ도
ㅈ같은
ㅎㅋㅋ
ㅏ니
ㅓㅁ
ㅡ으
ㅣㅈ
가스
가는거지
가버리
각자
간거
간접
갈거
갈수
갈라
갈거야
갈게요
감금
감히
감탄
감정이
강철
강하게
같지
개야
개때
개새
개빠
개졸
개썩
개쪼
개미친
개힘들어
개힘들
개때려
개쓰레기
갠톡
거들
거치
거북
거ㅐㄴ
거실에
건지
건드
걷기
걸렸어
것이
것을
겉옷
계셔
고른
고객
고기도
고ㅑㄴ
고쳤어
고데기
곰탕
공무
공인
공식
공원
공룡
광기
광양
광배
광복
광광
괴물
교시
교실
구부
구렇
구뜨
국내
권쌤
그람
그닥
그ㅡ
그녀
그따
그간
그사람
근ㄷ
근본
근돼
급작
기만
기를
기죽
기뻐
기관
기괴
긴팔
길러
김가
깊티
깔자
깨진
깨짐
깸짝
꺼져있
꽁으로
꿀맛
꿈꿨
꿈이야
꿈에서도
끝을
끝이다
끝난다
나비
나임
나왓
나까지
난독
난이도
날개
날라
남장
남동생
낫네
낫겠다
내도
내거
내릴
내얼굴
냄쫄
너때문
넘모
넘기면
넣었는데
노답
노노
노벨
노는거
놀고싶어
놀라서
놀고있어
놓아
눈아파
눈앞에서
뉴비
느꼈
능력이
늦어도
니들이
다루
다치
다중
다름
다친
다있어
단절
단계
단호
달이
달래
닮음
담궈
답인가
대고
대강
대놓고
대다내
댕청
댕댕
던졌어
덮고
덮밥
데우
데프
도구
도수
도미
독방
돌림
돌리는
동우
동혁
되징
되고싶다
되던데
되자너
되는건데
되돌아
되었습니다
된거임
될거같은데
두사
두면
두꺼
두뇌
두세
두잇
두시에
뒤지는
뒤졌으면
듀ㅐ
드는데
드세요
듣자
들음
들간
들갔어
디지
딘짜
딥슬
따가
따끈
따옴
따흑
떡밥
떨구
똑바로
똥싸
뜨면
로고
로키
롤러
리버
리모
리겜
리라이프
마셨
마동
마넌
마십쇼
막혀
많구만
말래
말리
말어
말걸
말해서
맞다고
매워
맹장
머무
머임
머남
먹엉
먹는건
먹을듯
먹엇어
먼지
먼지가
멈출
멈췄
멋잇
메타
메세지
멜론
명단
명치
명절
명언
명찰
몇키로
모공
모듈
모여서
목을
목록
목욕
목련
목욜
못받
못듣
못했는데
못하니까
못하는중
못가고
못일어나
묘미
묘하게
무ㅗ
무겁
무언가
문장
문열고
물은
물놀
뭐람
뭐네
뭐긴
뭐행
뭐했는데
뭘까요
미지
미어
미침
민감
믿을
밀고
밀려
바르고
바사삭
반부터
반쯤에
반디코
받는데
받고싶은
밝아
방도
방치
배그
배움
배워서
뱃살
버렸
버틴
벗겨
벗어나
병에
병실
병문
보ㅓ
보장
보존
보더니
보기로
보도록
보고싶음
보고싶은
복습
볶음밥
본게
본거같은데
볼라다가
봉인
봐야하는데
봤으면
부수
부셔
부와
부산
분열
분노
불렀
붙이
붙음
붙잡
블러
비계
비행
비쥬
빈혈
빙구
빠질
빠지고
뺏어
뺨맞
뻥튀
뽀짝
뽑음
뽑았
사시
사건
사업
사복
사귄
사고싶어
사고싶은데
사주면
사정이
산성
살래
살랴
살려고
살기가
살았다
상실
새거
새우
새삼
서양
석훈
설계
설레
성의
성당
세워
세션
세포
세븐
소수
소질
소식
소녀
소환
소매
소고기
수명
수식
수박
숨어
쉬운
쉬엄
쉬렴
쉬고싶어
쉰다
스파
스케
스캐
스파이
슬플
슬랙
승리
승모
시장
시그
식당
식겁
신서
신비
신선
신남
신나는
실천
실험
실뜨
싫을
싫었어
심리
심한거
심호흡
십분
싶을
싸지
썜이
써봐
써야하는데
써야되는데
쎄게
쏟아
쓰다
쓰세요
쓰라는
쓴게
쓸거
쓸게
쓸까
씨유
씹창
아껴
아근데
아짓도
안만
안어
안살
안싸
안넘
안벌
안틀
안늦
안끊
안철
안다고
안가서
안가는
안한다고
안하다가
안봤어
안갔어
안됐어
안아픈
안물어
안잤어
안머겅
앉았
않으
않닝
않잖아
않을게
않ㅇ르
알보
알거
알고있음
암거나
애슐
앱이랑
야아
야근
야ㅑ
야씨ㅋㅋㅋ
약은
약하게
얘기가
어버
어ㅓ
어울
어릴
어셈
어림
어헣
어ㄸ
어꺠
얻은거
얻었다
업그
업로드
없서
없던
없따
없겠지
없었다
없을텐데
엎어
여ㅐ
여자가
연장
연두
열린
열신
열일
엿맥
영달
영국
영빈
옆집에서
예비
예원이
오백
오능
오르
오웅
오긴
오시면
오자마자
오조오
온듯
올겡
올려주
올때마다
올렸다
옵션
와야
와리가
왔네
왜봐
왜나와
왜때매
외로
외롭
왼손
요기
요구
우아
우씨
우락
우ㅏㅓ
움짤
웁니다
웃겼어
웅웅
워터
원하는거
웨일
웬일로
윗몸
유ㅏ
유출
유연
으이
으라
으워
으휴
으어어어ㅓ
이눔
이소리
이스트
이시키
이만큼
이명서
인물
인디
인자
인식
인줄
인성이
인코딩
일거리
일자로
읽을
잃은
잃음
잃었
잃었다
입었
잇몸
있넹
잊을
자의
자른
자냐
자룜
자세요
자버렸
자거랑
작살
작게
잔거
잔잔
잘아
잘래
잘지
잘들
잘한
잘모
잘햇
잘시간
잘할게
잠수
잡니다
잡았다
잤더니
장면
장소
장비
장제
장마
쟤가
저요
저대로
저사람
전해
전파
전송
정수
정반
정체
정해져
제때
젤리
조울
조작
조지면
족보
족쳐
존ㄴ나
졸다가
졸리지
종이
좋군
좋앙
좋대
좋을듯
좋을거
죄수
주군
주라고
주먹을
죽이고
줄이
줄이고
줏어
중고
중딩
지지
지배
지나서
지방이
진찌
질럿
집순
집간
집밥
집보내
짜식
짜잔
짜파게티
쪼끔
쫒겨
찌개
찌질
찌끄
찍먹
찍는다
찍히는
찔러
차도
차별
찬양
참가
창의
찾을
채소
채워서
처먹
처리를
척추
청원
체질
체감
체념
초상
초능력
총대
추움
출처
충장
측정
치는
친추
침수
칼빵
칼럼
캐시
캐리
캡본
컴이
켜고
코가
코코
코를
코인
코난
코엑스
쿨럭
퀴즈
크으
크리스마스
클럽
클리어
키는
키우고
킬더
탁구
탄탄
탈모
탱크
터쳐
터지면
털어
텅텅
토닥
토할거같아
톡해
톡게
톡할게
투썸
퉤퉤
트라우
틀려
티내
티켓
팀프
파인
팝송
패배
팩스
펑크
페레
페이스톡
편한
포켓
폭동
표지
푹쉬
풀었는데
프랑
플러스
피셜
하거
하깃
하든
하복
하구나
하잖아
하시지
하려구
하씨ㅋㅋㅋ
학급
학원이
한거임
한조각
한바퀴
할것
할것도
할생각
할수가
할건데
할라했는데
항구
해가
해물
해찌
해버림
해로워
해둔거
햇빛
했었
했냐
했늬
했대
했었나
허리는
혀가
현대
현석
호주
혹사
혹싀
혼종
혼내
홀홀
화요일에
활용
회장
회원이
효녀
훈련
휠체
휴교
흐헤헤헤ㅔ
흡연
흰색
흰티
힘둘
힙합
##이리
##이ㅜ
##이유
##이잉
##이썽
##이자나
##이유가
##85
##명사
##도로
##도라
##도그
##있습니다
##있었음
##기네
##기상
##기준
##기는데
##기까지
##을고
##을라
##을거같
##을거같은데
##개가
##사태
##사능
##사탄
##각이야
##해쓰
##해놓
##는제
##는시간
##다닌
##다르
##다님
##고는
##니ㅣ
##니움
##시자
##시스
##시킨
##시계
##시판
##시구요
##안좋
##안해서
##안들어
##가각
##가나
##가보
##가ㅓ
##가ㅗ
##가ㅏ
##가ㅏㄱ
##겠서
##겠엉
##겠더
##겠습니까
##아로
##아으
##아주
##아우
##아노
##아푸
##아리는
##러니
##러간다
##서클
##정해서
##나온
##나봄
##나가서
##나보다
##나오면
##나이트
##오ㅓ
##오셈
##오세여
##근해
##무지
##지이
##만화
##야ㅜ
##야ㅏ
##야져
##야아ㅏ
##야할까
##야ㅑㅇ
##랑이
##건이
##으나
##으렴
##으먄
##으몀
##보인
##보노
##보렴
##진데
##즈를
##리러
##리화
##리더
##리다가
##리고싶다
##리더라
##리고싶어
##들었
##것들이
##를때
##생기면
##했을때
##려다
##여해
##여자
##거의
##거냐
##거림
##거려서
##주나
##주신
##어오
##어ㅐ
##어ㅕ
##어깨
##봤어요
##살이
##ㅜㅎ
##ㅜㄹ
##화그리기
##하ㅎㅎ
##하거라
##하던가
##하셔야죠
##실한
##실거야
##비트
##인남
##금이
##금지
##상해
##한텐
##한것도
##터져
##터랩
##좋지
##린이
##린게
##타ㅏ
##구래
##구려
##구멍
##구조
##수료
##적을
##라궁
##라는거지
##디로
##꾸로
##꾸면
##열제
##워도
##워요
##ㅎㄱ
##ㅎㅇㅎ
##었을
##었느데
##말인가
##바보
##바른
##바탕
##바사삭
##난거야
##용히
##ㅛ어요
##내일
##내역
##내ㅋㅋㅋ
##내리고
##자네
##자국
##너리
##점은
##히ㅡ
##신거
##신듯
##신분
##신가요
##ㅈ더
##ㅇ을
##ㅇ야
##ㅇ엉
##ㅇㅋㅋㅋ
##ㄴ디
##ㄴ내
##ㄴㄴ데
##스스
##스쿼트
##스페이스
##칭구
##효과
##받는거
##갗아
##애서
##애ㅋㅋㅋ
##였니
##였움
##였습니다
##였구만
##교사
##치다가
##치는중
##제도
##제가
##제를
##런거
##흐하
##일은
##일거
##ㅣㅓ
##ㅣㄹ
##더ㅐ
##합니
##학원
##장판
##ㄷ다
##부탁
##쩌고
##강이
##전당
##반영
##되게
##되긴
##되겠지
##되냐고
##그리
##그든
##그랫
##그라미
##ㅡㄴ데
##냐구요
##ry
##ai
##uh
##ual
##ep
##딩이
##공개
##공지
##공포
##식의
##줄께
##릴러
##마시
##마워
##마ㅓ
##마늘
##았엉
##았당
##았구나
##동글
##권완
##권까지
##작을
##ㅏ나
##ㄹㄴㅇ
##날때
##웠지
##nn
##우ㅠ
##우웅
##우산
##우어어
##중인
##중으로
##중이다
##던것
##던게
##먹지
##먹은거
##걸랑
##걸려
##키보드
##허ㅏㅜ
##cm
##cat
##mm
##ㅅㅅㅋ
##대ㅑ
##짜기
##짜식
##석이
##감도
##감자
##감당
##써야지
##분이네
##티가
##박죽
##박을게
##박치기
##느끼
##겟당
##겟습니다
##쓰는중
##긴거
##긴다고
##두기
##두ㅜ
##글을
##글자
##맨날
##1개
##깔고
##피아
##미는
##불로
##4교시
##차는
##차고
##됐으면
##프라
##포인트
##냥이
##ile
##iew
##yst
##맞다
##많은데
##ly
##잔ㄹ
##잔ㄹ아
##격리
##잤지
##렸다가
##잡이
##저시
##저래
##껀데
##룽ㄴ
##ㅍㅋ
##램블
##좌웅
##방은
##레인
##레드
##엔자
##후ㅏ
##완전
##길레
##놓음
##통화
##뭐가
##덕은
##노동
##노우
##노릇
##듣는
##ㅕㅑ
##폴더
##렇지
##호ㅎㅎ
##민국
##토스트
##깨비
##커피
##64
##테일
##케케
##케이션
##닐라
##머리는
##될거야
##외로
##형은
##형이야
##형한테
##친게
##친ㅋㅋㅋ
##련아
##앗다
##멸망
##못했다
##ppt
##왕이
##언맨
##쉬엄
##등록
##겹살
##귀야
##덩어리
##fs
##몰랐
##놈들
##둬야지
##연결
##됬어
##령이
##웨이
##힘드러
##멘트
##투표
##쓴데
##밀리
##쉐키
##납니다
##랸ㅇ
##햤어
##겄네
##낫다
##갖고
##앨범
##는데도
##는데ㅋㅋㅋ
아니이
아니오
아니아니
ㅋㅋㅋ맞아
ㅋㅋㅋ화이팅
진짜ㅡㅡ
너무많이
너무싫어
너무힘들어
너무하넹
너무재밌어
근데도
그래보인다
##고싶게
##고싶으면
##고싶다고
그런것같
그런거같은데
이제집
이제일어남
##하고도
##하고와
어떻게하죠
어떻게알았어
##다고요
##다고한다
##하는구만
그러는거
이거에
생각이야
생각하자
생각없이
생각났는데
생각할수록
운동안
운동해서
운동하니까
운동할거야
운동할거얌
학교나
학교생활
##해서ㅋㅋㅋ
##구나ㅋㅋ
##까지밖에
##이라더
##이라는거
내일이나
내일부턴
##ㄱㅋㅅㅋ
##ㄱㅋㅅㅋㅅㅋ
모르는게
미친새끼들
사람같
사람만
사람ㅇ
사람마다
많이도
존나시
존나부럽
##001
친구만
들어야지
들어주세요
하나의
##고있고
##고있네
##고있냐
##고있으면
##고있었음
그럴거
그럴거면
그럴라나
해야할거
해야할듯
##해야해서
##해야한다
##해야할지
이게ㅋㅋㅋ
##잖아ㅋㅋ
얼른가
이미지를
시간여행
언제오
##어어억
이렇게까지
아이구
아이언맨
좋아하
좋아한다
다른애
##아ㅏㅏㅇ
##아ㅏㅏㅏ
머리자
수업들어
수업하는데
수업이나
공부하면
공부해서
##한다니까
10일
10퍼
10시간
ㅋㅋㄱ
ㅋㅋㄱㅋㅋㅋ
사진좀
몰라여
저거를
빨리가
##하다는
##하다구
##하다ㅋㅋㅋ
정신상태
재밌니
재밌다고
같이가
힘들허
힘들구나
힘들구만
기분은
기분좋아
이상하네
없어져
보내서
보내라
보내야지
보내주면
맛있당
맛있긴
귀찮은걸
응원은
다음교시
하는말
##어야함
##어야하는데
요즘엔
피곤한
피곤하게
피곤하당
일어난다
게임함
게임이나
게임해야지
소설로
안해ㅋㅋㅋ
안해봤어
밥먹기
밥먹구
밥먹는다
밥먹을거야
##지는걸
아닌걸
엄마도
죽을것같아
뭐라나
뭐라그래
이러는
이러지
이러더라
이러고있음
고생하
고생하셨
전화는
전화옴
전화해주
전화상담
나가야
나가는거
나가는중
##것으로다가
일찍잔
일찍일어나서
가능하
가능한
가능할
가능하면
가능하다
##것같기도하고
하루는
안나서
안나는데
힘들어짐
거기로
거기다
##했다구
##아니구
알아야지
잘못해
잘못했
카톡도
카톡좀
안좋니
안좋지
시작하는
찾아가는
찾아보면
찾아봐야지
찾아봐야
##버렸구나
##해보ㅓ
기억을
기억나
기억함
만들었는데
누구냐
누구세요
조금은
느낌을
고민했는데
고민해볼게
12학년
가서도
##라는겨
안보인지
안보이고
얘기도
얘기좀
얘기하고
다행인건가
만들어볼까
만들어야되는데
아주머니
노래는
노래부르
##자나여
버스는
집가고
집가는중
이름도
그때도
그때는
그때의
##같은것도
##같은건가
시험인데
귀여운데
아까는
아까부터
저녁엔
##ㄴㅇㅍ
있는줄
있는것으로
그랬다고
아파여
얼굴은
얼굴대면
##하하ㅎ
##하하ㅎㅎ
연락해
연락할게
안먹으면
안먹을거야
안먹은지
행복하지
행복이지
행복하게
행복회로
개발자가
미치게
미치겟다
필요없
필요한게
그만하고
코드만
코드좀
##해도돼
##해주면
미쳐서
미쳐버린건가
짜증남
115
##ere
돌아올
해보겠습니다
고양이도
조져서
##라이즈
있었나
있었누
있었거든
##이었으면
##이었습니다
사라졌어
##으니가
미안하지만
세상과
놀아조
##레이닝
디코를
2018
##같아ㅋㅋㅋ
마지막날
병원은
병원에
귀엽네
귀엽당
##오오ㅗ
제출했어
같은건
같은디
같은느낌
그치그치
아프지
##아아아ㅏ아
##아아아ㅏㅏㅏ
ㅇㅈ합니다
그정도임
그런가봐
면접이
배고픈데
보여준
아빠도
잘자라
##친구가
병신같이
병신같네
먹을수
받아들
심심했구나
고기사
고기먹고싶다
고기먹으러
멘탈나간다
자세로
자세에요
기대했는데
잠이온다
일본인
##아파요
어쩌라는거야
##ㅇㅈㅇㅈ
##ore
있을걸
잠을자
학교에서는
거지같네
정리좀
들가기
들가는거야
코로나땜에
한시간동안
인나니까
회사에
재미써
하고싶으면
알려줌
알려줄게
알려준거
노력중
노력할게
##갔다와
누워계세요
파이썬을
안가요
해주면
해주는
안들리
##느낌이야
30분도
광주에서
개꿀잠
내려와
내려가서
떨어지는
떨어져서
떨어졌어
아닐거야
아닌데요
허리에
##할거면
어쩔수업
조지는거
학습지
100000
의미죠
스트레스가
스트레스받아
다운받고
유튜브에서
고맙따
힘내려
##야야양
하고있음
들어가고
카트를
##ody
생일을
못하겠음
일본어는
15만원
맞아ㅋㅋㅋ
오ㅑ그
오ㅑ케
오ㅑ이래ㅋㅋㅋ
일주일만에
##히히히힣
진정해ㅋㅋ
가지고싶어
하다못해
##수업을
만나는
두개는
ai로
ai는
알고보니까
이래도
이래놓고
저장이
저장을
하려고했는데
교회언니
해줘야
현실이
ㅋㅋㅋ그냥
다음주까지
다음주부터
추천함
##이ㅣ이ㅣ
##는줄알았
아래로
아래는
##나가고
않았니
상관없는데
절대안
한명도
이쁘고
모르겠어요
애매한게
이불을
##라ㅓㅜ
##라ㅓㅁ
나갈까
나갈일
나갈준비
만드네
빅데이터는
감사히
내용을
성공해
정상이야
들고가
들고다니
에어프라이
중요한게
우리학교에서
불편해서
모르게쒀
pptx
바꿔봐
만든다
만든게
만든거야
질문이
해결했어
##ㅅㅋㅅㅋㄱ
결과는
알았니
바꾸자
올려야
새끼들은
안했으면
방법도
사용해서
주말엔
몇개나
검색해봐
사랑한다
##거리면서
##lect
좋아하는구나
13만원
ㄴㅇㅁ
탈주각
할수있는
환장하게
환장하겠다
미친거아니냐
안오네
안오는거
자러갈게요
자라니까
일어났네
링크가
위험합니다
장고를
##호호ㅎ
2주년
구래야징
보이냐
보이는데
조심스레
##나오네
가족여행
자바를
자바칩
평소엔
아무리봐도
##하하하핳
빡치면
아닌가요
안남아
같아요
##해지는데
8시까지
납치해
내꺼로
당황스럽다
예전에도
웃기냐
큰일나
큰일이야
큰일날뻔
##모르게
애기들
이럴땐
전체적으로
절반정도
ptsd
어그로를
##부분만
미쳤네ㅋㅋ
있긴한데
집중이
집중해서
고마워ㅋㅋㅋ
어느정도는
바보가
찬물샤워
##하셨어
##하셨습니다
부모님은
부모님한테
정보가
정보기기
##달라그래
생각중이야
아이디로
똥멍청
죽지말
글씨를
무섭다
으어엉
지나감
1교시는
잔다며
안보여요
list
먹고싶당
먹고싶은거
슷님한테
슷님이랑
##오오오ㅗ
ex2
시켜서
헤어지고
그런걸수도
17분
가까운
먹는다고
세계는
세계를
세계관
채팅방
다른데도
ㅋㅅㅋㅅㅋㅋ
핸드폰이
편의점에서
수영장
읽어보고
귀여운걸
알았어ㅋㅋㅋ
왼쪽에
조질까
기다려야
기다려야지
움직이면
일요일날
##지말라고
배경은
어이없어서
궁금해진다
나쁜놈
심각해
##아닌가
다이어트는
어딨냐
어딨누
웃긴게
##로로쉐
##라라라
느낌이랄까
40초
박살날
##ave
낮잠을
사장님이랑
야야야ㅑㅇ
와파가
헷갈림
10개씩
시끄러워서
80퍼
아닝ㅋㅋㅋ
전부다
지갑은
해볼게요
정신나갔네
스트레칭만
드는구만
마싯지
마법사
무료로
실수로
씻어야되는데
언젠가는
파탄난
파탄남
흑우가
칭찬해
##나보ㅓ
아무생각도
더러워서
안받아서
이자식이ㅋㅋㅋ
취향이
만약에
무릎이
보낼게
양심이
유산균
진로카드
하셨는데
##생겼어
##살아야지
바꿀까
받으렴
와이파
아이폰11
##에에ㅔㅔ
pdf로
경찰서
경찰아조
메모라이즈
버티면
스타벅
출석체크
##시퍼여
##아픈거
클래스룸에
슬픈데
오케이
환경변수
때려치고싶다
갑작스런
동네사람들
오이오
지혜쌤한테
##할수있어
##ange
모를수도
바쁘게
##ㅣㅣㅣ
구름이
뭐하고있닝
아깝다
잘거양
존경스럽
달달한
손목이
어른이
치킨먹는다
귀차낭
놀러가고싶다
메이플
홈트레이닝
안알려줘
##허허허
너무해ㅠㅠ
26만명
커엽ㅋㅋㅋ
토마스
건조대
그놈은
기획서
멀쩡히
못찾았어
하고싶어도
ㅋㅋㅋㅅㅂㅋㅋㅋ
한국어를
가위질
가위눌
다를게
몇몇은
이말이지
이쁜데
잔인해
터트려
호호호ㅗ
##쿄쿄ㅛ
다녀오세여
에어팟프로
개욱겨ㅋㅋㅋ
똑똑한
안보이는데
괜차너
머거야지
모의고사
텍본으로
그런것은데
29일
good
강훈이
고개를
미아핑
불지르
안줘도
어뵤어
저정도면
무엇인지알
개똥멍청이
경험담
자율동아리
줄어드
형찬이
고추바사삭
무지개
비싼거
사전예약
소문이
시점에서
심한말
자신감을
##일어났더니
정신차리렴
교통비
뒤틀린
반톡에
수분보
안심심
졸ㄹ려
헤드폰
##키우고싶다
##ype
adsp
가리키
배부르게
준선쌤
찜질팩
ㅣㅂ년
랭킹전
메가사탄
베이스로
신이삭
안왔으면
개슬프다
드래곤
매트릭스
문화전당
보건실
인구수
흘러넘
##urn
생각하십니까
개시끄러워
팔굽혀펴기
3105
scal
나쁠건
나홀로
땡깡부
박매일쌤
빙의해서
워크스페이스
유치원
파리바게트
중간중간에
gener
개씨게
갤럭시
광산구
그루밍
애뮬레이터
여서동
육개장
코스프레
구내염
군침이
돈까스
디저트
종합병원
지리산
최후의
커뮤니티
프렌치
현기증
형제님
ㅋㅋㅋ당연하지
정신사나워
어지간히
grade
kakaotalk
네이티브
동글동글
로맨스
몸통박치기
신주원
싸이코
장례식
좌웅좌웅
지극히
히라가나
1대1
every
nypc
return
visual
광복절
리버싱
비쥬얼
쉬엄쉬엄
스캐터랩
신서유기
알보칠
애슐리
열신히
오조오억
우락부락
주군의
톡게시판
트라우마
02
1억
1000원
1학기
2박
2기가
2시쯤에
280
2단계
3회
3천
3반
3d
3배
3차
39
48
4만
4분
49
4000
5점
5초
5시쯤
5천원
67
69
7개
7일
800
9명
91
ax
bu
boo
but
can
code
hr
iot
kr
lqkf
last
ost
pow
r이랑
rpg
sd
sn
sk
size
tab
tts
vue
view
wa
wow
yes
ㄱ그거
ㅁㅇㄴ
ㅇ아
ㅈ같아
ㅌㅋㅋㅋ
ㅎㄹ
ㅓㅇ
ㅓㄹ
ㅛㅣ
ㅜㅇ
ㅜㅏㅓ
가로
가사
가실
가질
가냐
가형
가는건
가지도
가리는
가기로
가는건데
가자마자
가고싶은
가리네
가기싫다
각인
각인데
간대
갈비
갈굼
갈듯
감방
감귤
갓다
갔넹
갔다고
강한
같습니다
개가
개수
개조
개노
개찐
개망
개봉
개똑
개같이
개부럽
개졸려
개난리
갸아아ㅏㄱ
걔를
거래
거를
거하게
거리가
거실에서
거따가
거꾸로
건들면
걷고
걷기가
걸리고
걸렸다
걸리네
경고
경멸
경쟁
고건
고자
고작
고칠
골프
공항
공략
관리를
괄호
괘북
교사
교내
구아
구나
구려
구거
구와
구랬
구급
구슬
구했어
구아아ㅏㄱ
국정
군데
권태
귀욤
귀욥
귀에서
그새
그중
그램
그론
그형
그냉
그아아ㅏ
그지랄
그상태로
그자체
그모양
극한
극대
근원
글이
글라스
글렀다
금욜
기여
기빨
긴바지
길고
길렀
길어서
김도
김나
김에
김나가
깊은
깨지
깨져
깨우면
깨지지
깨물어
깽판
꺠달
껐다
껴서
꼬셔서
꼼지
꼽사리
꾸며
꿀꿀
꿀따리
꿈도
꿈은
꿔바
끈기가
끊겼
끊기면
끌려
끝에
끝낸
끼어
나밖에
나이가
나진짜
나빼고
나유연
난또
날카
날려서
남씅
낫징
내게
내집
내목
내라고
내려주
내리면
내동생
냉면
너지
너와
너머
너라도
너답다
널리
널널
넓고
넣을때
넣어야지
넣을게
네에
네놈
노코
노라
노곤
노릇
녹아요
놀거
놀란
놀거야
놀라고
놀기로
농어
높게
놓쳤어
뇌를
누ㅜ
누움
누누
누어서
눈빛
느에
느낄
늙어
늦으면
늦어서
늦었네
늦을수도
니랑
닌텐
다야
다수
다신
다냐
다써
다리를
다먹음
다원이
다다음
단독
단위
단돈
달렸
달리면
닮았
담양
담엔
답좀
답없
대안
대장
대략
대문자
던전
덥더라
덩치
덮어
데자
데이트
도네
도트
도넛
도깨비
독자
독일
독학
독촉
돈만
돈주고
돈내고
돌릴
돌아서
돌려주
돌리는데
동화
동사무소
돼버림
됐어요
되있
되더라
된듯
된대
된다는
될거
될까요
두끼
두뇌가
둥글
뒷자리
듀얼
드시
드네
드릴
듣는거
듣다가
듣는다
들엇
들은듯
들간거
등산
디폴
딕셔
따지
따봉
땀흘
때리고
때리면
떄문
떠들
또는
똑같은데
띄우
띄워서
라식
런칭
로봇
리셀
마주
마심
마검
마르
마냥
마련
마쟈
마시면
마사지
막말
막판
막힘
막대기
만다
만지면
많다고
많은거
많았어
많다ㅋㅋㅋ
말단
말궁
말해야
말이다
말했는데
말해야지
말았어
말하셈
말라는거야
말할라
말하자면
맘편
맛좀
망할
맞니
맞죠
맞춘
맞는건
맞어ㅋㅋㅋ
맡겨
매주
매장
매크로
맨몸
맨투
머야ㅋㅋㅋ
먹방
먹는데
먹으니까
먹고싶은데
먹고있어
먹은거야
먼데
멈춘
멋있는
명상
명규
명화그리기
몇살
몇년
몇명이
모가
모행
모훈
모야ㅋㅋㅋ
목도
목에
목아파
목적이
목욜에
몰려
못지
못볼
못읽
못보고
못하나
못합니다
못해도
못해주
못할수도
무드
무친
무례
문을
문리더
문피아
물도
물에
물품
뭉개
뭐에
뭐좀
뭐하자
뭐하는지
뭔디
뭔논
뭔내용
므ㅓ
미술
미숫
미띤
미끄러
믹서
민영
민원
민폐
믿기
바러
바름
바탕
바다가
바지가
바르는
바닐라
박스
밖이야
밖이라
반어
반갈
반숙
반납
반에서
반이야
반까지
반인가
반이면
반바지
받네
받는거
받는중
받은거
발악
발톱
발전이
밝혀
밤을
밥좀
밥묵
밥머
방문
방청소
방사능
배때
배우는
밸류
버릴
버ㅏ
버팀
버렸어
범위
베리
베이지
변호
별명
보야
보인
보스
보냐
보던
보완
보겜
보톡
보는건
보기가
본격
봐여
봐줄
봐ㅗ바
봣는데
봤냐
봤을땐
부어
부장
부동
부드
부름
부스터
북구
분실
분홍
분산
분들이
불려
불닭
불끄고
브레이
브랜드
블라우
비오
비상
비트
비웃
빌려줘
빛의
빠짐
빠져서
빡대가리
빨라서
빵을
뻘건
뻘소리
뼈를
뽀송
뿌렸
뿌뿌
뿜뿜
사정
사소
사칭
사치
사모
사식
사줄
사옴
사연
사는중
사는거지
사십쇼
사왔어
사야하나
사들고
산악
살을
살거
살수
샀지
상사
새로나
샌드
생생
생신
생기는
생긴다
서럽다
섞어서
선식
선호
설명이
성지
성능
성분
세대
세번
센스
셀레
소속
소세
소감
소유
소담
소풍
속쓰
손도
솔로
솔솔
수건
수용
수락
수수료
순화
숨겨
쉬지
쉬벌
쉬는게
스시
스리
스터
스위
스택
스쿨
슬픔
슷서치
시ㅣ
시설
시공
시차
시퍼
시뤙
식도
식사
식량
신성
신상
신문
신분
실사
실검
실전
실환
싫냐
심사
심신
싯펄
싶었
싶었다
싶었던
싹바
싼거
쌉에바
쌤들도
쌩쌩
써야돼
썩어
썸네일
썻는데
쏙들어
쓰렴
쓰다가
쓰는거야
쓰려고
쓰고있어
쓴다고
쓸쓸
씨는
씻음
씻펄
아ㅡ
아웃
아뉜
아팡
아누
아떠
아녔
아ㅋㅋ
아ㅋㅋㅋ
아이야
아세요
아하하하ㅏ
안도
안버
안모
안질
안깔
안놀
안왕
안줌
안줬
안넣
안됬
안쓸
안즐
안뽑
안됑
안으로
안하나
안하니
안한게
안할듯
안드는
안입고
안햇는데
안본다
안도ㅑ
안끝나
안햌ㅅ
안온다고
않앗
않을듯
않을거
알잘
알죠
알라
알찬
알다가도
앙큼
앞이
앞머리가
애는
애랑
애용
애긔
애기가
앰플
앱으로
야나
약도
약물
약발
약해서
양말
얘는
얘들이
어오
어야
어리
어성
어딧
어어ㅓ
어감이
어렸을때
언데
언행
얻을
얼렁
엄ㅅ어
없기
없너
없더
없을까
없을거
없었다고
없었던
엉엉
엎져서
엎어져
에게
에픽
에센스
여는
여주
여깁
연합
연계
열시
열어서
열었는데
염라
염좌
엽떡
였나
영구
영웅
옆동네
옆단지
오로
오디
오때
오냐
오양
오랫
오리고
오길래
오는겨
온대
온몸이
올영
올듯
올리는거
옷도
와도
와아ㅏ
와르르
왁굳
왔더니
왜나
왜요
왜애
왜와
왜먹
왜써
왜튀
왜ㅋㅋ
외상
외워
외할머니
요소
욕심
욕하고
욕하는건
우워
우냐
우릴
우왕
우라ㅓ
운남
운덩
웃고
웃겼
웃는거
웃으면
웰컴
웹이랑
위가
위에는
위주로
유아
유태
융신
으ㅓ
으아니
은영
읍서
응응
의성
의향
의지를
이재
이성
이수
이디
이ㅣ
이직
이뤄
이욱
이승
이뻤
이거야
이이이
이느낌
이랬는데
인도
인형
인맥
인식이
일시
일루
일분
일이나
일하는중
읽는
잃을
입은
입으로
입니까
잇지
있겠다
있구만
있겠어
있잔하
있단말이야
있다는걸
자진
자색
자장
자빠
자셈
자막
자ㅋㅋ
자겠지
자면서
자기로
자랴고
자증나
작은거
잔당
잘고
잘보
잘걸
잘잠
잘해서
잘한다
잘거임
잘하고있
잘살아
잘됐네
잘부탁
잠금
잠깨
잠오는데
잠못자
잡다
잡았
잡생각
잣어
잤엉
잤길래
잤어야지
장부
장식
장판
재생
재시험
재부팅
쟈밌
저금
저말
저랬
저격
저승
저쩌고
적고
적지
적어서
전도
전학
전세계
절실
점프
정함
정결
정하고
제자리
조정
조아요
존대
존맛
존대로
졸린거
좀있다가
종특
좆같은
좆같이
좆같음
좋려
좋더라
좌표
주심
주겨
주스
주글
주차
주량
주섬
주길래
주기로
주말이
죽는게
죽겠어
죽겠네
죽도록
죽겠는데
죽겄다
준다고
줄거야
중소
중2
중이야
쥰나
즈그
지를
지어
지능
지혼
지뢰
지나고
지우는
지났는데
지렁이
지맘대로
직원
직통
진상
진쩌
진료
질려
짐들
집인데
집갈때
집이지롱
징그
징그러
짤을
짤은
짧아
짱좋아
짱신기
쭉쭉
쮸글
찍었어
찰칵
참는다
찾지
채끝
챙겨서
처방
천벌
천만원
쳐봐
초기
초에
촛불
추웠
출항
출시
취한다
츄릅
츄리닝
치카
치니까
치라고
치는게
친하게
친해지
칠판
커밍
커튼
커다란
컴파일
케이크
켜져
켰는데
코로
콘서
쿄쿄쿄ㅛ
쿠크
쿨타임
크롤
크고
크롱
크크크
큰데
큰일이
큰그림
클로
클린
클났다
키면
킹덤
타지역
탈탈
탈학교
탈인간
탔다
태도
턱은
텅장
테탑
텐트
텔레
템플
토스트
퇴장
투블럭
튀어
튀김
트리
특이
특징
틀려서
틀리면
틴트
팀이
파랑
파괴
팔도
팔찌
퍼스
펀치
페미
편히
편식
포인
포지션
폰에
표정이
풀었어
품절
프라
플젝
플라스
플랫폼
피를
필름
하능
하위
하락
하쟈
하이라
하냐고
하시네
하십셔
하셔야죠
학계
한화
한자
한눈
한남
한컴
한가지
한단다
할고
할무니
함수를
합치
합니까
합쳐서
핫팩
핫도그
해줭
해줬
해버려
해달라
해버리자
해드리
해드려
해버릴까
햇음
했구나
했을까
했습니다
했어요
했었지
했는ㄷ
행사
햌ㅅ
햌ㅅ는데
향이
허실
헤ㅔ
헤헤ㅔ
혜택
호치
호불
혹은
홀딩
홈베
확깨
환율
후들
훅가
훌륭
훔쳐
흐으
흐른다
희귀
희흐히
힘은
##증은
##이으
##이겨
##이루
##이ㅡ
##이져
##이미
##이쒀
##이후
##이노
##이틀
##이겠다
##이던데
##이없어
##이여서
##이랄까
##86
##도나
##도ㅠ
##로군
##로구나
##있누
##있을듯
##있다구
##있었으면
##기랑
##기라
##기록
##기억
##기초
##기하고
##회사
##사도
##사용
##사관
##사줌
##면으로
##해두
##해버려
##해봅니다
##ㅂㄴ
##ㅂㄷ
##ㅂㄹ
##는뎀
##다지
##다스
##다며
##다ㅋㅋ
##다ㅎㅎ
##다는게
##다니다가
##고루
##고와
##고토
##니께
##니즘
##시요
##시ㅠ
##시넹
##시더라
##시던데
##시네요
##예배
##안을
##안가
##안한
##안에는
##안좋아
##가게
##가르
##가방
##가는거
##가다가
##가는건
##겠고
##겠고만
##아타
##아애
##왔으면
##왔다고
##왔다가
##왔습니다
##왔거든
##데레
##러어
##러럴
##서도
##서가
##서서
##서버
##정말
##정류
##정리를
##잘까
##나아
##나네
##나여
##나바
##나가면
##나왔다
##나니가
##오로
##오아
##오바
##오케
##오겠다
##오려고
##오ㅗㅇ
##의금
##래ㅓ
##래ㅋㅋ
##코코
##코인
##무시
##무룩
##무엇
##무료
##무리가
##은느낌
##은계란
##지다
##지니까
##지는거야
##지나면
##만한거
##만해도
##만명이
##야어
##야하
##야하지
##야겟다
##야되나
##건너
##으ㅓ
##으ㅏㅇ
##꺼같아
##보로
##보려
##보호
##보는게
##보이네
##진지
##진대
##베리
##리아
##리즈
##리콘
##파ㅓ
##파일이
##재료
##들려
##들었는데
##들으러
##것갘
##네이션
##to
##생아
##생성
##생겨서
##했으면서
##했는디
##했는ㄷ
##려움
##려는거
##쳐야
##쳐먹
##버티
##버튼
##혀있어서
##여ㅠㅠ
##운이
##운뎅
##거래
##거거
##거에
##주기
##주시
##주셈
##주섬
##심심
##심으로
##어지
##어진
##어봐
##어써
##어아아ㅏ
##어그로
##어려워
##성에
##성찰
##봤네
##봤엉
##엉ㅎㅎ
##군뇨
##살까
##게나
##ㅜ아
##달래
##달라구
##하도
##하에
##하내
##하ㅗ
##하쟈
##하먄
##하더니
##하러가
##하고싶어요
##실수
##비시
##비인
##비용
##비슷
##비싼
##인에
##인거같
##상인
##상자
##한적
##터미널
##린대
##타아
##타입
##구고
##구를
##구냐
##구양
##구두
##구매
##수정
##수없
##적으론
##죠ㅎㅎ
##라아
##라떼
##라하면
##라면서
##겨야지
##짐ㅋㅋㅋ
##발로
##음이
##음은
##열차
##죽을
##ㅎ후
##단이
##단거
##말한
##말하면
##바다
##바이트
##난데
##용은
##갈거임
##갈수록
##때쯤
##ㅛ니
##ㅛ당
##ㅛ구나
##내기
##내는
##내에서
##줘도
##줘야지
##자랑
##자써
##자ㅋㅋㅋ
##자이너
##점만
##ㅈㅅ
##ㅇ로
##ㅇㄺ
##ㅇ느
##ㅇ이야
##병이
##새요
##ㄴ0
##ㄴㅋㅋㅋ
##ㄴ어ㅏ
##스를
##스테
##ㅓ어
##루스
##루프
##루팡
##루아ㅓ
##울거
##울거야
##할줄
##할떄
##할지도
##할거같아서
##할거같은
##애지
##애플
##온지
##였고
##제네
##제일
##없게
##없지만
##렷어
##모레
##모티콘
##현장
##크업
##크리스마스
##흐ㅏ
##3화
##세포
##세전환
##일때
##일세
##일인데
##일줄은
##ㅣㅏㅓ
##ㅣㅁㄴ
##더워
##더맨
##봐주
##합시당
##입으면
##학겨
##질렀
##와가지고
##와ㅛ어
##란당
##장염
##ㄷ0
##ㄷㅎ
##국수
##영이랑
##능데
##전문
##전엔
##전으로
##반으로
##ㄱ도
##되니
##되겠다
##되는게
##되거든
##되니깐
##찍음
##그때
##그럴
##그렇게
##그ㅐㄹ
##ㅡㄹ
##팅팅
##쪽팔
##ax
##ub
##ul
##bb
##est
##설마
##공주
##마이
##마요
##마ㅣ
##마이스터고
##ㅁ러
##ㅁㅇㄹ
##았을텐데
##동은
##동으로
##ㅏㄹㅇ
##듭니다
##년은
##년인가
##ㄹ가
##ㄹㅎ
##날이야
##집중
##눈대
##da
##db
##oy
##opt
##oss
##ng
##gr
##gb
##gg
##르니
##르네
##르신
##우이
##우기
##우야
##중이니
##계획
##계정으로
##져라
##져써
##먹는데
##갔누
##걸고
##키기
##키킼
##허ㅜ
##멍충
##mb
##mf
##mail
##위원
##대에
##대치
##대충
##창에
##체는
##체험
##럽고
##럽네
##써여
##클릭
##클라우드
##랴서
##십시요
##티티
##박수
##느면
##느게
##긴데
##긴하는데
##배우
##배불러
##드랑
##드를
##째로
##조사
##조심
##조합
##조림
##억울
##ㅐㅎ
##ㅐㅁ
##씨는
##선생님
##15
##2호
##깔센
##피셜
##미터
##47
##남자
##됐잖아
##프사
##kt
##텐션
##직히
##퍼야
##딱깔센
##뒤질
##ys
##맞음
##맞았어
##많다
##돈노
##잔거
##났음
##났으면
##롭고
##유ㅓ
##저거
##올때
##원으로
##잇으면
##방금
##방울
##방향
##왓음
##왓는데
##놔도
##7동
##79
##경기
##얼른
##sql
##추천
##본거
##본게
##본능
##본편
##길이
##길바
##길때
##님의
##her
##뭐라
##간줄
##노랑
##찌만
##찌롱
##곳을
##곳으로
##호하
##ㅒㅅ어
##매ㅑㄴ
##ㅆㅇㅈ
##됨ㅋㅋㅋ
##싳은데
##력을
##누라ㅓ
##토닥
##woo
##테크
##테스트
##큐큐
##림이
##긋지
##께요
##뻔했어
##잉야
##든거
##외워
##외전
##승이
##틀고
##겤ㅅ
##겤ㅅ어
##련다
##앗음
##pr
##pn
##끝나서
##쿄ㅛ
##놨다
##언니가
##왜이렇게
##쿠키
##채워
##랄랄
##뭉치
##얌ㅎㅎ
##귀여
##fo
##푸는
##푸ㅑ
##놈이네
##넣기
##엿음
##룰ㄹ
##폭력
##붙이고
##카르
##눌러
##논거
##빼면
##덮고
##댕기
##챙겨
##멘탈
##패스
##층이야
##먀ㅓ
##먀ㅐ
##낳아
##옹이
##앜ㅅ
##뎄다
##투리
##잏이
##읍니까
##줍니다
##앵ㅇ
##ㄻㄴ
##엥ㅇ
##뒀는데
##멋대로
##콜로
##빌런
##vi
##햤는데
##쀠웅
##특강
##햌ㅅ다
##덴티티
##틍ㄴ데
##떙이
##똫게
아니죠
아니까
아니애
아니냐고
아니었음
ㅋㅋㅋ다
ㅋㅋㅋ야
ㅋㅋㅋ좋
ㅋㅋㅋ와
ㅋㅋㅋ맞
ㅋㅋㅋㅅㅋ
ㅋㅋㅋㅎㅋ
ㅋㅋㅋㄹㅇ
ㅋㅋㅋ근데
ㅋㅋㅋ안돼
진짜야
##는거니까
##는거부터
너무잘
너무조
##으로만
##으로다가
근데ㅋㅋㅋ
그래용
그래야하나
##고싶군
##고싶은게
##렇게나
이제와서
이제알았
##이야ㅋㅋ
어떻게생각
우리를
##하는뎅
##하는지도
그러쿤
그러거든
이거ㅋㅋㅋ
생각하니
생각나는
운동해야
운동하기
운동하면서
운동할때
운동해야징
학교인데
학교가는
##거같니
하고올게
##이라거
##이라는게
##이라그래
내일까지만
아무데
아무고토
##들어가서
모르뎄
##하지는
미친ㅋㅋ
사람처럼
##것도아니고
존나ㅋㅋㅋ
존나부럽다
뭐야뭐야
##이지ㅋㅋㅋ
하면돼
친구의
친구만나
들어는
들어감
들어가지
들어오고
들어가야해
하나면
하나더
##고있었
##고있거든
그럴거야
그럴만해
##부터는
##부터가
해야겠지
해야하네
이런식
ㄹㅇ루다가
##잖아ㅎㅎ
그게더
그게ㅋㅋ
그게뭐야ㅋㅋㅋ
다시시작
하지말고
##었어ㅋㅋㅋ
왜이리
시간인데
시간낭비
언제함
언제냐
언제끝
언제더라
언제까진
##어어무
어디냐
어디다가
그런거로
그런거고
그런거에
이렇게ㅋㅋㅋ
어제의
어제오늘
좋아하고
좋아하네
좋아하셨
##정도야
##정도에
##을까요
머리깨
머리속에서
머리아파서
머리박고
수업에
수업때
수업중에
수업하기
##했어야지
##수있니
##수있징
##수있다고
공부해야
공부해라
공부하러
##한다는데
##한다는게
사실은
미쳤니
미쳤는데
미쳤누ㅋㅋㅋ
사진에
몰라주네
저거밖에
빨리도
정신도
정신적
정신줄
있어야지
재밌당
재밌누
재밌으면
같이할
그렇긴한데
열심히해
##그래도
##그래머스
문제인데
힘들다고
힘들수도
힘들겠네
힘들었음
기분도
기분임
하자ㅎㅎ
하자있어서
##소리도
##한거니
##한거랑
##한거에
이상이
이상은
이상하다
없어지
보내드림
##이다ㅋㅋㅋ
여기까진
맛있는걸
##길래ㅋㅋㅋ
귀찮어
귀찮긴
귀찮으면
응원을
응원할
에바네
에바임
다음으로
다음부턴
하는듯
하는짓
하는구만
##어야해
얼마인데
요즘에
진정좀
진정해봐
뭐가문제
##거같아요
이번만
이번교시
일어니
게임할
안해줌
안해봤는데
아침에는
아닌게
죽을거같은데
취업마렵다
취업하고싶어
싫어진다
##새끼지
##새끼야
눈물나는
좋은생각
좋은꿈꾸
누나랑
누나네
고생해따
##냐고요
전화해
전화하고
전화하면
나가자
나가야해서
가능함
가능인데
가능할까
가능성이
##것같지
##것같긴
##것같다고
처음이
처음봐
인생의
인생소설
하루이틀
나오긴
안나고
안나감
안나가서
안나와서
힘들어요
##학교가
##했다니
이해하는데
프로그래머스
##아니여
##아니에요
알아도
알아요
해야지ㅋㅋㅋ
잘못잤
잘못한거
잘못했네
잘못보내
먹어라
##버리기
##버리지
혼자자
##거임ㅋㅋㅋ
아니라니까
##하는거니
시작을
시작해
시작이야
시작하면
시작했는데
찾아도
찾아가
찾아감
찾아봤는데
##해보면
##해보여서
##어ㅓㄱ
##어ㅓ어ㅓ
기억력이
만들라고
누구를
누구여
느낌이라
않아도
고민해
12월
집에가
##하기엔
##라는걸
얘기하는데
얘기하다가
다행으로
다행이야
다행이구만
별로임
만들어야하는데
노래도
##아아ㅏ앙
버스를
버스비
버스정류
집가는데
이름으로
시험이
시험도
시험은
시험이야
귀여웡
과제나
과제제출
살아나라
저녁도
웹툰보
웹툰보는중
웹툰보다가
있는겨
늦게까지
졸려요ㅠㅠ
그랬대
그랬던거같은데
가져가서
얼굴만
##려주면
발표는
안먹었
안먹어야지
행복한데
기다무
개발도
개발은
점심을
##가지거
영화는
영화나
영화보는중
필요하지
필요없고
모르겠구나
프로젝트는
##해주라
끝나는
미쳐따
미쳐버릴
미쳐돌아가
저번엔
저번처럼
저번에도
짜증쓰
소리로
소리듣
11분
돌아가는
돌아가면
해보ㅓ
해보고싶었어
동생한테
있었고
있었니
있었잖아
이모가
이모양
죽어써
죽어나가
##거지롱
선물한
사라지게
사라지면
##다니면
##스트를
미안ㅋㅋㅋ
미안한데
미안하다고
미안하구나
##다는것
##다는겨
##다는소리
##할까봐
개학날
파이어
##가야함
##가야하나
세상을
해봐따
놀아야
영상에
영상보고
영상통화
##애들한테
##애들이랑
##하고있지
##하고있었어
디코가
20일
20대
202
20초
##ine
저런게
저런걸
괜찮아질
귀엽찌
귀엽다고
인정한다
이런거에
##네요ㅎㅎ
같은방
매우매우
일어나니까
끝내지
아프다고
오래됫
오래됐어
##만원이
면접은
방학중에
어떤가요
보여줄게
가야하지
가야되는거
##버려야
##버려따
나왔네
나한테만
병신아
왜그러닝
부럽당
올라가야
올라온거
먹을건
소공도
소공을
심심하다
포기한
포기하면
기대해도
##으으응
때려칠까
정도가
정도야
어쩌겠어
어쩌려구
있을수도
근육으로
혹시나
혹시라도
##해봐야
거지야
거지같다
무엇일까
무엇인지는
자야돼
학교가기싫
어려웡
어려운거
정리하면서
들가는데
있다는게
코로나는
하기싫은데
안좋아짐
인나자
인나야지
##지않다
어때서
회사는
회사에서도
레전드인데
알려준
알려달라
청소해야되는데
한국에서
##진짜ㅋㅋㅋ
집에서는
확인좀
당연하죠
말이여
누워도
누워야지
짜증나ㅋㅋㅋ
파이썬으로
안가도
안가네
해주고
해주라고
안들면
안들려서
10분만
10분남
못자니
##어나와
광주소프트웨어
사이에서
밥먹고왔
내려오
내려옴
##ath
떨어진
아닐텐데
허리디스크
##있는듯
##할거다
학습이
학습시키
미친놈이야
걱정이
영어를
의미는
12시쯤
유튜브보다가
고맙지
init
하고있니
다녀옴
다녀왕
생일에
##먹어써
##어어ㅓㅓ
서울이
안들어가지
무서운데
일주일도
일주일동안
##말이여
가지러
중학교는
프사가
하다보니까
##너무해
문명해야지
생각해볼게
설명은
만나기로
아는구나
아쉽지만
아쉽당ㅎㅎ
##먹을게
비슷함
비슷해서
왜그랴
피부에
피부결
피부관리
##이없음
생각해보자
이래야
물어보셈
개빡침
개빡치네
조용해
##일까봐
교회를
현실적
현실반영
ㅋㅋㅋ그런
##이ㅣㅇ
에바야ㅋㅋ
카카오페
다이아
다이렉
아래쪽에
잠들지
해야되고
보냈지
않았지
##이래서
##ㅇㄹㄱ
봐봐야지
오류나면
##리지널
ㅋㅋㅋ아냐
애매하다
이불속에
##인줄알고
만드러
보는것도
어느순간
ㅜㅜㅠ
정상적
정상적인
##이였으면
##기만하고
그럴수잇
중요해
중요한건
##하려고했는데
##일어났어
only
돌려줘요
안자니
여수에서
카페가
##ite
만든다고
알려주고
##ㅏㄴ전
ㅇㅋㅇㅋㅋ
##시켜서
전공공부
##보내고
사람들이랑
30퍼
신박하다
개인정보
사용하는
서버를
시내를
주말은
하라그랬
##버릴거야
다니면
다니고
다니면서
사과쟁
##받아야지
우리반에
10시까지
10시부터
##하긴한데
##lear
계란을
보낸건데
살려주세여
탈주를
탈주쳐서
할수있다
환장하겠네
40분쯤
40분쯤에
달라져
뒤지진
뒤지고싶다
안쓰면
페북에서
미친거아님
미친거아녀
하지마라
난리나서
죽여주
죽여버리
크림을
크림이랑
##하라는데
개꿀잼이네
목소리도
시원해
시원하게
신기하게
신기한거
인났엉
자러갈게
일어났더니
다르지
다르니까
수고많
안봐도
장고가
##호호호ㅎ
어쩔수없이
모델은
하체를
하체운동
##프로그래밍
물어봐도
1시간은
1시간동안
2주차
6시까지
기업에서
보이길래
조심해
조심하세요
조심스럽게
##나오지
가족이랑
사고났
자격이
죽지마렴
평소에도
나아지
나아짐
아아까
기다리다가
신경을
안남았다
하연이가
하연이는
힘든거
힘든게
김치전
김치밥
김치찜
말하는줄
반응을
##그랬나
2개밖에
상태로
자취방
택배로
ㅋㅋㅋ미안
가기전에
대화가
애니를
에이에스엠
졸업사진
졸업앨범
포폴을
3시까지
당황스러
뭐든지
안했어요
여자애
여자친구
연습문제
웃기지
웃기네
월급루팡
할머니가
##아앙ㅇ
199
이럴까
전체가
절반은
주인님
##고싶은걸
왜이러세요
왜이러실까
할때도
할때는
##러ㅏㄴㅇ
자격증공부
빠르지
수행평
현타가
현타옴
##end
강의를
어려워요
빨래를
언어는
이어지는
정보를
##보여주
##달라함
##하구먼
무시하면
인격이
장난감
할만해
할만혀
##한것인가
##ㅓㄴ래
2학년이
계획이
뭐먹었어
손절각
자습시간
칭구가
칭구를
샤워를
으어오
지나가는
치즈계란
개소리야
뜽우도
못먹어서
크센디코
##르르르
교육부
나서도
눌러도
눌러앉
못잤는데
아아아ㅏㅏ
인사해
좋은거임
주변에서
초코와
ex3
express
select
shut
어렵게
에러나서
다이어리
가까워
가까운데
뚝배기는
뚝배기를
스토리도
스토리에
심장에
심장마
안더ㅣㄴ다
오지네
타이머
##했더니만
##uest
다른데는
중국어쌤
1분도
4시까지
ㅁㅊㅁㅊ
간지나게
건강체크
기능은
기능반
안맞아서
잘게여
기다려봐
댓글로
모른단다
보안을
사주께
으아어어
일요일이
##ㄲㅋㄱㅋ
##ㄲㅋㄱㅋㄱ
4개나
두고두고
드라이기
어찌고
어이없는
옛날엔
충전기가
헌혈하러
##ㄱㅋㅋㄱ
중학교때부터
도망가고싶다
소름이
심각한
안죽고
으우엉
으우어ㅓㅇ
키우고싶어
##었던거임
곤란쓰
완결까지
웃긴다
이후의
ㅋㅋㅋ개웃겨ㅋㅋㅋ
뭔소리야ㅋㅋ
번호를
안써서
익숙해지
축하합니다
폭주해
##아이스크림
##줄알았어
이해할수있어
알려줘야지
마이크로
개너무하네
뭐하는데ㅋㅋㅋ
부러운
상처받
손가락이
자다깨
충분해
##이ㅛ지
10개는
시끄러움
80명
des
깜짝아
똑같지
월요일부터
죄송함
미쳤구나ㅋㅋ
에바다ㅋㅋ
node로
그것보다
느껴지
답답함
데려오
마싯는데
마법은
시키면
여름에
진행중
챙겨야지
할수잇
##cker
서비스로
안마셔
일부로
지구멸망
##하후ㅏ후
아무생각이
사진찍어서
죽을거같군
씻고와야지
씻고와야징
50분에
나간다고
단어를
무리하진
어머나
이동중
이자식이
이자식아
조졌는데
침대에
컴퓨터로
가격이
모바일로
뭐하는새끼지
바꿨어
빨간머리
않을ㅋ가
용돈좀
텍스트대치
##이란걸
##였던거야
안나오는데
보여주기
왜그러는거야ㅋㅋㅋ
기회를
담임쌤
바꿀수
싸우자고
안걸려
엄청난걸
가볍게만
깨달아
메모장
복잡해
부끄러워
셔츠에
실습파일
양아치야
참고로
하려했는데
##이러지
아이디어스
미안하다ㅋㅋㅋ
자살마렵당
교수님이
기계는
기계가
두번째는
뜯어고
미칠거같
사회적
상대방
했던거같은데
어디갔지
어디갔누
그렇다면
밥먹으러옴
##아아아앙ㅇ
anim
갑작스럽게
발견함
서류는
쓰러져
어색한
지건마렵다
찢어져
토끼가
모르겟음
들으십쇼
말투가
모를까
안바꿔
입장에선
##드려요
모바일이라
걔네는
멸망의
오는구나
외국어
전기장판
크롬으로
##의미로
남자애들은
야야야ㅑ야
doc
docker
끝냈어
대환장파티
반도체
보다보면
사촌언니
예약제
자료구조
초밥먹으러
화상으로
밥먹어야하는데
ㅋㅋㄱㅋㄱㅋㅋㄱ
jsp
놀러가자
들었구나
마라탕
맞는말
메이커
속도가
임베과
호호ㅗ
ㅋㅋㅋ진짜ㅋㅋㅋ
올라가는거
드라이브에
ㅎㅋㅎㅋㅋ
ㅎㅋㅎㅋㅎ
대학을
맛잇는거
물리적으로
책상에
취미생활
표정봐
회귀자
희망사항
##으신가요
##할라다가
##부렀다
다운받아서
냄새가
멀미나
보이는구나
부담스럽
안그럼
얘들한테
잘나왔네
행동을
##dict
##45678
기침이
늦었어요
왜구러
왜구래
임태건
특별한
한정거장
그렇긴하지
소름돋아
가위바위
구라치
구런거
니네집
데스크톱
말려죽
스피드
아으우어
이쁜거
호호호ㅎㅎ
##다닐때
##ebook
졸려죽겠다
home
바꾼다
성범이
신났니
신났네
안끝났어
재빈이랑
젠장ㅋㅋㅋ
페메로
하하핳
ㅋㅋㅋ이미
여자애들은
mysql
word
고장났
그다음에
리스트의
몇명이나
모의면접
모자이크
스크린
스크램블
어니야
쿠키런
##ㅅㅋㄱㅋㄱㅋㅅ
기운이
독서마라
못들음
배부르면
세수랑
센세가
시이발
시켰는데
안고파
오븐에
제정신이
필수교육
해준다니까
##방법이
할아버지집
arr
ㅆㄱㄴ인데
개똥망
건너편
공포영화
김재원
런닝머신
리턴값이
멍때리고
오오오ㅗ
오오오ㅗㅇ
줄어들
집안일
프린트
개빨리
개빨라
거점항구
규렁각
늦었지만
뜬금없
무한루프
안하고있음
작가님
왜그랬어
dm으로
notebook
가기싫어
떄려치고
못찍음
바뀌고
방향으로
송정연
안괜찮아
초등학교때
헤드셋
사이즈가
max
tail이
개놀랬
맛집이네
뭐했길래
바이브
배불렁
스토커
안잡혀
어딘가
업무보고서
여섯시
입학식
키크고
##롤ㄹ롤로
##니ㅏㅇ러
##ago
고생했네ㅋㅋㅋ
ㅋㅋㅋ미쳤냐고ㅋㅋㅋ
fucking
간나새끼들
극단적
글로벌
먹을때마다
메리크리스마스
어째서
에반데ㅋㅋㅋ
에그드
역할을
이사람아
해피엔딩
##지도않음
2차원
감각이
노지형
다크서클
명세서
바껴서
색칠공부
식단조절
신용등급
압축해서
오리불고기
춤추는
토할것같아
트롤링
파업선언
##ㅅㅋㄱㄱㅋㄱㅋ
미쳐돌아간다
개고생
그랄수있지
내눈엔
망치질
바퀴벌레
빡빡이
성실하게
시즈닝
용사여
인문계
일생겨서
자아성찰
트랜스포
평범한
머리자르러
으으ㅡㅇㅁ
requi
마인드로직
blind
개심각
뒤통수
미세먼
벼락치기
보관함
서술형
여전히
옷갈아입
전교생
천둥소리
팔꿈치
##ㄷ르어
소리지르
프레임워크
세종대왕님
내스타일
눈떠보니
만만치
무음으로
뭔말인지
미적분
범블비
잘어울려
조오치
힘두렁
##dropt
운동해여되는데
밥먹는당
트레이닝복
텐서플로
bitch
eyes
mouth
n번방
php
time
ㅅㄹㅅㄹ
개띠용
너어어어무
매개변
비타민
아수라
안까먹으면
안젛아
앱스토어
야생의
어둡게
엄준식
열두시
영수증
옵티머스
요거트
익종이
잘하셨어요
전독시
정규수업
조쿠만
짬짬이
탄수화물
피뽑는
하여간
황제성
seungwoo
베이커리
산학겸임
아몬드가루
indexdropt
papago
srt
tomcat
공무원
다중인격
도수치료
두사랭
딥슬립
따옴표
마동석
물놀이
비행기
뻥튀기
스파이더맨
승모근
않ㅇ르까
업그레이드
열린결
와리가리
윗몸일으
이시키야
정반대
충장로
킬더히어로
토닥토닥
파인애플
페레로로쉐
학급회의
휠체어
존나부럽군
스타벅스
오이오이
scaler
generation
power
꿔바로우
노코멘트
데자뷰
디폴트
맨투맨
뭔논리
미숫가루
반어법
보겜카
부동산
샌드위치
셀레니움
속쓰려
스터디
아떠바
알잘딱깔센
야나두
어성초
오랫동안
자색고구마
잠금화면
주섬주섬
쿠크다스
크롤링
텔레그램
템플릿
플라스틱
호불호
광주소프트웨어마이스터고
animal
독서마라톤
트랜스포머
indexdroptrue
0을
01
09
1기가
1시쯤
1분에
1비트
2교
2부
2d
2시쯤
220
2학기
3페이지
3명이서
43
4년
4기가
4만원
4시쯤에
5배
52
5퍼
5키로
500원
5처넌
6기가
6시쯤
73
7분
71
77
7만원
777
85
82
84
89
8시쯤
9천
9시간
9기가
9시쯤에
999
a는
a가
bord
body
co
cou
cre
dnd
ed
ean
fs
fp
fil
goo
gif
give
hs
hmm
iw
ios
kp
ker
lg
mo
more
nam
oo
oh
pm
pre
pol
pand
range
sol
sum
sibal
syst
val
vect
vpn
x키
y는
ㄴ가
ㄴ나
ㄴ난
ㅁ나
ㅁㄴㅇㄹ
ㅂㅅ
ㅅㅋ
ㅅㅄ
ㅅㅄㅄ
ㅅㅌㅊ
ㅇ내
ㅇㅆ
ㅇ아이
ㅈ까
ㅈ대
ㅈ같음
ㅈ같네
ㅋㅅ
ㅋㅎㅋㅋ
ㅋㄲㅋㅋ
ㅋㅎㅎㅋ
ㅎ호ㅗ
ㅎㅅㅎ
ㅏㅈ
ㅑㅐ
ㅓㄱ
ㅜㅈ
ㅜㄹ
ㅜㅠㅜ
ㅜ아ㅓ
ㅠㅜㅜ
ㅣㅆ
가심
가독
가셨
가ㅏ
가뭄
가쟈
가라고
가리고
가겠지
가기가
가고싶은데
가가지고
가십쇼
가던가
가려면
가드림
가고싶음
가보자
가아앙
가사가
가방에
가형이랑
가아아아앍
각각
각잡고
간식
간담
간호
간건가
간다구
간식을
갈기
갈매
갈수도
갈거임
갈려나
갈때마다
갈때가
감지
감겨
감염
값을
갓겜
갔던
갔으면
갔어야
강도
강사
강요
강조
강탈
같네
같냐
같았는데
같긴한데
개항
개는
개쳐
개싸
개교
개편
개당
개불
개별
개간
개쉬
개뜬
개좆
개구리
개기름
개부러워
개쪽팔
개억울
갠차나
갱장히
거라
거창
거뜬
건은
걷다가
걸레
걸리는
걸린다
걸리지
것들
것이지
것인가
것입니다
계단
계세요
계셔서
고고
고아
고의
고를
고음
고슴
고잉
고샹
고도가
고등학생
곧도착
골랐
골고루
곳은
곳에서
공갈
공백
공중
공격
공홈
공주가
곽은
관람
광천
괜ㅊ
교체
교훈
교실에서
구사
구구
구할
구동
구하자
구리다
구데기
국물
국민
국뽕
굴리
굵은
굿밤
귀농
귀걸이
그으
그른
그란
그릴
그ㅐ
그량
그려서
그니깐
그라면
그릴때
그ㅐㄹ
그중에서
그아재
극딜
근로
글꼴
글쿤
금남
금토
급식을
기네
기한
기구
기차
기프
기쁘
기쁜
기승
기엽
기가지
길면
길거리
길바닥
김수
김볶
깃헙
까만
까진
까비
까는거
까는중
까지는
까먹을
깎아
깔기
깔짝
깔았다
깜박
깨웠
깨진다
깨어나
깻잎
깼는데
꺼지
꺼지고
꺼졌으면
껍데기
껏다
꼬드
꼴아
꼴보
꼼꼼
꼽을
꽉꽉
꾸역
꿀이네요
꿈속
꿈꾼
꿈꿔
꿈이었어
끄적
끄투
끊어야
끝낼
끝낸다
나루
나갓
나ㅏ
나르
나뿌
나둥
나빴
나니까
나은데
나은거
나이스
나보단
나을거야
나갔는데
나을거같아
나을라나
난리가
날인가
날리지
날렸어
날리는거
날라가
날잡고
남이
남는
남지
남승
남기고
납품
낫냐
났어
낭만
낯설
내서
내주
내에
내것도
내방에
냅두
냠냠
너보고
너어어ㅓ
너같다
너어어어ㅓ
너어어무
넘었
넘치네
넣으니까
넣어도
네넨
노는거야
노이즈
논란
논다고
놀기도
놀고싶은데
놀기만
놀래서
높아서
놓쳐
놓쳤
뇌는
뇌정
뇌에
누ㅜ어
눈코
눈알
눈앞
눈으로
눈바디
눌렀
눕고
눕자
눕자마자
뉴럴
느워
늘리
늦은거
늦었다고
니번호
닉넴
님을
다지
다진
다희
다끝
다하면
다했는데
다먹고
다먹었
다쳤어
다봤다
단정
단지
단어가
닭꼬치
담고
담요
담은
답해
답이야
답자기
답장이
당시
대문
대중
대규
대따
더운
던질
던질까
덥고
데드
도라
도메
도중에
도리도
도영이
돈아
돈버
돈좀
돈들어
돈없어
돈받고
돈없는데
돈아까
돈낭비
돌리는거
동족
돼써
돼ㅛ어
됐고
됐으면
됐길래
되기
되구
되눈
되야지
되면서
되는걸
되거라
되버린
되는겨
되지않을까
되겠징
된장
될거같아
될때까지
됨미다
두장
두명이서
둠칫
뒤죽
드링
드십쇼
드릴게
듣자마자
들아
들갈
들은거
들가지
들었으면
들갈듯
듭니다
등골
등극
딜레
따따
따시게
딱봐도
딴딴
땀을
땀에
때매
때리는
떙쿠
또르륵
똑같은거
똥손
뚜뚜
뚫어
뜨겁
뜨는데
뜯어서
뜻밖
뜻대로
띄우고
띵작
라파
라임
라벤
레어
레디
레바
레시피
렉걸
로이
로니
로드
로판
로골
루트
마비
마상
마구
마신
마른
마중
마왕
마스터
막힌다
막노동
만개
만에
만히
만난거
만났는데
많을
많으
많넹
많던데
많자나
말다
말좀
말랬
말행
말거야
말인데
말라는
말하니
말구요
말아야
말안해
말한것인데
말해주고
맘먹고
맛들
망설
망한듯
망나니
망나니가
맞엉
맞게
맞을까
맞자나
맞는지
맞는건가
매너
매치
매미
매트리스
머ㅜ
머독
머글
머머리
머ㅓ야
머시기
먹ㄱ
먹엇
먹튀
먹는거지
먹지마
먹기로
먹자고
먹는건데
멀어서
멈춤
멍멍
메세
메두
메일로
멤버
면도
면허
몇주
몇점
몇십
몇번째
모고
모래
모죠
모셔
모드
모순
모인데
모릅니다
목적
목숨
몰아
몰입
몰카
몸으로
못정
못내
못된
못그
못차
못행
못쓸
못쓴
못가는
못가면
못먹고
못들은
못했어요
못살아
못받음
못끝내
무사
무표
무단
무식
무작
무슴
무선
무궁
무어ㅓ
무야ㅋㅋㅋ
무어ㅑ
묶어서
문이
문정
문에
문맥
문자로
물고
물병
물결
물고기
뭐어
뭐애
뭐징
뭐입
뭐양
뭐에요
뭐먹을
뭐먹음
뭐먹었
뭐하고있어
뭐했냐
뭐어때
뭐써야
뭐쓰지
뭔색
뭔줄
뭔겜
뭔뜻
뭔생각
뭔느낌
뭔말이야
뭔영화
뭡니까
므ㅓㄴ
므ㅓ야
미사
미소
미디
미워
미트
민국이
믿고있었다
밀리
밀어서
밀어야
바부
바삭
바뀔
바뀜
바이러
바비인
박수
박음
박을게
박차고
밖이
밖인데
반지
반신
반칙
반으로
반엔가
받을까
받으러
받은게
발랐
발포
발라도
밝아서
밤에도
밥사
방은
방생
배려
배신
배출
배에도
배우고
배아프
배아파서
백일
백팩
밸런스
버거
버린
버텼
벅차
번지
벌어
벌크업
베개
벤치
벽에
변화
변수를
별개
별걸
보아
보정
보진
보쌈
보슈
보길래
보이네
보세여
보이니
보자마자
보기싫은
복근
복지
복선
본사
본심
본계
본체
본다고
볼거야
볼거면
봇이
봉변
봐영
봐야겠다
봐야해
봐야되는데
봤던
봤다고
봤구나
봤어ㅋㅋㅋ
부려
부활
부엌
부분이
분조
불이
불도
불렀어
붉은
붕대
붙이는
붙잡고
블레이
비나
비비
비워
비속
비유
비엔
비꼬
비둘
비참
비몽
비하면
비디오
빈약
빕스가
빚쟁
빛나는
빡쳤
빡쳤어
빨개
빼애애애ㅐ
뻐근해
뻔뻔
뻘쭘
뻘하게
뼈때
뽑으면
뽑는다
뽑기를
뿌린
사도
사리
사려
사게
사악
사먹
사십
사직
사줭
사탄
사라고
사는거야
사는건
사지마
사가지
사줄게
사인이
사달라고
산타
산와
산뜻
산다고
살해
살ㄹ
살걸
살뺴
살다가
살았어
삶아
삶은계란
삼촌
삼겹살
샀음
상단
상세
상식
상순이
새노래
생리
생하
생매
생걌
서구
서형
선발
섬세
성훈
성기사
세기
세금
셋이
셋팅
셔틀
소심
소독
소용
소모
소멸
소시지
소마고
속보
손잡고
손바닥
쇠로
수류
수두
수험
수혈
수완
수련
수욜
수긍
술을
숫자가
숫자만
쉬게
쉬발
쉬는거
슈워
스자
스모
스윽
스킬
스윗
스파게티
스노우
슥슥
슬라
슬라이
슬라이스
시로
시달
시자
시온
시크
시세
시절
시럽
시드
시렁
시킴
시롸
시무룩
식은
신뢰
실질
실력이
실리콘
싫타
싫당
싫은거
싫은게
심시
심야
심화
심부
심판을
십자
싯팔
싱ㅎ어
싶단
싶은거
싶어요
싶은건
싸인
싸악
쌍봉
쌓아
쌤은
쌤들은
써요
썻다
썼네
쏙든다
쓰잘
쓰래
쓰네
쓰려
쓰여
쓰냐
쓰던
쓰니까
쓰는건
쓰지도
쓰자고
쓴거야
쓸때
씹고
씹덕
씹ㅋㅋㅋ
씹가능
씻을
씻구
씻어서
씻을때
씻으러
아개
아뇨
아너
아트
아동
아노
아잉
아놀
아쿠
아령
아홉
아는건
아가리
아시네
아몰라
아시발
악성
악화
안항
안비
안터
안적
안때
안치
안쪽
안잤
안찾
안간
안낼
안락
안떴
안붙
안눌
안뚫
안뜬
안멈
안닿
안이야
안합니다
안가지
안할까
안아파
안하시
안했네
안하냐
안났어
안봤는데
안어ㅏ
안주면
안받고
안한대
안일어나
안줘서
안만나
안하기로
안어울
안놀아
앉았는데
앉았다
않다고
않겠지
않겠어
않으니까
않으니
알로
알기
알듯
알잖아
알텐데
알고있는데
알러지
앙뚜
앞번호
앞으론
앞날이
앞뒤로
애도
애미
야이
야구
야부리
약점
약이라도
약먹어야지
얄미
얇아
양보
얘네
어라
어닝
어마
어ㅔ
어욹
어떰
어쩄
어르신
언박
언저
언놈이야
얼만
엄ㅅ
업소
업ㄱ
업슴
없디
없자
없잖
없당
없눈
없져
없노
없는건
없거든
없는거지
없던데
없는지
없을듯
없더라구
없잖어
없서요
엑스
여즘
역사
연상
연구
연관
연산
열면
열쇠
열어야
엽이랑
였어
였는데
영입
영역
예능
예산
예쁨
오니
오야
오소
오심
오실
오질
오장
오글
오남
오직
오락
오잉
오홍
오므
오는게
오고있
오지는
오인지
오시는
오천원
오마넌
오렌지
오리지널
옥상
온게
온대서
올떄
올리는
올해도
올리지
옴팡
옷사
옷입
옷장
옷입고
와봐
와웅
와ㅋㅋㅋ
와가지고
와ㅛ어
와아아앙
왁모티콘
왓어
왓챠
왔거든
왕따
왕복
왜사
왜들
왜줘
왜ㅐ
외계
외유
외에도
요가
요리가
요플레
욕박
욕하는
욕먹는
용서
우일
우대
우럭
우오오
우신다
운명이
울면
울리는
울어ㅋㅋㅋ
웃을
웃는
원작
원티
원격
원판
원곡
원하는게
원피스
원한다면
월드
웹이
웹앱
웹사이트
위를
위쪽
위염
위치가
위아래
유니
유용
유학
유부
유머
유익
육포
으에
으얼
으엥
으낙
으어ㅓ
으아아ㅏ
으아앙
으아아ㅏㄱ
은상
음챗
음식을
읎음
응모
응답
의료
의지가
이이
이아
이주
이하
이었
이병
이른
이과
이쪽
이집
이간
이노
이김
이뿌
이쑴
이히히
이였는데
이꾸나
이순간
이겼어
이새기
이겼다
이레이징
익히
인재
인한
인종
인스
인당
인체
인졍
인덱
인난다
일해
일의
일종
일대
일방
일케
일겜
일하는거
일해야되는데
일자리
일하기싫다
읽기
읽지
읽으면
읽어야
입지
입소
입음
입덕
입은거
입장이
잇으면
잇어서
있오
있늬
있습
있냥
있노
있움
있는건가
있는거임
있잖니
있겠니
있엇는데
있서여
잊지
잊혀
잊어
자버
자구
자갈
자랏
자매
자지도
자볼게
자자너
자십쇼
자버려
자겠습니다
자르고
자는것도
자버리자
작고
작심
작작
작곡
작아서
작정하고
잔건
잔게
잔류
잔다고
잘봤
잘함
잘끌
잘됫
잘끄
잘풀
잘쓸
잘해야
잘려고
잘하는데
잘수있
잘수도
잘되는데
잘하는거
잘알아
잘다녀
잘하잖아
잘돌아가
잠식
잠꼬
잠듬
잠자고
잡고있
잤음
잤니ㅋㅋ
장이
장기
재영
저것
저를
저렇
저냑
저에요
저기로
저것만
저사람이
저상태로
저세상
적성
적음
전의
전재
전두
전형
전염
전략
전해줘
절레
점수도
정이
정지
정식
정당
정석
정령
정리가
젖어
제성
제인
제작
제육
제티
제조
제법
제주도
조나
조려
조상
조ㅗ
조커
조언
존잘
존똑
존ㄴ내
좀전에
좀있다
좁아
종일
좋으
좋진
좋소
좋어
좋죠
좋덴
좋다고
좋단다
좋으니
좋네요
좋지않
좋니ㅋㅋㅋ
좋긴한데
좌석
죄를
죄성
주가
주물
주황
주유
주관
주휴
주짓
주는데
주시면
죽일
죽빵
죽는건
죽으라고
죽었니
죽었다가
죽고시
줄거
줄임
줄일
줄수도
줄인게
중재
중에서
중인데
중학생
줘패
줘야함
줬나
줬음
줬으면
쥬피터
증상
지인
지적
지속
지그
지날
지들이
지멋대로
직관
직행
진이
진단
진빠
진통
진짠
진자로
질량
짐챙
집의
집만
집단지
집근처
짘짜
짜즈
짜중
짜샤
째고
쪼아
쪼금
쪼끄
쪽이
쫄려서
쫓아
쭈굴
찌야
찌뿌
찌부가
찍기
찍어야지
찍은거야
차갑
차례
차리고
착실
착용
착잡
착하게
찰싹
참어
참자
참외
참는중
참고만
창작
창틀
찾은
찾았어
채찍
책에
챙기고
천국
철학
철저
첨엔
첫끼
첫번
청바지
체중
체력이
쳐넣
쳐먹고
쳤지
초라
초6
총쏘
최강
쵸큼
추출
추팔
추카
추운데
축소
축의금
춘추
출국
출몰
춤을
충동
충돌
췌장염
취직
츤데레
치기
치한
치자
치유
치는거
치다가
친해져
침을
침치료
카더라
카이스
카네이션
캐시로
캡해서
커스
커미
컬럼
컴프리
케라
케잌
켜지
코피
콘치즈
콧물
콩나
쿨러
쿨하게
쿵쾅
퀄리
크기
크랙
크구나
크시가
클래
타서
타노
탄산
탭댄
터지는
턱이
테이
토스
톡해서
톡한거
톡방에서
통보
통으로
통해서
통채로
통째로
퇴학
튀기면
튕겨
트와
특정
특수
특허
튼튼
틀니
틀림
틈틈
틔터
티몬
팀을
팀에
팀에서
팀원이
파열
팔렸
팔운동
팝콘
팡주
팡팡
편하다
평타
폐해
포뇨
포스
포럼
포스터
폭발
폭풍
폴킴
표시
표하세요
푸짐
푸는중
푼거
풀이
풀어야
풀리는
프젝
플러
플리즈
피나
피치
피씨
피피
피해서
피아노
하셔
하교
하반
하노
하먄
하구만
하네ㅋㅋㅋ
하려나
하겠는데
하셔서
하겟지
하거싶
하라는것은지
학점
한의
한적
한표
한디
한말
한우
한통
한놈
한솥
한페이지
한분이
한방에
할뻔
할사람이
할로우
할건지
할라다가
함수는
함정은
합치면
핫산
해성
해바
해양
해드
해머
해앳
해버렸어
해줬어
해버려서
해놨는데
해놔서
해본적
해줬다
해열제
햄토리
했을
했징
했닁
했으니까
했네ㅋㅋㅋ
했다구
했느데
했을걸
했었던
했단말이야
햤는데
허니
혀를
혀에
현상
현승
현자가
현준이
협업
형은
형식
호러
호우
호딱
호흡
호감도
혹쉬
혼날
혼돈
혼밥
홀리
홍홍
홍철
화도
화났
화낸
화염
화나게
활짝
회춘
획득
후반
후유
후렸
후다닥
훑어
휴일
흐흐
흐르
흐뭇
흔들어
흘려
흘리고
흫헣
흰바탕
히힛
히어로
힌트
힘ㄷ
##이있
##이려
##이와
##이넹
##이ㅕ
##이는데
##이다가
##이길래
##이아니야
##명해
##도치
##도둑
##도하고
##로롤
##로만
##로리
##로스
##있으
##있자
##있냐고
##있던데
##있으니
##있는지
##기회
##기달
##기술
##기긱
##기는게
##기라도
##기숙사
##을해
##을ㅋㅋㅋ
##을거같음
##을꺼야
##개야
##개웃
##개밖에
##사랑
##사피
##사몽
##사인가
##사려고
##면이
##각형
##해가
##해봤
##해바
##해놔
##해찌
##해썽
##해ㅜㅜ
##해버림
##해버리고
##해달라고
##해버렸네
##해줬는데
##ㅂㅇ
##ㅂ툰
##는ㄱ
##는소리
##는지는
##다네
##다함
##고나
##고오
##고요
##고징
##고침
##고양이
##시래
##시냐
##시져
##시뤄
##시풔
##시원해
##시스턴트
##예예
##예측
##안이
##안지
##안봐
##안된다
##안되서
##안맞아
##가를
##가냐
##가틈
##가자고
##겠소
##겠디
##겠ㅈ
##겠죵
##겠더라
##아면
##아발
##아줘
##아ㅑ
##아퍼
##아는데
##아리가
##왔고
##왔니
##왔따
##데코
##데스
##데기로
##러아
##러감
##러ㅐ
##서비
##서포터
##브라
##정해
##잘라
##같애
##나기
##나용
##나ㅐ
##나왔는데
##오스
##오냐
##오져
##오빠
##오분
##오티
##오름
##오면서
##의를
##의ㅏ
##요원
##요자금
##무섭
##은것으로
##지용
##지모
##지뭐
##지옥
##지ㅋㅋ
##지ㅎㅎ
##지는거지
##지겠네
##지알고
##만다
##만의
##만두
##야재
##랑랑
##건조
##으응
##으어어
##으려면
##으려다가
##보가
##보리
##보스
##보험
##보께
##보존
##보이지
##보겠지
##보고싶어
##보세여
##보이니
##보고싶음
##진건
##진자
##진당
##진거같아
##진거임
##베이
##리만
##리리
##리구
##리누
##리는거야
##리거나
##리네요
##리케이션
##파서
##파악
##파스타
##소음
##소릴까
##들가
##들임
##들으면
##들이라
##들에게
##들스턴
##것임
##것이야
##것은데
##것이니
##네여
##네까
##네영
##ti
##를까
##했을까
##했구만
##했냐고
##했단다
##했군요
##했느데
##했었음
##려ㅕ
##려ㅋㅋㅋ
##버가
##버그
##버령
##버스터
##혀있는
##여러
##여ㅎㅎ
##여하는데
##여져서
##운걸
##거를
##거어
##거둔
##거하면
##거지고
##거리를
##주거
##주실
##주변
##주니까
##주부터
##주는건
##주머니
##심이
##심리
##심미까
##에너
##에애
##에겐
##에포크
##어니
##어주
##어와
##어우
##어ㅝ
##어ㅏㅇ
##어엉ㅇ
##성으로
##봤니
##봤지만
##살면
##살인
##살거야
##ㅋㅌㅌ
##ㅋㅌㅋㅋ
##ㅋㅌㅋ
##게ㅛ다
##ㅜ나
##ㅜㅈ
##ㅜㅏ
##ㅜ저
##ㅜㅇㄴ
##ㅜ어ㅋㅋㅋ
##달달
##화나
##화지
##화야
##화쯤
##하데
##하서
##하오
##하디
##하잖
##하트
##하늬
##하규
##하쉴
##하께
##하쥬
##하며
##하겟다
##하셔서
##하고싶음
##하겠니
##하십니까
##하ㅓㅜ
##하십시오
##실이
##실로
##실해
##실은
##실듯
##비빔
##비ㅏㄹ
##인도
##인사
##인재
##인들
##인것
##인물
##인싸
##인식
##인대
##금은
##상복
##태그
##한단
##한ㄴ
##한것으로
##한거같은데
##한느데
##터진
##터즈
##터터
##터너
##앙ㄱ
##린내
##린줄
##린듯
##린당
##타가
##타나
##타야지
##타르트
##구로
##구가
##구아
##구구
##구너
##구ㅏ
##구석
##구경
##구락
##검정
##수고
##수거
##수금
##수수
##적이네
##라네
##라거
##라곤
##라쓰
##라매
##라해서
##라아ㅏ
##라하는데
##라지만
##라그러
##라는거임
##라아ㅏ아
##라그랬는데
##까락
##꾸고
##꾸낭
##꾸역
##열어
##죽는줄
##죽겠는데
##함이
##곤데
##ㅎ게
##었오
##었대
##었길래
##었을때
##었단다
##었는지
##었던거
##바에는
##바르고
##바나나
##난다고
##갈라
##갈뻔
##갈라고
##갈때마다
##ㅛ누
##내로
##내강
##내니까
##줘야해
##문이
##문이야
##자아
##자살
##자신
##자격
##자놔
##자체가
##너ㅓ
##너ㅑ
##너우
##너애ㅑ
##점심
##신나
##신지
##신발
##신대
##ㅇ는
##ㅇㅅ
##ㅇ널
##ㅠㅇ
##ㅠㅍ
##ㅠㅓㅜ
##ㄴ해
##ㄴ제
##ㄴ짜
##ㄴ난다
##잖ㅇ
##스킨
##스톱
##스틴
##스틱
##스토리
##스튜디오
##스무디
##ㅓ라
##ㅓㅐ
##ㅓㅀ
##루룩
##루제
##루ㄸ
##울ㅇ
##울거같아
##트라
##트맨
##효녀
##받으려고
##할랭
##할뿐
##할래요
##할줄은
##온건
##온줄
##온대
##였거든
##였던거
##된겨
##된건가
##된다는
##치노
##치겠다
##치려고
##제만
##제어
##제발
##제때
##없애
##없는거
##없잖아
##없었어
##없을듯
##악의
##모로
##모임
##모름
##모아서
##모니터
##런ㅁ
##크가
##크닉
##32
##색이야
##일기
##일치
##일거같은데
##ㅣㅂ
##더러
##더ㅏ
##봐바
##ㄶ아
##입니
##질걸
##질까봐
##란거
##란트
##란말이
##릭스가
##장터
##장자
##ㄷ고
##부를
##부족
##부러서
##셨구나
##셨나요
##영ㅇㅇ
##전트
##전에서
##ㄱ어
##메가
##메세지
##메이션
##되누
##되나요
##되는거임
##절레
##찍어
##찍으러
##그나
##그건
##그인
##그극
##ㅡ는
##ㅡ아
##ㅡㅋ
##ㅡㄱ
##ㅡㅏ
##ㅡㅅ
##ㅡㄴㅇ
##팅이
##냐궁
##ject
##rj
##aa
##ah
##xx
##uu
##ure
##ble
##em
##설정
##공유
##편이
##편지
##줄순
##알림
##릴걸
##릴거임
##마셔
##마블
##마토
##마지막
##마스터
##마인드
##ㅁ런
##ㅁㅋㅋㅋ
##ㅁㄹㄴ
##았습니다
##찮은
##웃음
##작이
##작성
##당ㅇ
##당하고
##당하는
##당해서
##당했습니다
##ㅏ바
##년이
##출근
##출발
##ㄹ이
##ㄹ로
##ㄹ다
##ㄹ리
##ㄹ까
##ㄹㅃ
##ㄹㅇㄴ
##날도
##날짜
##눈뎁
##dg
##dle
##day
##na
##gy
##gle
##르나
##르루
##르륽
##ㅑㅕ
##ㅑㅋㅋㅋ
##랬나
##습니더
##우니
##우나
##우ㅜ
##우워
##우라고
##우엉ㅇ
##우너ㅏ
##던듯
##계심
##계셔
##먹구
##먹을때
##먹으면서
##먹어도
##먹었지
##양은
##갔음
##갔냐
##걸리
##뉘이
##멍청
##처음
##처리는
##59
##cod
##mon
##ㅔ요
##ㅔㅅ
##위협
##위원이
##ㅅ해
##ㅅㅠ
##슴미까
##대사
##대생
##체로
##짜증
##짜고
##짜증나
##감을
##감사
##감에
##숙제
##결제
##분이야
##분이라
##분짜리
##클럽
##맛을
##맛탱
##맛있어
##맛우유
##랴ㅓ
##티고
##박을
##박살
##느넉
##느느데
##겟니
##쓰니까
##긴게
##배ㅑ
##배송
##드도
##드ㅛ
##드렁
##드는데
##드는게
##번쩍
##번길
##센세
##조차
##조심히
##조지고
##따구리
##롱해
##엇네
##ㅐ애ㅐ
##글로
##춘기
##준우
##순없
##순으로
##선이
##선택
##플갱
##17
##22
##약이
##약속
##피해
##피자
##미로
##미를
##불렁
##불일치
##42
##초코
##차례
##남아
##남친
##남았는데
##됐는데
##ker
##포함
##딱지
##값을
##값에
##ird
##y를
##맞아서
##ld
##lp
##ler
##lib
##잔치
##잔거야
##저나
##급이네
##ㅍ어
##잠ㅎ아
##법도
##법을
##올거
##올듯
##올떄
##올겡
##뉴이어
##좌를
##취한
##원래
##원작
##넘기
##별이
##찾기
##잇는
##방사기
##환영
##찬하
##않을까
##엔지니
##쯤인가
##쯤이면
##볼수록
##책임
##경력
##얼ㄴㅇ
##행이
##행위
##sion
##완결
##길듯
##님들
##통을
##통수
##통령
##h3
##hj
##hub
##qb
##뭐해
##간에
##목이
##목록
##노라
##담당
##찌고
##곳인데
##돌려
##튀김
##매나
##ㅆ나
##ㅆ네
##ㅆ느데
##뤄ㅏㄴ
##떄문에
##희ㅎ
##땜시
##력도
##봣다
##봣어
##누ㅋㅋ
##누ㅏㅓ
##송이
##뜨고
##뜨는거
##침대
##토마토
##랜만
##갸ㅋㅋㅋ
##척해
##척하면서
##커톤
##66
##테마
##테테
##케팅
##머ㅏ
##머리를
##몸살
##슈타
##봄ㅋㅋㅋ
##될지
##될뻔
##쫄려
##친듯
##승리
##렵네
##꿈이야
##쥬지
##못하는
##못했네
##렉스
##왕ㅇ
##슬프
##슬퍼
##엏게
##쿼리
##팔이
##밤을
##밤에
##쿠나
##응께
##냈는데
##채소
##채팅
##등어
##등반
##막기
##막고
##역량
##역으로
##손톱
##손으로
##탈출
##zy
##풀이
##줬다고
##땐가
##f8
##ff
##푸당
##눠ㅏ
##렌드
##렌시스
##룰루
##퓨ㅗ
##카드는
##댔나
##눌ㄴ
##눌러서
##듀ㅑ
##둬야
##얐네
##연산
##됬다
##됬네
##총이
##90
##925
##존재
##존버
##존대
##쓸거야
##힘든
##힘든데
##짤이
##볶음
##햇움
##투스
##먼ㅇ
##둘이
##힌거
##똥멍충
##힣힣
##멜로
##ㄻㄴㅇ
##ㄻㄴㅇㄹ
##롷게
##ㄸㅋ
##ㄸㅁㅊ
##샀는데
##룬ㅇ
##광역시
##콜론
##깜빡
##vㅎ
##홈페이지
##댓글
##빰빰
##혔는데
##뤠스
##탔어
##햌ㅅ는데
##깼어
##켄슈타
##킄크
##칩니다
##샛기들
##헨션
아니구만
아니진짜
아니였는데
아니다ㅋㅋㅋ
아니었니
아니였네
아니에여
ㅋㅋㅋ인
ㅋㅋㅋ구
ㅋㅋㅋ좀
ㅋㅋㅋ불
ㅋㅋㅋ머
ㅋㅋㅋ쿠
ㅋㅋㅋ엥
ㅋㅋㅋ하자
ㅋㅋㅋ몰라
ㅋㅋㅋㄲㅋㅋ
ㅋㅋㅋㅎㅋㅎ
ㅋㅋㅋ인정
ㅋㅋㅋㅅㅋㄱㅋ
ㅋㅋㅋ존나
ㅋㅋㅋ대단
ㅋㅋㅋㅆㅇㅈ
##는거겠지
##는거같아서
##는거아녀
##mer
너무나
너무너무
내가보
내가먼저
내가잘못
나도모르게
그래ㅛ
그래써
그래ㅋㅋ
그래놓고
그래ㅛ어
그래그ㅐㄹ
##고싶긴
그런고
그런겨
그런짓
그런소리
그런것같아
그런갑다
지금이면
지금처럼
##하고시
##하고왔
##하고올게
어떻ㄱ
어떻게봤
어떻게해ㅋㅋㅋ
##ㅎㅎㄹ
##ㅎㅎㅋㅋㅋ
그거슨
그거까지
그거대로
그거보고
그거가지고
그거땜에
그거알아
우리만
우리쪽
우리방
우리보다
우리보고
그럼요
##라고는
그러죠
그러라고
그러세요
그러는게
그러하다
그러는거지
그러고싶어
그러고싶은데
그러십니까
이거로
이거해
이거이거
생각안
생각만
생각남
생각했어
생각하는데
생각해야지
생각하는거
생각하는게
생각하시
생각했지
생각하지마
운동기
운동장
운동끝
운동이야
운동하지
운동했어
운동했는데
운동하는거
운동해도
운동하세요
운동할까
운동하는게
운동하는중
운동하지마
운동하러
운동하는건
학교안
학교지
학교감
학교때문에
학교과제
학교폭력
##거같어
##거같앙
##거같더라
##거같던데
##해서는
하고는
하고옴
하고있는
하고시퍼
##구나ㅎㅎ
##시간은
##시간인가
##이라매
##이라면서
##이라길래
##이라는걸
##이라기엔
##이라기보단
내일쯤
내일이면
내일봅시다
내일봅시당
내일모레
##ㄱㅋㅅㅋㅅ
아무렇게나
모르겠지
##하지도
미친색
미친듯
미친사람
##한테만
사람인
사람임
사람답
사람인데
사람이라
사람이면
많이는
많이들
많이먹었
많이봐서
##리고있어
아직더
아직까진
존나멋
##이지요
##이지ㅎㅎ
하면되
##는중인데
##는거야ㅋㅋ
친구네
친구중에
친구처럼
들어요
들어써
들어왔다
하나당
##고있는중
그럴때는
해야하니까
해야겟다
해야겠는데
그건좀
그건또
##해야하는
##해야하는거
##해야하는건가
이런것
이게뭐야
이게아닌데
그게ㅜ
다시는
다시자
##려고ㅋㅋㅋ
갑자기요
왜이랭
이미지는
언제다
언제야
언제올
언제도착
애들을
애들다
어디꺼
어디쯤
그런거니
그런거여
그런거징
나는구만
아이ㅋㅋㅋ
한번인데
어제랑
어제인가
좋아지
좋아해서
좋아했어
좋아해도
좋아하니
좋아하더라
다른가
다른곳
다른거지
다른사람이
다른애랑
다른의미로
##아ㅏㄴ
##아ㅏ앍
##아ㅏ아아
##아ㅏ아아ㅏ
##아ㅏ아앙
##ㅅㅋㄱㅋㄱㅋㅋ
머리채
머리띠
머리속에
수업함
수업하는
수업듣고
수업일수
##했어ㅋㅋㅋ
괜찮았음
##수있나
공부안
공부만
공부하지
공부하는데
공부한거
공부하자
공부하면서
공부한다고
공부하다가
공부하기싫다
##한다니
미쳤내
미쳤어요
미쳤어ㅋㅋㅋ
미쳤나보ㅓ
10배
ㅋㅋㅎㅋㅎㅋ
ㅋㅋㅎㅋㅎㅋㅋ
무슨날
무슨운동
무슨의미
사진사
사진으로
사진이야
몰라ㅎㅎ
몰라ㅎㅎㅎ
저거랑
빨리자
빨리봐
빨리가네
빨리끝내
재밌고
재밌네
재밌군
재밌긴
재밌더라
같이해
같이하실
아니야ㅎㅎ
ㅎㅎㅋㅋㅋ
그렇기
그렇겠지
그렇다구
##그래ㅋㅋ
문제풀
문제있어
기분을
하자너
하자ㅋㅋ
하자마자
하자있는거
이상해서
이상한게
원래부터
안되누
안되잖아
안되는겨
안되더라구
보내기
보내야
보내봐
보내셈
보내버리
보내자마자
여기로
여기나
시발이다
맛있으면
맛있어서
맛있는게
맛있더라
##했는데도
##길래ㅋㅋ
귀찮네
응원한다
에바다ㅋㅋㅋ
다음이
다음생
다음거
다음달
다음에는
다음시간에
하는법
하는말이
하는걸까
##어야됨
##시지요
피곤타
피곤함
피곤한데
피곤하겠다
진정이
진정쓰
진정되면
진정하시고
뭐가ㅋㅋㅋ
뭐가있을까
일어난거
게임만
게임하면
게임할거야
소설에
소설이라
소설이나
소설보다
소설원작
안해봤
안해ㅛ어
밥먹었
밥먹으면
밥먹다가
밥먹었다
##지는구만
아침이야
아닌지
아닌뎅
아닌뒈
아닌거같아
엄마만
죽을래요
죽을때가
취업한
취업해야되는데
취업역량
파일도
파일좀
싫어하는게
##새끼ㅋㅋㅋ
##새끼들이
뭐라는거
뭐라는거여
뭐라해야되지
좋은일
##겠네요
이러니
이러는데
이러는거
이러는중
이러고있다
고생하는구나
했는데도
##그러는데
전화도
전화할
전화해보
나가면서
나가뒤지
일찍자고
이걸몰라
가능이
가능하냐
##것같애
처음에는
처음보는
나오나
나오래
나오게
나오냐
안나오면
거기나
거기까진
이해못
이해하지
이해해주
프로세
프로토
##아니지
알아봤
알아내
알아먹
알아두
알아본
알아보고
잘못을
잘못말
잘못이지
잘못한거야
잘못했나
잘못보냄
먹어봐
먹어찌
먹어버려
먹어버렸어
먹어버리자
먹어여지
##버리니까
카톡만
카톡하고
혼자사
혼자가
안좋았
##하는거여
##하는거니까
아마두
아무것도안
시작은
시작하고
시작해보
시작합니다
시작하세요
시작한지
찾아옴
찾아가면
찾아보니까
##해보니까
##해보인다
##어ㅓ어어
기억해
기억에
기억하는데
기억안남
##나서부터
누구지
누구임
누구더라
없다구
없다는데
없다니까
느낌상
느낌쓰
않아여
않아써
고민은
고민된다
고민하다가
12일
자살을
자살할
집에가서
집에와서
##라는것은데
안보지
안보였
얘기할
얘기중
얘기하다
얘기한거
얘기하자
고양이야
다행인가
다행인거지
다행이구
별로네
맘에들어
맘에든다
만들어요
만들어야돼
아주조
노래잘
##는다면
##아아ㅏㄹㄱ
##한데요
##한데ㅋㅋㅋ
버스도
버스탔
집가야지
집가고싶음
집가고싶당
이름좀
그때가
그때그때
##같은소리
시험지
시험보러
시험기간
시험끝나면
ㅇㅇㅈㅇㅈ
귀여우면
아까웡
아까워서
과제만
살아야
저녁까지
##ㄴㅇㅎ
웹툰만
웹툰에
웹툰이야
웹툰인데
있는가
늦게잔
늦게잤네
졸려써
그랬었는데
너네랑
씻고온다
씻고왔다
##가는길
발표도
발표나
발표야
발표함
발표하고
발표하는거
발표준비
연락하
연락하는
안먹은
안먹는데
안먹었는데
안먹었네
행복함
행복하다
행복해지
기다림
기다려주
기다렸다가
개발과
개발할때
개발자는
##가지궁
미치지
영화보고
필요합니다
필요하다고
필요업서
그만하자
그만둬야지
코드도
모르겠군
모르겠덩
모르겠으면
모르겠으니까
프로젝트로
보면됨
##해주셈
##해주는데
끝나니까
끝나간다
미쳐써
당신을
할게여
화이팅ㅋㅋㅋ
화이팅하렴
짜증날
치킨이
치킨이랑
소리만
소리임
소리인가
11번
11시쯤
113화
데이터만
데이터분석
데이터베이스
##err
##ers
돌아갈
돌아감
돌아다녀
돌아가는데
해보려
해보장
해보고싶
고양이키우고싶다
조져졌
조져지는
동생새끼
한다니
한다며
한다는데
한다는게
##단다ㅎㅎ
있었죠
있었나요
했어야지
이모집
죽어가고
대단하지
대단한거야
대단하구나
ㅋㅅㅋㄱㅋ
##에에엥
사라지고
사라졌으면
##다니고
##다니ㅋㅋㅋ
나만그래
미안해서
미안해ㅋㅋㅋ
미안할건
개학때
개학인데
개학전에
파이콘
파이널
##가야됨
##가야해서
##가야되는데
세상엔
해봐야겠다
영상으로
##하고있고
##하고있니
##하고있누
##하고있었음
20시간
20만원
못해줘
ㅈㄴ짜
마지막은
병원감
병원가서
괜찮아졌
인정해
제출하
제출햇
제출하고
제출했는데
제출하는거
같은걸
그치ㅎㅎㅎ
일어나지
일어나게
오래됨
오래됐네
아니고ㅋㅋㅋ
##아아아ㅏㄱ
##아아아ㅏ아ㅏㅏ
나름대로
빅데는
##만원을
그런가요
그런가보다
자고일어나
방학동안
배고픔
어떤데
어떤분이
보여주는
가야징
가야해서
가야되나
아빠꺼
없지요
나왔엉
나왔다고
나왔다가
잘자요
##친구랑
병신임
병신이야
병신인가
병신같아
##시다냐
부럽네
부럽고만
올라와
올라감
올라간
올라옴
올라가서
올라가지
올라가면
하는거고
먹을래
먹을거임
받아도
받아줘
심심행
심심하니
고기는
고기구
포기는
아침에도
멘탈나가
자세가
자세여
자세한
자세하게
##stu
기대도
기대가
기대를
잠이안와
때려쳤
때려쳤어
어쩌라는
##된다는데
있을리가
있을거같은데
있을텐데
있을거여
##하시오
근육에
근육량
##해봐야지
저게뭐야ㅋㅋㅋ
거지가
무엇이지
무엇이죠
무엇입니까
자야해
자야할
자야하는데
어려울
어려웠
어려운데
정리함
##ㅇㅇ이
들가자
들가야지
있다구
한시간은
##ars
안좋아하는데
이모티콘이
인나보니
##지않냐
회사를
회사생활
레전드를
레전드ㅋㅋ
레전드였는데
라면에
재미들
재미따
재미쒀
재미없어서
알려드림
알려준다
한국이
##나봐요
##나봐ㅋㅋㅋ
노력을
확인을
힘드냐
힘드뤙
##적인게
말이죠
말이냐
말이돼
먹었고
먹었으면
먹었거든
먹었더니
먹었지롱
##갔다와서
개웃기겠다
누워따
누워잇
누워있어
누워있는데
##ㅏㅓㅜ
##ㅏㅓㅇ
파이썬도
파이썬에서
따라해
따라하는
안가는게
해주셈
해주는데
화장품
새로운거
새로고침
안들으면
안들가져
##느낌임
10분도
10분이면
10분동안
30분동안
못자게
못자는데
준비가
준비하고
준비하면
##러가야지
아이스크림이
광주로
광주는
광주팟
뚝딱이야
사이코
나와요
나와ㅛ
나와써
나와버림
내려가면
긱사에서도
떨어졌
떨어지고
아닐수도
##있는것
##할거냐
어쩔수가
조지는거야
걱정을
걱정하지
쉬어줘
쉬어가면서
영어공부
의미를
##던가요
스트레스로
스트레스받으면
다운이
대신에
유튜브를
고맙다ㅋㅋㅋ
고맙꾸나
##야야ㅑ
하고있고
하고있었음
들어가도
들어가기
들어가는데
들어가는중
다녀와서
생일때
못하겟
서울을
안들어와
안들어감
안들어옴
1500
맞아도
##는것과
##는것이야
##는것부터
##는것인가
##히히히ㅣㅎㅎ
##던거랑
중학교땐
하다보니
문명허쉴
추가해
##수업이
설명하면
아재들
##어가는데
만나자
안하려고
안하겠지
두개중
말해줄게
아는구만
아쉽당
##먹을시간
##먹을거임
##하는중이야
##하는중인데
뭔소리여
비슷해
##야돼요
생각해보면
ai에
알고잇
물어보는
물어보려고
고민중임
고민중이얌
개빡치
개빡친
저장은
교회가
어깨는
해줘야지
ㅋㅋㅋ그럴
다른거다
추천하면
카카오톡
잠들어서
##아ㅓㄹ
해야되는지
해야되는건가
않았고
않았습니다
자신있게
자소서가
자소서를
이야기하고
마이쮸
마이페이지
상관은
상관없이
##이래요
갔다옴
갔다오면
갔다왔다
갔다왔는데
이쁘긴
야발ㅋㅋㅋ
지랄을
지랄이야
불러오
애매한
애매하게
애매한데
으으어
이불이
이불도
##라ㅓㅇ
##라ㅓㄴ
고통을
고통스러
고통받는
나갈일이
나갈거같다
노예는
노예1
만드는중
만드는거야
빅데이터가
미래다
##이였나
##이였음
##이였구나
그럴수잇지
그럴수이ㅛ지
남자는
들고오
들고감
오후에는
오후수업
중요성
중요하지
##을거니까
##해줘도
##해줘야지
one
다리에
돌려줘
돌려가면서
돌려막기
상황을
상황은
생겼네
모르게ㅛ
모르게ㅛ어
모르게ㅛ다
ppt만드
바꿔줘
설치하면
설치했는데
여러가지
여수시
카페를
카페에
카페인
카페가서
##oot
##ooo
##ooks
대박인데
알려주면
알려주세요
질문은
##만들어서
##ㅅㅋㅅㅋㄱㅋ
그리는데
그리하여
나쁘지는
알았네
바꾸는
바꾸러
바꾸고싶다
올려도
올려놓
졸리다고
회의록
##ous
##ound
마스크를
먹어야돼
상상을
새끼는
안했고
무슨일ㅋㅋㅋ
방법으로
왜저런
임티는
임티를
자랑해
코딩은
코딩테스트
##보내서
##하지마ㅋㅋㅋ
사람들한테
어ㅐ이렇게
##acle
개인적인
시내가서
안할수도
중국에서
하라하면
##있지롱
##버릴수도
##ream
##공부좀
ㅋㄱㅋㄱㅋㄹㅋ
가끔은
다니던
다니는데
몇개월
사과하고
신청하고
매일매일
사랑을
##버린거
##ㅑㅇㅋㅋㅋ
13일
134
ㄴㅇㄱ
ㄴㅇ래ㅑ
계란말이
끝났네
끝났당
넣어놔
##먹었네
##먹었누
##먹었다고
뒤지겠네
뒤지십쇼
안쓰는
페북이
##나나나
미친거니ㅋㅋㅋ
하지마ㅋㅋㅋ
하지마라고
지하철이
지하철을
지하철은
그림을
그림자
그림으로
난리네
맞춰놓고
웬만한건
죽여버려
크림이
##이상해
화장실에서
2시가
2시부터
많은가봐
시원해서
신기하다
신기하네
안오지
안오는거야
일어났다
다르다구
링크좀
위험하지
장고는
##어ㅏㄹ
도와주세요
하체는
하체만
##하는거야ㅋㅋㅋ
우리집이
우리집에서
물어봐야
미치겠다ㅋㅋ
1시간마다
6시반에
기업이
기본은
보이게
조심좀
조심해서
##나오는
##나오는데
고생한다ㅋㅋ
가족이
계정이
놋북을
놋북으로
사고난
새벽까지
새벽감성
알지알지
자바로
하늘은
하늘에
##하하하ㅏㅎ
조용히좀
나아라
빡치게
선택을
선택되었습니다
선택장애
아닌가봐
누군데
누군가는
신경안
안남았어
즐겨야지
힘든가
드라마도
말하는겨
말하는건가
string
start
상태야
상태에서
상태이상
택배가
ㅋㅅㅋㅅㅋㅅ
3개만
9시까지
실행하면
실행해서
애니메이션
정신차리고
내꺼도
당황스러워
연습하면
예전에는
정확한
큰일남
헬스는
##모르는
##모르겟다
##ㄹㄴ우
19년
감자는
놀러간
멍청한
안된거
안된대
애기들은
전체적인
전체공지
왜이러는거야
1시가
3일만에
어그로가
저러면
저러네
##되는부분
18일
18년
개새끼야
빠르다
수면마
아나ㅋㅋㅋㅁㅊ
갈아치
갈아넣
닭가슴살이
대회나
바보네
가는구나
때문이야
미국가
이어지
생각중임
에어컨이
5분만에
무시해
무시하지
잠만ㅋㅋㅋ
장난하냐
할만한거
할만한게
##이로군
##한것을
##한것들
오른쪽은
뒤질듯
뒤질거같음
뒤질거같다
손절당
양치를
칭구랑
##보이냐
인터넷으로
까먹지
까먹어서
까먹었어
까먹고있었다
샤워하면
안내문
오전엔
지나갔
퇴근하고
친구들도
##어어어ㅓㅓ
1교시부터
뜽우야
안될것
안될걸
안될까요
이새끼들
##ㄷㅋㄷㅋ
하지말까
교육을
먹고싶어서
스쿼트를
슷님만
아아아ㅏㅇ
아아아ㅏㄱ
##시네여
##시네마
##오오오옹
self
나올때
시켜줘
어렵냐
에러나
에러남
좋겠더
헤어지
오래걸리네
가까우면
수정하면
주세요ㅠㅠㅠ
##만큼은
##ㅜㅠㅓ
##상태에서
ㅋㅅㅋㅅㅅㅋㅋ
중국어는
1분만에
안사면
커피는
ㅁㅊㄸㅁㅊ
간지나
간지러워
건강한
관련된거
안맞는
알림을
자리에서
쥬지됨
화나는데
화나는건
##봐야할듯
어디로가
졸리다며
나머지는
말아라
말아야지
보고싶은거
사주라
알고있어서
움직여
움직일
움직이는
이ㅛ고
이ㅛ는데
피자를
##지말구
pyrebase
pyplot
ㅇㄴㅁ
꿀잠잤
나이를
드라이기로
멀라여
바람구멍
배경이
봐야겠네
올때까지
즐거움
헌혈의
##라니까요
##때문이야
##때문인가
##ㄱㅋㅋㄱㅋ
##ㄱㅋㅋㄱㅋㄱㅋ
ㅇㅈㅇㅈㅈ
ㅁㄴ이
ㅁㄴ애랴
나쁜새끼
도망가
안죽었어
어이업
으우어어
으우어어어
하시더라
##으ㅡㅇ
250
300000
관심도
모기물
수준인데
신발이
웃긴거
웃긴거야
이후에
##로로그인
##라라ㅏ
##라라라ㅏ
ㅋㅋㅋ개욱
ㅋㅋㅋ개웃겨
ㅋㅋㅋ개웃기네
1년만에
160
16번
결제가
된거징
비싸다
소개과
소개시켜줘
슬프게
슬프구나
슬프구만
안써도
우유에
익숙한
잘해쒀
포맷해서
##아이덴티티
##부턴데
진정하렴ㅋㅋ
다행이네ㅋㅋㅋ
알려줘서
낮잠은
뭐하는데ㅋㅋ
부러어
존버중
창체는
창체때
헷갈려서
##하려다가
##1818
시끄러운
80점
걸어댕
걸어다니
그나저나
똑같애
말했던
비밀로
역겨운거
죄송해요
죄송하지만
지갑이
지갑에
지갑이랑
해여징
해여되는데
##코드를
##그런거
정신나갔다
146
21세
nodemon
뉴스에
느껴짐
답답한
던져줘
데려와
떡볶이는
마싯져
보는중ㅋㅋㅋ
씻어야징
씻어야하는데
예쁘지
즐기다가
할수잇어
##라그래서
미쳐가누
3번은
3학년은
늦어버렸어
못보는데
못보겠다
불쌍해서
수도관
안마심
지구가
타자연습
터졌는데
화요일이야
화요일까지
##이름이
##나보구나
##하후ㅏ
##드리는게
사진찍어
죽을거같애
나갔다가
나간거
무리하면
안받음
어머님
조합이
택시비
택시타고
하이텐션
감사합니다ㅏ
234교시
ㅋㄱㅋㅅㅋㅅ
ㅋㄱㅋㅅㅅㅋㅅㅋ
않을래
억울해
억울한
완성됨
투표는
하셨네
##ㅡㄴㄴ
##미쳤다
보내줘서
안나오네
새로운걸
db에서
기회에
담임이
뒤져버릴
뒤져야함
시러여
안걸리면
존재하지
페이지가
헤헤헤ㅎ
헤헤헤ㅎㅎ
##ution
아이폰은
##에에ㅔ에ㅔ에
카카페가
카카페에서
힘드러여
누워있다가
감기몸살
경찰차
깨달았
깨달았어
깨달았다
메모장에
못하는건가
셔츠는
이놈아
주무시고
착한사람
하려는데
하려다가
해석이
해석하네
##보는즁
맛있겠다ㅠㅜㅠ
##에에에엥
##에에에엑
넷플릭스에
form
meet
공기업
꿀잼이야
남았엉
남친이랑
염병ㅋㅋㅋ
인성파탄
했던걸까
어디갔냐
다른애들도
말도안되는
정신차려야지
트레이너가
트레이너형
45분에
anj
ann
깔끔하고
배터리가
쓰러질
이친구가
이친구야
있으려나
좋았으면
찢어지는줄
터지기
무슨일이얌
배고프고
##애애ㅐㄱ
거지같고
창업일반도
이어폰을
겨울방학
랜덤으로
블랙캣
이틀만에
입장은
정답을
##하겠누
시간표를
찾아보래
판타지소설
걔네가
경력직
마시멜로
뭐하고있냐
쌤들한테
여유가
오는길에
이로워
전기밥솥
존경스러워
초록빛
초대했습니다
카드가
터짐ㅋㅋㅋ
활동을
##야게ㅛ다
다이소에
2년동안
구워먹고
날아감
대환장ㅋㅋ
돈벌면
머가리가
봐보ㅓ
봐보셈
비교해서
사무실에
소중한
어따갔다
의문의
잘잤다
##러ㅑㅐㄴ
##단말야
##히힣히ㅎ
##할수잇
##123
응원함ㅋㅋㅋ
607동
oracle
while
where
가고싶어서
귀차너
그친구랑
기름칠
맞추면
멍충아
##되어있는
2명씩
comm
거리에
나무위키
대기중
돼지야
말씀해주
맛잇게
미니어
밥도둑
역겹다
오빠가
으으으ㅡㅁ
으으으ㅡㅇㅁ
자는구나
지내자
할아버지가
##기간이
##기간데
##야ㅐ러
##야ㅐㅓ
##ㄴㄴㄴ
##부렀어
개웃겨ㅋㅋ
안보내져
결혼식
기사님
내친구가
냄새남
너희반
단톡방에
드립을
배우고싶은데
않는구나
이리와
잘나왔
제목이
하라는지
##누구랑
미친년이야
눈물난다ㅋㅋㅋ
기대할게ㅋㅋ
무서운걸
오ㅑ그러니
오ㅑ그러지
유산소가
702호
끌어당
끝날때까지
담배피
못찾아서
아플거같은데
주먹으로
출첵만
##해줄께
##다다다
그럴리가ㅎㅎ
물어본거야
##애애애앵
어린이날
소름돋는
깜짝놀랬
깜짝놀랐
ㅁㄴㅇㄹㄴ
가슴에
걔랑은
귀환서
귀환자의
기초부터
닝겐의
등짝을
등짝에
멀티플레이
배워야하는데
부대찌개
슬프다ㅠㅠ
아으아
일상이지
잔인한
잔인한거
피해망
##사나이
##ice
##쿄쿄쿄
##언니랑
미친새끼네
미친새끼ㅋㅋㅋ
교수님이랑
55분
꺼져ㅋㅋㅋ
똑똑해
삼각김
싸가지없어
오셨어요
올리고당
재빈이
조진듯
직업기초
파마를
후하후ㅏ후
##야겠따
##새기들
사이트에서
개어려워
개많네
괜차낭
깨끗하게
당당해
사인은
생코에
성인되
순서가
안열어
알앗지
요약하면
짐싸야되는데
초반엔
쿠팡에서
##해준대
좋아할만한
인간관계는
뒹굴거리는게
가입하고
걸릴듯
귀찬하
글러먹었다
눈썹이
대가리가
대한민국
되긴하는데
레이더
모으는게
민증만들
안고쳐
야야ㅑㅑ
엔딩은
유명한
주제가
주제에
태어날
해명해
##해질거야
##보소ㅋㅋㅋ
##떨어져서
##떨어지면
이럴때만
헤헤헤ㅔㅎㅎ
able
all
같기도하고
놀래라
뜨거운
런닝맨
리턴즈
멍때리다가
못잔다
배아파ㅋㅋㅋ
안본다고
안만들면
안만들고
이딴걸
직장인
토욜은
패턴이
핵폭탄이랑
형찬이가
히히히ㅎ
히히히ㅣ
##설명회
##설명서
해야될까
못하겠고
studio
beast
개피곤하다
경우가
구러면
규렁이
달고나
베이비시
안조아
안깨고
안친함
안썼어
안썼으면
어두운
어두워
어두워서
입사후
##01권
##그그극
##2345
##끄러움
ㅋㅋㅋㄱㅋㄷㅋㄷㅋㅋㅋ
123교시
왜그랬니
기업가정신
물음표를
6월에
plt
갈궈서
노랑노랑
떄려치
민망해
배추봇
산업기능
아팠어
으메이징하다
이지경
팀플은
후후후
##ㅜ테ㅜ테
##키우기
##해야되니
이게뭐노
이번달은
거지같아요
##야야야양
안사라짐
안사라져
전남친이
1세트씩만
2배로
github
main
salary
version
꼬마어
뭔시간이야
벌레가
비율이
생명체
쇼핑을
스토리가
예를들면
오토튠
입원해야
잘생기
합법적으로
##흐히ㅡ
ㅋㅋㅋ뭔데ㅋㅋㅋ
inplacetrue
어이없어ㅋㅋㅋ
한두번이
2월까지
ㅓㄴ무
내맘대로
다섯시
빡칠듯
산학쌤
생산직
안타까
영향을
인난겨
자본주의
잘했네ㅋㅋㅋ
전설의
체험학습
##틀어놓고
##캬캬캬
지금부터라도
##하지말자
노가리까는중
입니다희가
transformer
개슬퍼
과정에서
그생각을
나중가면
덤벨컬
동윤쌤
드래그
문자열
서운해
신용카드
영혼이
오크지만
잘만들었네
재원쌤
정의구현
졸립따
징징이
판다스
플래그
##월야01권
##ㅏㅌ아
미쳐돌아가는구만
서울대병원
생기부에
싸우자는건가
말라죽는다
5인팟
구역장님
국수나무
깨닫고
나다운게
나홀로로그인
네네네ㅔ
눈뜨면
머릿속에
머릿속에서
물건을
성실한
안궁금해
자각몽
자정에
추울만하네
타임머신
팅글이
확률이
아이스박스
ㅋㅋㄱㅋㄲㅋㅋ
##진짜로ㅋㅋㅋ
##히히ㅣㅎ
강의듣기
류나경이랑
650
ktx
yeah
가짜사나이
괴담동아리
까먹었네
깔려있
맛난걸
맛깔나게
보시라고요
보람차
분리수거
세미콜론
소고기를
안쓴지
여성분이
열정적으로
옆구리가
옷갈아입고
잘생겼는데
취저야
투명의자
##보낸거
##조져야지
너무피곤해
하루하루가
그만둘게요
##ache
올리브영
안알려줌
userid
노아련이랑
mp3
mpp
match
numpy
warn
ㅂㄷㅂㄷ
개무섭
개짜증나
곶통스럽다
괜탆아
굶어죽
끔찍한
나에겐
넣을께
네임드
노숙자
데이콘
도둑맞
리버스빌런
뭔상황이야
블루투스
슬펐음
시청각
아랫집
어늘은
어어어엄청
역대급
역대급으로
오징어
용맹한
우동사리
주머니에
한동근
해산물
153번길
왜이러는것일까
project
proble
이자영쌤이
뒷목잡게하네
3000캐시
post는
광역어그로
구독자
구석에
까르보
네버랜드
떠날께
뜨신물로
롯데시네마
밥머거야지
번쩍번쩍
법규가
소프트웨어
싱가폴
쓰레기가
여캐가
역류성
용감한
웅장해진다
워드클라우드
원숭이다
재채기
##더ㅣ는데
##ㅕㅛㅅㄱ
##붕어빵
기분나빠
선물받은거
reader
지건마렵네
newnode를
5185
istqb
mvp
공인인증
그따위로
김가형
깸짝놀
난독증
남장여자
따끈따
리모컨
목련로
병문안
블러핑
스케일
싸지르고
안철수
어버이
어셈블
영달이
장제스
제때제때
조울증
집순이가
초상권
프랑켄슈타
##ㅍㅋㅍ
2018년
힘내려구나
경찰아조시
수분보충
흘러넘쳐
프렌치토스트
2박3
sd카드
sns
개찐따
구아바
구급차
국정원
권태기
극한의
글라스데코
꼼지락
노릇노릇
누누히
둥글게
듀얼모니터
말단병
무드등
믹서기
믿기지가
바탕화면
반갈죽
밥묵어야지
변호사
본격적으로
사치품
사모예
산악등반
스리슬
식도염
실환가
심신의
언데드
언행불일치
여깁니다
오리고기
이재민
이디야
읽는자
조정석
지혼자
퍼스널
학계의
##비싼데
##경기대회
머리깨진다
뭐가문제야
파이어베이스
initial
다이렉트로
에이에스엠알
치즈계란말이
초코와플
자다깨다
가위바위보
바이브레이터
에그드랍
ㅅㄹㅅㄹㅅㅂ
열린결말
윗몸일으키기
뭔논리야ㅋㅋㅋ
create
fp1
google
kpop
predict
poly
pandas
solution
system
value
vector
x키를
가아앙ㄹㄱ
간담회
개뜬금
곽은상
금남로
기프티콘
꼼꼼히
꾸역꾸역
나루토
눈코입
뒤죽박죽
딜레마
라벤더
로이킴
뭔느낌인지
믿고있었다구
분조장
비몽사몽
사직서
생리통
서형찬
세기조절
수류탄
수두룩
슈워제네
스자헌
아트박스
아쿠아
아홉시
오글거려서
오락가락
오므라이스
외유내강
원티드
유머딜
인종차별
일종의
작심삼
좋덴다
주유소
찌뿌둥
착실하게
춘추복
카이스트
커스텀
커미션
컴프리헨션
타노스
탭댄스
틈틈히
하반신
해머컬
해앳맴
현준이형
화염방사기
##서비스
##자격증
ㅁㅊㄸㅁㅊㅇ
problem
0원
07
0으로
1은
1초
1승
1톤
1부터
1시는
1주차
1순위
1에포크
2종
2트
2급
2주일
2000원
3은
3만
3살
3트
3편
3중
3가지
3키로
3마리
365
3천원
3단계
4회
4주
4살
4ㅡ
46
4시쯤
4명이서
5주
53
5티
5명이
5분이
5000원
5시쯤에
525
5번은
6만
6000
7이
7명
7천
72
74
7층
7시쯤
780
8트
8년
8번
8기가
9일
9번
92
a랑
aㅏ
ah
a라는
a형이야
b가
bg
by
bip
bad
bab
blo
back
book
c로
c는
c은
cv
cal
cow
cct
dr
da
di
dan
dang
div
dial
ee
em
err
ecl
fe
f5
fre
fun
gi
god
gpt
gog
gmail
hal
hor
heed
have
ik
ipy
ice
ill
idle
jas
let
m이
mb
man
mine
nu
now
ok
op
px
pe
poss
path
qt
qa
r이
rnn
rstu
root
si
s7
s극
set
sou
sle
save
ta
tf
tv
top
tost
type
un
wr
win
woo
want
yee
zz
ㄱ르
ㄱㄷㄱ
ㄴ너
ㄴ우
ㄴㄹㅇ
ㄴ우라ㅓ
ㄴ애랴
ㄷㄹ
ㄹ아
ㄹㄷ
ㄺㄴ
ㅁㅎ
ㅁㄷ
ㅁㄱ
ㅁ닝
ㅁㄻㄻ
ㅁ친ㅋㅋㅋ
ㅆㅇㅈ
ㅇ0
ㅇ나
ㅇ인
ㅇ너
ㅇㅀ
ㅇㅉ
ㅈㅎ
ㅈㄷ
ㅈ되
ㅈ돼
ㅈ밥
ㅈ망
ㅈ된다
ㅈㄹㄴ
ㅈ같아서
ㅋㄱㅋㅋ
ㅋ그럼
ㅋㅎㅎㅋㅋ
ㅌㅋ
ㅎ나
ㅎ힣
ㅎㅇㅎ
ㅎvㅎ
ㅏ이
ㅏㅠ
ㅏㅓ
ㅏㅁ
ㅏㅇㄴ
ㅐㅁ
ㅓ무
ㅓㅜ
ㅜㄴ
ㅜ하ㅓ
ㅡ아
ㅡ3
ㅡ냥
ㅣㅎ
ㅣㅁ
ㅣㅅ
가다
가시
가나
가오
가요
가여
가물
가난
가줘
가릴
가챠
가졌
가써
가긴
가늘
가량
가산
가뜩
가잖아
가겠네
가버렸
가려서
가도록
가십셔
가치가
각서
각이다
각이냐
간고
간게
간편
간직
간식으로
갈궜
갈라고
갈건데
갈준비
갈수록
감도
감리
감전
감격
감옥
감기가
감자가
감안해도
갑분
값어치
갓갓
강지
강림
강균
강해서
갖고있
같ㅇ
같긴
같구나
같잖아
같지만
같으니까
같으니
개다
개색
개부
개추
개통
개머
개친
개복
개쎄
개패
개꼴
개땡
개아파
개시키
개자식
개같음
개못해
개수로
개신기
개좋다
개일찍
개좋은데
개파탄
개냥이
갠적으론
갬성
갸웃기네ㅋㅋㅋ
갸아악
갸웃기네
거랑
거참
거릅니다
거대한
거제도
건성
건설
건축
건실한
걸음
걸렀
걸렸는데
걸리기
걸린다고
검증
검지
검열
검샥
것은
것만
것이다
것들은
게으
겜하고
격하게
견디
결심
겸사
경진
경수
경우는
경지에
계열
계륵
계피
계시는
계십니까
계시야
고이
고도
고러
고만
고운
고구
고속
고집
고ㅑ
고2
고쳐서
고픈데
고칠게
고데기로
고스톱
곤라
골반
골짜기
공작
공기는
과하게
과정이
과정을
관음
관대
광마고
괜한
괜춘
괴로워
교도
교시에
교감이
교사님
구상
구린
구랴
구간
구뤠
구뤱
구렇게
구하면
구했다
구우면
구러닝
구아아아악
국가
국회의
군주
군바
군고구마
굳은
굴릴
굴복
굴리면
굴러가
굴리는게
굿즈
궁디
궁둥이
궈궈
권유
귀를
귀걸
귀탆
귀염
그가
그데
그야
그쳐
그애
그전
그냐
그쌤
그대
그늘
그뒤
그레
그릉
그롬
그시간에
그말이
그말이야
그사람이
그쯤에
그순간
그사람들
그상황
그아아ㅏㄱ
그사이에
그으래
그부분만
그다지
근디
글읽
글쎼
긁으면
금단
금속
금식
금봉
금손
금붕어
급발
긔찮
기브
기지
기자
기출
기깔
기별
기역
기럭
기묘
기븐
기르고
긴데
긴거
길을
길지
길쭉
길렀는데
길건너
김은
김상
김종
김신
김유
김칫
깊게
까면
깍두기
깔창
깔았는데
깨가지고
깨웠어
깨가면서
깬거야
꺄르르
꺠고싶다
꺼무
꺼짐
꺼먼
꺼놓고
껐는데
꼬시
꼬물
꼬라
꼬셔
꼬박
꽂히
꽂아서
꽃게
꽃가루
꾸벅
꿀ㄹㄹㄹ
꿇고
꿈으로
꿈인데
꿈인가
꿈인거
꿈속에서
꿔서
꿨는데
끊긴
끓여
끝임
끝말
끝ㄴ
끝낫
끝이네
끝난거
끼면
낄뻔
나로
나게
나ㅜ
나질
나능
나냐
나라고
나는거야
나더라
나겠지
나네요
나라서
나을거
나을걸
나어ㅏ
나갔어
나라가
나왓어
나았을텐데
낙하
난ㄴ
날밤
날인데
남을
남고
남들
남구
남우
남창
남김
남숭
남으면
남은게
남겨서
남학생
남앗어
남기자
낫고
낫는데
낫더라
낫자너
낫지않을까
났다
났네
났음
낭군
낮아
낮에는
내지
내말
내껀
내셈
내놓
내잏
내껄
내탓
내야지
내새끼
내주고
내버려서
내잘못
내마음
낼루
낼까지
냅둬
냅두고
냈다
냈어
냈는데
냉동
냐가
너로
너말
너뭄
너니까
너같은
너처럼
너라서
너때문에
너였어
너보단
너어는
너덕분에
널어
넘나
넘겼
넘으면
넘파이
넣음
넣자
넣는거
넣었어
넣었다
넣는다
넣으려고
넣으셈
넣으라
네오
네엡
넥슨
노안
노려
노인
노출
노빠
노골
노는데
노코딩
녹화
놀리
놀때
놀램
놀림
놀랄
놀랫
놀고있음
놀때는
놀았지
농장
놓친
놓치면
놔뒀
누운
누우니까
눈호
눈뽕
눌렀는데
눕는게
뉴토끼
느린
느릿
느엙
느엑
느려서
느에에
느린거
늘었다
늙었어
늙은거
늙으셨
능지를
늦었지
늦는다고
늦었엉
니꺼
니트로
니얼굴
님만
다한
다스
다쓰
다원
다쳤
다돼
다뤄
다봄
다채
다컸
다해서
다리는
다르고
다떨어
닥치고
닦아
단가
단련
단점이
닫아
달다
달조
달리고
달아서
달려서
달렸는데
닭발
닭강
답지
답함
당사
당할
당빠
당하면
당일에
대소
대입
대전
대출
대양
대처
대결
대량
대패
대학교
대학생
대부분이
대덕은
대통령
댓츠
더해
더는
더자
더더
더먹
더빙
더듬
더하면
더하네
더나옴
던짐
던지면
덤벼
덩치는
데꼬
도안
도비
도발
도장
도박
도배
도노
도시가
도가니
도플갱
독을
독후
독방이
돈내
돈이없
돋을
돌면
돌멩
돕고
동구
동그
동창
동경
동역
돼라
돼ㅋㅋㅋ
돼있어
돼버렸
돼버렸어
돼있네
돼버린거야
돼버렸구만
됐니
됐엉
됐습니다
되야
되자
되닝
되길
되어서
되는건
되자나
되십쇼
되지않
되어가
되려면
되도록
되겟지
되시나요
된거같은데
된다니까
된다구요
될것
될것같
될텐데
될려나
됩시다
됫어
두둥
두명이
두마리
두두둗
두글자
둘중에
뒤가
뒤적
뒤짐
뒤져서
뒤졌다
뒷문으로
뒷통수
뒹구
듀라
드려
드롭
드웨
드럈
드는거
드리고
드는게
드네요
드릴까
드럽게
든게
듣니
듣게
듣는게
듣고있었는데
듣다보면
들듯
들킨
들켜
들렀
들갘
들려주
들갔다
들었음
들은게
들었나
들갔는데
들었던
들간당
들렀다
디금
디렉
디테일
디자이너
딕데이터
딥다
따서
따져
따위
따지고
따지면
따야되는데
딱인데
딱그래
딸꾹
땀나
땀내
땀땀
때도
때릴
때깔
때리지
때릴까
땜에
땡겨
땡겼
땡스
땡치면
땨려
떄문에
떠야지
떠났어
떡칠
떡꼬치
떨궈
떨궜
떴어
또라
또륵
똑같다
똑같음
똘추
똥망
뚜들
뚜둔
뚜들겨
뚝떨
뚫는다
뚱우
뚱뚱
뛰는
뛰어가
뜨는거
뜯을
뜯고
뜽웅
띠꺼
띵킹
라라
라우
라프
라노
라며
라잌
라멘
라스트
라이트
라인이
랩실
러쉬
레알
렉걸림
렌더
로타
로딩
로망
롤토
롤붕
롭스
롯시
루나
리미
리스크
리서치
마다
마래
마ㅣ
마장
마우
마탄
마라는
마자마자
마시는
마셔서
마십셔
마무리가
막을
막는
막히
막장
막창
막짤
만찬
만났어
만악의
많니
많ㅇ
많더라
많습니다
많으니
많운데
많았음
말야
말릴
말랐
말햇
말뚝
말리고
말인가
말하는데
말하자
말인지
말았는데
말았다
말할까
말하시
말하다가
말할거
말던가
말하려고
말하렴
말했다고
말해야겠다
말로는
말해보자
말랬는데
말안하고
말해야하지
말해보세요
맘놓고
맛나
맛읶
맛으로
맛이ㅛ
망고
망겜
맞출
맞는거지
맞냐고
맞으면서
맞을거
맡아
맡을게
매진
매ㅑ
맥에
맥으로
맨처
맨위에
먄날
머고
머니
머네
머여
머라
머그
머찌
머라고
머다냐
먹진
먹여
먹게
먹냐
먹던
먹는게
먹거나
먹지를
먹는것도
먹고싶음
먹고싶은
먹지말
먹은건
먹은거임
먼일
멀다
멈칫
멋져
멋있다
멋있네
멍들
메에
메갈
메르
멕시
멘토
멱살
멸망이
명을
명함
몇장
몇판
몇세트
몇명이서
몇신데
모음
모프
모찌
모인가
모드로
목걸
목대
목감
목차
목격
몰러
몰ㄹ
몰아가
몸만
몸쓰
몸에도
못주
못구
못죽
못말
못난
못넘
못돼
못간
못누
못놀
못춰
못풀
못믿
못한거
못간다
못오면
못하냐
못하지만
못봐서
못생겼
못갈듯
못할걸
못받았
못빠져
못갈수도
못일어날
못느끼
못이겨
몽고
무여
무공
무당
무ㅕ
무는거야
무리는
무ㅜㄴ
무제한
묵시
묶고
묶어
문질
문젠
문명이
물의
물려
물렁
물샌
물러가
뭐이
뭐보
뭐를
뭐져
뭐써
뭐랭
뭐하면
뭐하게
뭐였어
뭐있지
뭐냐면
뭐냐고ㅋㅋㅋ
뭐해야되지
뭐사지
뭐있을까
뭐할건데
뭐시다냐
뭔짓을
뭣도
뮤직
뮤ㅓㄹ
뮤ㅓ야
뮤지컬
미정
미성
미라
미칭
미녀
미숙
미쵸
미텼
미스테
민소
민수
믿을게
밀었어
밀려서
밀린거
밍기
밍꾸
밑줄
밑으로
바리
바쳐
바램
바벨
바쁠
바꼈
바깥
바보다
바쳐서
바랄게
박을
박건
박혀있
밖을
밖임
밖이여
반죽
반ㄴ
반송
반정도
반이얌
반존대
받게
받누
받고싶
받는게
받고싶다
받겠습니다
받으려고
발병
발랏
발광
발까락
밥솥
밥까지
밥이랑
밥이라도
밥에다
밥머겅
방심
방화
방울
방들어
방식으로
방바닥
배로
배만
배거
배치
배알
배마
배웅
배째
배붛
배꼽
배아픈
배운게
배아픔
백만원
뱁셋
뱅기
뱉어
버릴까
버전이
버릴게
벅지
번다
번거
벌면
벌고
벌구
벌자
벌어서
벌점이
범인이
범위가
벗자
벗어서
베타
베껴
베풀
벨트
변명
변동
변한게
별이
별ㄹ
병자
병합
병맛
병역
보물
보바
보류
보였
보세
보았
보석
보육
보긴
보조
보급
보노
보냇
보잖아
보이나
보이고
보거나
보는걸
보는건데
보려면
보기싫
보느라
보십셔
복실
복합
복대
복귀
볶음
본지
본듯
본선
본거같아
본거지
본건데
본받아
볼라
볼때
볼링
볼땐
볼륨
볼게요
볼만해
봅세
봅니다
봇을
봉쇄
봉사가
봐봄
봐보고
봐ㅛ어
봐야돼
봐야하나
봐준다
봐볼겡
봣어
봤엉
봤었는데
봤길래
봤을때
봤어도
뵈러
부항
부들
부자
부스
부루
부술
부추
부왕
부품
부드러
부사관
북마크
분신
분간
분량
분이라
불타
불좀
불치
불행
불길
불매
불쾌
불곰
불쨩
불빛
불질렀
붕괴
붙은
붙임
붙은거
붙이면
붙였는데
뷰ㅏ
브금
브라우
브레인
비도
비안
비스
비켜
비누
비판
비례
비춰
비염
비해서
비우고
비오는데
비맞고
비안오
비공개
빅엿
빈곤
빈칸
빈속에
빌리
빌런
빌드
빙그
빛이
빛을
빠이
빠개
빠릴
빠듯
빠름
빠박이
빡종
빤스런
빨고
빨강
빨ㄹ
빨랫
빨아서
빵이
빵은
빵만
빵실
빵으로
빵이랑
빵이라고
빻았나
빼먹
빼는게
뻐기
뻔한
뻗어
뻗음
뼈가
뼈에
뽀개
뽀사
뽀글
뽀로로
뽀시래
뽈뽈
뽑힘
뽑았어
뾰족
뿅하고
뿌득
삐져
삐뽀
삐약
삐삐
삐지면
삘받으면
사니
사가
사은
사수
사겨
사표
사내
사온
사란
사절
사냐
사본
사형
사골
사줬
사퇴
사니까
사세요
사야겠다
사놓고
사는건데
사야돼
사야해
사시는
사주고
사줄까
사고싶은
사주는
사지말
사십니까
사네ㅋㅋ
사생활
사줬어
사정을
사유가
사투리
사아발
산소
살도
살릴
살벌
살뺄
살수있
살거임
살거면
살았네
살기싫다
살았지
삼백
삿는데
샀당
상타
상함
상습
상견
상당한
새치
새뱍
새가지고
생ㅇ
생ㄱ
생체
생방
생략
생으로
샤유ㅓ
서있
서리
서열
서치
서식
서글
서민
서러워
서있으면
선이
선임
선빵
선선
선착
선뜻
설비
설렁
설정이
섬광
성이
성은
성대
세면
세끼
세트
세전
세우
세번째
세우고
세트로
셀렉
셋중
소가
소근
소파
소실
소울
소릴
소방
소불고기
속은
속에서
속마음
손모
손끝
손에서
손코딩
솔지
솔까
솜방
송도
쇄골
수다
수달
수월
수바
수입
수작
수위
수량
수염
수줍
수탉
수기로
수기는
수요일에
수분을
수시로
숙사
숙소
순살
순장
순식
순차
숟가락
술래
술취한
숨이
숨소리
숨기고
숯구이
쉐이크
쉐도우
쉬장
쉬움
쉬려고
쉬고싶다
쉬어요
쉬워서
쉬어도
쉬운거
쉬프트
쉽긴
슈우
슉슉
스태
스와
스키
스웨
스읍
스탭
스틱
스킵
스으으ㅡ
스프레
스무디
스레드
슬램
슬쩍
슬푸
슬기로
습도
습해
슷커
슷카페
승천
싀밸
시나
시오
시야
시파
시려
시에
시물
시냅
시강
시체
시감
시선
시방
시이이이
식을
식물
식상
식곤
식후
신의
신종
신간
신난거
신라면
신생아
신ㄴ난다
신스킨
실려
실어
실내
실헝
싫러
싫지
싫허
싫어어
싫은건
심쿵
심해서
심했어
심하네
심했다
십만원
싶엉
싶당
싶다고
싶구나
싶었어
싶더라
싶기도
싶었음
싸고
싸야지
싸워서
싸이버
쌓여
쌤쌤
써보
써줘
써놓고
써야해
써야하나
썩창
썸넬
썼고
썼엉
쏘쏘
쏙드러
쏠쏠
쓰셈
쓰라고
쓰고있
쓰고싶다
쓰지마
쓰라구
쓴듯
쓴건데
쓸수
쓸줄
쓸거임
쓸일이
씁니다
씐나
씨서
씨를
씨앙
씹음
씻기
씻으
씻었
씻자
씻었어
아로
아기
아고
아네
아앙
아르
아두
아차
아포
아원
아슈
아카
아잏
아좃
아익
아낄
아들은
아냐ㅋㅋㅋ
아아가
아가가
아하ㅏ
아시죠
아존나
아시아
아돈노
악세
악질
악몽
악아가
악귀야
안기
안면
안니
안줄
안ㅁ
안착
안났
안방
안놔
안낸
안추
안돌
안누
안침
안씻
안냈
안삼
안닫
안뇽
안흔
안하기
안하면서
안들은
안불러
안하지만
안갔는데
안그런
안부르
안왔지
안한걸
안ㄴ나
안간다고
안스는
안머거
안왔네
안하자너
안볼거야
안틀어
안빡쳐
안키고
안냈어
앉는
앉음
앉으면
앉았어
않군
않앙
않ㅇ
않넹
않누
않은거
않단다
않네요
않나요
않겠니
알을
알리
알까
알음
알ㄹ
알빠
알랴
알겟
알레
알고싶
알겠다
알리고
알거같음
알거같다
알지ㅋㅋㅋ
알겠니
알렸다
알겠다고
알거같지
암울
압서
앖어서
앞은
앞당
애뉘
애완
애쉬
애한테
액자
액체
앱시간
야ㅓ
야후
야간
야외
야야ㅋㅋㅋ
야아아아
야이거
야바위
약해
약소
약한
약통
약이나
얀님
얄라리
얇은
얏지
양이
양을
양쪽
양동
양념
양식이
어도
어무
어으
어음
어류
어플
어직
어덕
어잌
어둠
어니ㅋㅋㅋ
어어어엉
어중간
어똫게
어ㅏㄴ전
어시스턴트
언덕
언짢
언놈이
얻고
얻은
얻음
얻었는데
얻은게
얻었엉
얼룬
엄ㅅ다
업고
업보
업종
업체
업글
없ㄴ
없닝
없ㅅ
없찌
없움
없누
없쥬
없을때
없는건가
없는건데
없나봐
없었지
없잖니
없엉ㅇ
없잔하
없었습니다
없을라나
없었거든
없으셈
엉아
엉ㅇ
엉덩
엉덩이
에버
에릭
에ㅔ
에잇
에후
에필
에잉
에이스
에라이
에디션
에브리
에란트
엔요
여고
여파
여려
여태
여드
여깄
여까지
여학생
여보세요
역삼
역에서
역사를
연예
연금
연발
연세
연수는
열이
열차
열혈
열리는
엽이가
엿을
엿같
엿먹
엿같아
엿바꿔
영ㅇ
영통
영산
영어도
예수
예열
예술
예언
예에에
오예
오서
오게
오한
오열
오죽
오독
오천
오ㅔ
오랴
오십
오느
오홓
오는중
오는건
오만원
오려나
오애ㅐ
오도도
오디오
오처넌
오스틴
옥천
온클
온통
온몸
온갖
온다는
온다니까
올인
올릴
올ㄹ
올드
올만에
올렸어
올바른
옮기고
옮겼어
옷에
옷임
옷벗고
와나
와랑
와씨
와ㅠㅠㅠ
와아아아ㅏㅏ
왁스
완정
왔음
왔졍
왔다고
왔다가
왜왔
왜꺼
왜파
왜하지
왜하는데
왜있어
왜해ㅋㅋㅋ
왜일까
왜에ㅔ
왜물어
왜애애애ㅐ
왜함ㅋㅋㅋ
외변
외치
외부
외우고
외로워
외롭다
요오
요런
요망
욕좀
욕하면
욕하지
욕했어
욕할뻔
용기
용납
우도
우러
우물
우ㅜ
우디
우ㅗ
우잉
우우우
우주도
운수
운ㄷ
운돈
울진
울산
울면서
울엄마
울어라
웃다가
웃었어
웃으니까
웃지마
웃었다
웃는다
워옭
워낙
원청
원하면
원하시
원인이
원상복
웨않
웨이트
웹도
웹으로
웹에다가
웹프로그래밍
위시
위장
위경
유로
유사
유서
유재
유교
유능
유ㅔ
유감
유선
유급
유혈
유얼
육회
윤리
윤동
으야
으른
으르
으ㅔ
으억
으앍
으흠
으우어
으아야
으아아ㅏㅏ
으ㅡㅇ
으워어
은색
을매나
읎지
읎넹
읎어요
응우너
의외
이시
이여
이에
이겼
이갈
이너
이봐
이국
이전
이냐
이날
이계
이ㅔ
이두
이끌
이썽
이쉑
이맘
이짓
이닦
이학교
이어가
이라면
이사람이
이ㅛ다
이사가
이병신
이마트
이새낀
이쓴ㄴ데
이쪽은
이성을
이누나
이맛에
인거
인질
인강
인권
인대
인벤
인기가
인거같은데
인난거
인식을
인스턴
인스턴트
일로
일들
일주
일에
일과
일일
일등
일이야
일어서
일인데
일하자
일교시
일정이
일동은
읽으
읽어서
읽다가
읽었다
읽어야지
읽으면서
읽어도
읽을게
임의
입다
입만
입단
입양
입대
입었어
입을까
입어도
잇을
잇다
잇는거
잇몸이
있기
있서
있자
있더
있눈
있져
있느
있남
있누
있는중
있겠네
있었다
있네요
있나봐
있느데
있엉ㅇ
있더라구
있기야
자니
자나
자요
자려
자거
자비
자ㅛ
자봐
자영
자중
자판
자낳
자슥
자겠다
자는걸
자ㅛ어
자거라
자볼까
자도록
자는줄
자느라
자버렸어
자려구
자십셔
자ㅛ는데
자버렸지
자라고ㅋㅋㅋ
작사
작은게
잔디
잔액
잘잘
잘버
잘살
잘수
잘봐
잘알
잘잔
잘돼
잘됨
잘랭
잘놀
잘겡
잘껄
잘하자
잘먹고
잘한다고
잘할듯
잘먹어
잘한거야
잘하렴
잘되면
잘되는
잘보여
잘돌아
잘했음
잘하고있어
잘부르
잘만들어
잘먹어서
잘챙겨
잠다
잠온
잠옹
잠깜
잠오면
잠오는
잠온다고
잠온당
잡지
잡음
잡초
잡힌
잡혔
잡시다
잡히면
잤너
잤늬
잤당
잤닁
잤자너
잤으니
잤을걸
잤는뎅
장을
장지
장어
장편
장땡
장보고
장르는
장문으로
재발
재배
재촉
재영이
쟈철
저좀
저럼
저희
저거야
저기가
저에게
저아지
저새끼가
저버리지
저찌고
적이
적혀
적었는데
적성이
전라
전치
전원
전환
전산
전보다
전처럼
전적이
전학생
전날에
전과자
절뚝
절머겅
절차가
젊어
점을
점령
점수는
접어
접음
접었다
정시
정안
정정
정진
정적
정류
정품
정산
정렬
정해서
정했어
정시에
정당한
정강이
젖음
제어
제한
제습
제2
제초
젤라
조타
조직
조깅
조퇴
조빱
조오오
조그만
족장님
족보는
졸릴
졸았
졸렸
졸았다
졸라서
좀이라도
좁은
좁아서
종민
좆됐다
좋디
좋와
좋넹
좋누
좋겠지
좋던데
좋았다
좋다는
좋군요
좋겠니
좋으신
좋겟네
죄야
죤나
주네
주어
주실
주접
주전
주겅
주님
주민
주는거
주는거야
주려고
주더라
주던데
주세여
주식으로
죽다
죽엉
죽긴
죽이지
죽었다
죽기야
죽고싶어요
준게
준내
준거야
줄기
줄이야
줄어서
줌이
중반
중력
중견
중ㅇ요
줘서
줘요
쥬거
쥬금
즐김
즐겜
즐겼다
지정
지만
지꺼
지쳐
지출
지르
지혈
지목
지칠
지폐
지형
지켰
지워서
지이이
지우면
지쳐서
지친다
지형이
지왕이
직후
직장에
직후에
진전
진즉
진전이
진도를
질이
질릴
질리면
짐이
짐은
짐승
집도
집들
집임
집갔
집체
집이라
집이랑
집이지
집왔어
집이구나
집와따
집사님
짓을
짜리
짜집
짝수
짠해
짧아서
짧은거
짧은게
짱이
짱좋
짱맛
짱짱
째지겠다
쨌든
쩐당
쩔지ㅋㅋㅋ
쪼꼬
쪽에
쪽잠
쫄딱
쫄쫄
쫌만
쭈글
찍으
찍게
찍혔
찍는거
찍는게
찍기로
찍는건데
찍었지
찍는다고
찐이다
찔려
찔려서
찡긋
차고
차에
차분
차칸
차리지
찬조
찰떡
찰지게
참나
참석
참맛
참깨
참으면
참기름
창고
창시자
찾는
찾자
찾는거
찾는게
찾습니다
찾는다
찾기도
채우
채우고
책좀
책으로
책이나
챙겼
챙길
처맞
처먹고
처먹어
천지
천왕
철도
철철
첨봄
첫째
청구
체온
체고야
첵스
첸노래
쳐주
쳤다
쳤어
초면
초고
초과
초1
초2
초봉
초등학생
촉박
총기
총을
총마렵다
촤륵
촬영
촵촵
최하
최신기
쵝오
추구
추운거
추우면
추운게
춘다
춘배
출력이
춥냐
층간
치명
치니
치우고
치려했는데
친거
친신
침해
침묵
침뱉
칼을
캐리어
캔디
캡처
캬캬캬
커맨
커넥
컨닝
컨텐
컬쳐
컬러가
컴도
케어
케빈
켈베
켜자
켜놔
켜는중
켰더니
코도
코다
코에
코호
코스트
코든데
코커톤
콘솔
쾌락
쿠우
쿨쿨
쿵짝
큐큐큐
큨ㅠ
크로
크면
크네
크잖아
큰사이즈
클리
클라우
클라스
키도
키로
키를
키스
키메
키링
키뮤
타지
타인
타르
타겟
타락
탄다
탈취
탈크센
탐지
탐식의
탔당
탔는데
태종
태울
태국
태도가
태세전환
택근이
탭이
탱커
터가
터졋
터졌어
턱을
털이
털려
털리면
털뭉치
텀블
테두
토가
토치
토큰
토욜에
톡방에
통증
통신
통합
통계
통장에
통증이
통조림
투성
투우
툭툭
튀겨
트럭
특실
특성화
틀면
틀린
틀었어
틀었는데
틀렸다
티어
티저
팀으로
팀장님
팅팅
파데
파워
파국
파는거
파는게
판정
판자
판별
팔면
팔은
팔만
팔려
팔레
팔아서
팟이
패면
패치
패션
패널
패밀리
팩하고
팬티
퍼런
퍽퍽
퍽이나
펌을
펑펑
페이
페이스
펭귄
펴고
편하고
편이야
편해지
평점
평온
평창
폐인이
포효
포장
포부
포옹
포멧
포스트
포테이토
폭신
폰내
폰겜
폰하고
폰이랑
폰이라서
폰24
폼클
폼으로
퐁퐁
푸는
푸싀
푸는데
풀죽
풀림
풀어서
풀이랑
풀려서
풀리면
풀렸어
풍암
플레
플립
플라이
플리스
피스
피규
피지컬
피콜로
피크닉
필라이
필력이
핏줄
핑구
하소
하심
하란
하장
하규
하십
하묜
하듸
하거든
하겠네
하다니
하도록
하느라
하시고
하스터
하더만
하더라고
하고싶어요
하겠다고
하겠서
학부
한심
한발
한능
한창
한결
한분
한방
한뎅
한칸
한복
한빛
한사람
한건가
한거라
한문제
한장으로
핟교
할당
할사람
할줄은
함ㅋㅋ
함ㅎㅎ
함수가
합의
합리
합체
해죠
해용
해제
해부
해조
해따
해골
해올게
해가지구
해먹어야지
해준다고
해봤자
해볼겡
해볼래
해쓴ㄴ데
해놨어
해ㅛ지
해롭다
해버린다고
핵심
핵피
핼스
햅삐
햇살
햇더니
했데
했서
했죠
했자
했더
했찌
했즹
했어야
했을텐데
했드만
했ㄴ는데
향에
향수
허나
허지
허버
허위
헐어
헛구역
헤ㅐ
헤헿
헬쓰
헬프
혀깨
혁명
현생
현업
현웃
혈액
혈장은
형식을
호소
호미
호승
호떡
호로로
호롤롤로
혼미
혼남
홀랜드
홈트로
화들
화난
화날
화낭
화목
화밖에
화나요
확대
확확
확정이
환생
환공포
활발
황해도
회화
회피
회장님이
횡단
후비
후우
후두
후원
후욱
후ㅏㅓ
후식으로
후자는
후하ㅜ
후ㅏ후
훈수
휘휘
휴면
휴재
휴게
휴지로
흉내
흐아
흐를
흐하
흐트
흐ㅡ
흐ㅔ
흐으ㅡ
흑흐
흒댄
흔적
흔들면
흥선
흥얼
희흐
희미
히죽
히토
히히ㅎ
히히힣
히히ㅣ
히들스턴
히트맨
힘글
힘ㄷ르어
##이브
##이람
##이한
##이모
##이더
##이양
##이씨
##이것은
##이어도
##이냐ㅋㅋㅋ
##이뭐야
##이쒀여
##명밖에
##명이면
##도야
##도네
##도전
##도날
##도ㅔ
##도ㅒ
##도됨
##롤로로
##로브
##로움
##로다가
##로구만
##있엉
##있대
##있는거야
##있는건
##있겠지
##있거든
##있네요
##있을거야
##있었나
##있었던
##기해
##기쌤
##기출
##기관
##기라고
##기에는
##기분이
##기때문
##기귀찮
##을꺼
##을ㄹ
##을껄
##을라고
##을지도
##을것같아
##을만큼
##회수
##개나
##개인
##개꿀
##개ㅐ
##사시
##사서
##사살
##사실
##사냥
##사탕
##사해서
##사고싶다
##각인데
##해ㅛ
##해석
##해조
##해벌
##해버리
##해ㅛ어
##해ㅜㅜㅜ
##해버렸다
##해봅시다
##해드립니다
##ㅂㅂ
##는군
##는ㅇ
##는ㄴ
##는딩
##는뎋
##다아
##다야
##다메
##다름
##다닫
##다하고
##다는건
##다이스
##고도
##고문
##고같은데
##고싳다
##니랑
##시단
##시끼
##시트
##시ㅣ
##시럽
##시길
##시름
##시즘
##시는지
##시프다
##시라구
##시잖아요
##시겠어요
##시스템
##예아
##예뻐
##예쁘
##안다
##안들
##안전
##안ㄹ
##안대
##안봄
##안한다
##안했다
##안와서
##안하니
##안한다고
##안할래
##안하잖아
##안쓰고
##안한지
##가로
##가여
##가심
##가임
##가누
##가탕
##가리고
##가고있
##가지도
##가고싶은데
##가뭐야
##겠아
##겠ㄷ
##겠어서
##겠냐ㅋㅋㅋ
##아해
##아는
##아무
##아여
##아플
##아팡
##아케
##아봉
##아댜
##아빤
##아니다
##아ㅠㅠ
##아저시
##왔징
##왔을때
##데이
##데로
##데는
##데려
##데른
##데따
##데미
##데ㅠㅠ
##데리고
##러요
##러야
##러여
##러디
##러ㅓ
##러ㅣ
##러져
##러대
##러ㅜㅇ
##러ㅐㄴ
##러ㅐㅑ
##러매ㅑ
##서리
##서에
##서ㅓ
##브레드
##정의
##정연
##같다고
##나버ㅏ
##오리
##오어
##오내
##오ㅑ
##오우
##오ㅕ
##오아아
##오는건
##오더라
##오던데
##오니깐
##오도록
##오느라
##오십셔
##오옹ㅇ
##오피스
##오애ㅗ애
##근은
##요리
##요어
##요ㅠ
##요미
##요즘
##요소가
##코트
##코카
##무상
##무머
##무어ㅑ
##람ㅇ
##은것도
##싶음
##지진
##지른
##지됨
##지누
##지먼
##지모르
##만하
##만날
##만하고
##만하지
##만한데
##만이라도
##만드는
##야발
##야겠지
##야도ㅑ
##야긋다
##랑니
##건만
##으아
##으히
##으묜
##으시다
##으므로
##꺼요
##꺼를
##꺼니까
##보나
##보ㅑ
##보쌈
##보구나
##보는거지
##보지도
##보이고
##보고싶은데
##보십쇼
##보도록
##보고있는데
##보ㅗㄱ
##보직전
##진이
##진로
##진겨
##진행
##진건가
##진거지
##진다는
##베ㅔ
##리버
##리듬
##리ㅋㅋㅋ
##리기만
##파파
##파크
##파이랑
##소나
##소를
##소녀
##소유
##재생
##재주
##재ㅑ
##재ㅔ
##재배
##들한테
##들을때
##들때문에
##들었다고
##것지
##것과
##것두
##것닽
##네다
##네네
##네에
##tent
##생물
##생일
##했아
##했서
##했단
##했더
##했당
##했대
##했겠다
##했었어
##했더라
##했겠지
##했을듯
##했던거
##했을뿐
##했믄데
##려규
##려는건
##려운데
##려햇는데
##쳐요
##쳐쳐
##쳐먹고
##버버
##버터
##버는데
##버린다
##혀있지
##여징
##여먹
##여하나
##여주세요
##운서
##운ㅇ
##운ㄹ
##거기
##거서
##거인
##거ㅓ
##거애
##거ㅏ
##거랴
##거덩
##거깉
##거ㅏㅇ
##거였어
##주사
##주러
##주룩
##주냐
##주체
##주께
##주는거야
##주려고
##에러
